<unk>	0
<s>	0
</s>	0
.	-3.29177
,	-3.4151
▁a	-3.97589
▁v	-4.09605
a	-4.34754
▁se	-4.45247
▁na	-4.59325
▁	-4.59814
y	-4.61664
u	-4.70686
m	-4.70939
▁je	-4.92386
▁s	-5.02854
i	-5.07371
▁z	-5.12914
▁(	-5.17607
ch	-5.24515
▁V	-5.25027
▁do	-5.30791
o	-5.32188
em	-5.40847
▁"	-5.47505
ho	-5.53694
e	-5.5438
)	-5.57929
▁byl	-5.69108
▁o	-5.70633
ů	-5.71393
▁roce	-5.74103
▁ve	-5.80423
▁k	-5.8094
▁po	-5.81894
í	-5.83005
s	-5.83007
▁pro	-5.85657
▁za	-5.87998
▁od	-5.90009
▁i	-5.90314
-	-5.93587
▁jako	-5.9529
"	-5.98032
▁roku	-6.00972
é	-6.21418
:	-6.22576
ou	-6.2356
mi	-6.25216
▁u	-6.26437
▁byla	-6.28394
▁že	-6.30166
á	-6.31416
ní	-6.33283
▁jsou	-6.35574
t	-6.37437
).	-6.4395
▁S	-6.44482
▁jeho	-6.50613
ka	-6.54103
▁který	-6.54725
ové	-6.55719
ý	-6.56639
▁které	-6.57786
),	-6.58477
▁Po	-6.61525
▁–	-6.622
ně	-6.64079
▁při	-6.64296
▁ale	-6.65096
▁také	-6.65312
▁Na	-6.6537
ě	-6.66723
▁nebo	-6.6704
▁až	-6.70376
k	-6.71959
▁vy	-6.75581
ce	-6.76648
z	-6.78945
▁bylo	-6.79991
l	-6.81069
v	-6.82739
▁ne	-6.86778
né	-6.88328
▁to	-6.89807
n	-6.91796
ky	-6.92326
▁která	-6.92688
na	-6.92948
▁K	-6.95926
ské	-6.96333
ná	-6.97108
▁letech	-6.97346
▁pod	-6.97368
▁ze	-6.98715
▁„	-6.9992
▁kde	-7.03538
ci	-7.03819
ová	-7.05155
▁tak	-7.05691
▁let	-7.06148
",	-7.06415
d	-7.07118
▁A	-7.07747
r	-7.07994
▁mezi	-7.08184
▁Z	-7.08699
▁však	-7.08708
it	-7.08948
ku	-7.09425
▁-	-7.09862
▁století	-7.13574
▁byly	-7.13731
en	-7.16433
▁zde	-7.16693
▁před	-7.16779
▁si	-7.18944
▁má	-7.20116
ech	-7.20451
▁m	-7.23266
nou	-7.23749
▁O	-7.24851
mu	-7.24991
ých	-7.25022
▁I	-7.25405
▁první	-7.26007
".	-7.29373
▁Je	-7.29968
▁pře	-7.31641
ž	-7.34046
in	-7.34232
ská	-7.35211
c	-7.35275
▁své	-7.35541
uje	-7.38586
le	-7.38636
p	-7.40672
h	-7.40678
S	-7.40797
▁Od	-7.40894
▁či	-7.42442
ovi	-7.42559
ský	-7.42885
ových	-7.44025
▁Ve	-7.44223
b	-7.44756
▁de	-7.45103
ný	-7.45294
▁2	-7.45572
▁pak	-7.47881
ovat	-7.48287
▁("	-7.48785
ek	-7.48886
j	-7.48956
▁být	-7.4913
▁již	-7.49582
il	-7.50123
ovou	-7.5193
li	-7.51991
▁B	-7.53294
č	-7.53538
ského	-7.54391
er	-7.54435
la	-7.5464
▁nad	-7.5481
cí	-7.55221
st	-7.55472
▁jejich	-7.55861
ne	-7.56128
▁P	-7.56366
“	-7.5657
B	-7.57699
▁později	-7.58698
ový	-7.59297
A	-7.59585
▁Do	-7.59606
š	-7.59905
▁kdy	-7.60675
kou	-7.60738
▁ho	-7.61012
▁U	-7.61229
▁území	-7.61757
▁stal	-7.62286
al	-7.62454
▁aby	-7.62466
▁proti	-7.62735
▁M	-7.62872
▁km	-7.63457
▁D	-7.63992
▁17	-7.64062
▁C	-7.64127
C	-7.64499
ie	-7.65069
▁mu	-7.65153
")	-7.65614
▁než	-7.65732
el	-7.66322
▁Za	-7.67771
▁T	-7.67984
▁3	-7.68052
▁města	-7.68964
▁by	-7.70032
▁podle	-7.709
/	-7.72161
M	-7.72304
ého	-7.73628
ny	-7.74012
▁další	-7.74482
ných	-7.75236
▁jen	-7.7528
▁roz	-7.75843
▁ke	-7.7585
me	-7.76317
▁pouze	-7.76611
▁době	-7.76788
;	-7.76952
is	-7.77108
▁může	-7.7716
▁E	-7.77193
ta	-7.77833
▁1	-7.78377
no	-7.7916
de	-7.79301
▁přes	-7.79458
te	-7.79531
ách	-7.79555
ova	-7.79635
P	-7.80049
ování	-7.80543
K	-7.81287
D	-7.8146
▁části	-7.81608
▁část	-7.81975
▁obyvatel	-7.82134
▁16	-7.82218
us	-7.82801
T	-7.83307
at	-7.83753
to	-7.84603
▁této	-7.84816
▁více	-7.84967
▁15	-7.85173
lo	-7.85366
ově	-7.85622
ům	-7.85835
V	-7.86496
ře	-7.86801
oval	-7.87251
po	-7.87344
f	-7.87566
▁R	-7.88002
▁Jeho	-7.88009
▁její	-7.88279
'	-7.88407
skou	-7.88985
da	-7.8953
ují	-7.89544
g	-7.90407
▁F	-7.90409
▁když	-7.9053
▁ob	-7.90654
F	-7.91244
▁Pro	-7.91608
▁dvou	-7.92669
on	-7.92882
x	-7.92992
▁měl	-7.93833
▁bez	-7.93931
▁nachází	-7.94084
▁4	-7.94533
▁H	-7.94758
ni	-7.95309
▁ji	-7.95549
▁re	-7.95881
▁velmi	-7.96539
▁1.	-7.97033
ra	-7.97075
ských	-7.97168
ze	-7.97592
ba	-7.98159
▁G	-7.98322
▁5	-7.99223
ř	-7.99613
ov	-7.99696
▁což	-7.99824
▁období	-8.01181
ice	-8.01281
▁dva	-8.01701
ým	-8.0187
ko	-8.02067
et	-8.0248
▁několik	-8.02845
ec	-8.03545
an	-8.03738
G	-8.04611
sko	-8.04943
▁jak	-8.05028
▁září	-8.05188
▁získal	-8.05228
▁například	-8.059
ické	-8.06138
L	-8.06204
▁ještě	-8.06347
▁asi	-8.06417
se	-8.06518
re	-8.06559
▁co	-8.06628
▁tedy	-8.0676
▁Jan	-8.07256
do	-8.07349
▁oblasti	-8.07527
O	-8.08471
▁První	-8.08703
es	-8.0875
N	-8.08933
ace	-8.08943
▁druhé	-8.10692
H	-8.10703
▁10	-8.10711
▁především	-8.10716
▁kteří	-8.1072
▁20.	-8.11264
je	-8.12035
▁svého	-8.12279
▁Ne	-8.1231
ového	-8.12433
▁války	-8.12501
▁14	-8.12509
▁Roku	-8.12593
▁místo	-8.12898
ného	-8.1366
▁během	-8.1403
▁J	-8.14308
▁(19	-8.14831
▁6	-8.15068
E	-8.15129
cích	-8.15669
▁(*	-8.17075
ma	-8.17912
▁13	-8.17983
▁není	-8.18112
▁byli	-8.18179
▁12	-8.18472
▁České	-8.18606
▁obce	-8.18673
ří	-8.18881
va	-8.19759
▁tři	-8.19959
▁listopadu	-8.20388
▁mají	-8.20487
or	-8.21266
čí	-8.21364
▁Re	-8.21433
▁L	-8.21705
▁město	-8.21933
▁poté	-8.22038
▁jej	-8.2208
▁svou	-8.2215
ami	-8.22157
R	-8.22451
man	-8.22473
I	-8.22478
nice	-8.22768
ina	-8.22855
▁Byl	-8.22888
▁II	-8.23943
▁To	-8.24233
▁Š	-8.24324
ter	-8.24739
nu	-8.26017
lu	-8.26813
▁č	-8.26824
▁skupiny	-8.26881
▁kterou	-8.27006
2	-8.27196
ním	-8.27486
▁světa	-8.27533
▁Při	-8.27645
▁l	-8.27803
▁La	-8.27976
▁patří	-8.28211
▁tohoto	-8.28216
▁často	-8.28392
▁hlavní	-8.29006
▁dvě	-8.29116
ar	-8.29134
▁zejména	-8.29248
ti	-8.29251
▁spolu	-8.29265
tu	-8.29357
▁proto	-8.29465
▁tzv	-8.29551
▁pří	-8.29741
▁např	-8.29859
U	-8.30513
os	-8.3071
▁už	-8.30851
▁května	-8.30863
▁dalších	-8.31293
ly	-8.31897
▁Se	-8.32012
▁in	-8.32415
▁000	-8.32507
ovým	-8.33187
▁jeden	-8.33293
ným	-8.34429
ej	-8.34725
▁rok	-8.34869
▁Podle	-8.35059
▁7	-8.35117
▁října	-8.35144
id	-8.35249
ův	-8.35595
▁Praze	-8.35985
▁ú	-8.36062
▁N	-8.36287
▁n	-8.36339
▁kon	-8.36784
▁lze	-8.36853
za	-8.37395
če	-8.37651
–	-8.37869
▁června	-8.37897
ry	-8.38064
ická	-8.38082
nost	-8.38167
▁d	-8.38378
▁19.	-8.3846
▁světové	-8.38872
ení	-8.39008
ál	-8.39132
od	-8.39589
▁8	-8.39959
▁W	-8.40259
▁března	-8.40419
ty	-8.40544
▁strany	-8.4065
ha	-8.40774
▁začal	-8.40874
▁toho	-8.40902
vá	-8.41038
▁ledna	-8.41194
▁dubna	-8.41462
▁července	-8.4212
ám	-8.42381
▁měla	-8.42416
ing	-8.42534
kem	-8.4262
▁též	-8.42648
ve	-8.42831
▁tím	-8.43031
▁protože	-8.43268
ic	-8.43294
▁vlastní	-8.43378
▁2011	-8.43543
ší	-8.43719
▁místě	-8.43816
aci	-8.43987
lé	-8.44036
1	-8.44706
by	-8.44763
ních	-8.448
ck	-8.44878
ii	-8.45596
ur	-8.45949
▁společnosti	-8.46314
ed	-8.46471
▁Během	-8.46807
▁dále	-8.4685
ků	-8.46891
▁srpna	-8.46926
ul	-8.47016
▁nich	-8.47353
▁doby	-8.4743
ském	-8.47572
▁Ta	-8.47588
ru	-8.47636
lí	-8.478
▁2010	-8.48033
át	-8.48099
▁volbách	-8.4824
▁součástí	-8.48245
▁několika	-8.48359
▁té	-8.48539
ká	-8.48847
▁2.	-8.48899
▁ani	-8.49273
ství	-8.4935
▁prosince	-8.49394
▁of	-8.49539
▁ní	-8.4973
▁Ra	-8.49803
▁2014	-8.50145
4	-8.50269
▁všech	-8.50422
▁r	-8.50986
kon	-8.51088
ník	-8.51132
▁došlo	-8.51231
Z	-8.51303
ton	-8.51344
ém	-8.51351
▁působil	-8.51853
ost	-8.52191
ři	-8.52309
še	-8.52334
vi	-8.52488
▁sv	-8.52533
▁p	-8.52811
▁De	-8.52911
ot	-8.52925
▁smrti	-8.53127
ut	-8.53282
▁Mo	-8.53308
▁rámci	-8.53309
ol	-8.53378
▁název	-8.53454
▁těchto	-8.537
vol	-8.53704
▁svých	-8.53714
▁Ko	-8.53796
▁Le	-8.54046
▁Praha	-8.54047
▁%	-8.54274
▁český	-8.54326
19	-8.54358
si	-8.54396
ující	-8.54419
ované	-8.54604
ir	-8.55214
nější	-8.55349
ický	-8.55559
").	-8.55832
▁Mezi	-8.55842
▁opět	-8.5593
▁února	-8.55951
ců	-8.55981
▁nej	-8.5626
▁jiné	-8.56435
▁11	-8.56481
bu	-8.56966
ro	-8.57447
▁republiky	-8.57529
"),	-8.57579
▁metrů	-8.57653
ia	-8.58129
▁20	-8.58176
▁okrese	-8.58178
3	-8.5821
▁USA	-8.58233
ska	-8.58323
pa	-8.58701
W	-8.58788
▁kolem	-8.58795
ických	-8.59042
ovy	-8.59078
as	-8.59443
▁mnoho	-8.59601
▁členem	-8.59805
▁mohou	-8.60122
ím	-8.60223
▁Ha	-8.60472
▁9	-8.60579
▁ko	-8.61278
“.	-8.61281
▁2009	-8.61487
děl	-8.61762
th	-8.62011
tě	-8.62066
▁díky	-8.62156
▁tomu	-8.62367
▁tvoří	-8.62788
▁titul	-8.62846
▁tento	-8.62947
▁nové	-8.62956
jí	-8.62974
▁Al	-8.63005
▁svůj	-8.63323
▁Ma	-8.63392
ji	-8.63519
▁pochází	-8.63569
ích	-8.63798
ými	-8.63816
▁2012	-8.63991
dy	-8.6404
ským	-8.64192
▁2013	-8.64456
▁formula	-8.64863
▁tomto	-8.65226
vě	-8.65232
ber	-8.65409
di	-8.65426
val	-8.65762
▁Jako	-8.65834
ver	-8.6594
▁stala	-8.66067
▁Tento	-8.66106
ň	-8.66125
der	-8.66297
ila	-8.66316
vy	-8.66571
um	-8.67141
▁městě	-8.67344
men	-8.67386
▁The	-8.67628
ální	-8.67735
▁pomocí	-8.67737
sky	-8.67785
▁konci	-8.67849
▁jehož	-8.68006
ja	-8.6809
▁2008	-8.68147
ant	-8.68221
ního	-8.68734
w	-8.68746
nosti	-8.69205
▁něj	-8.69282
▁společnost	-8.69289
▁všechny	-8.69461
prav	-8.69638
▁názvem	-8.69778
ovala	-8.7007
▁různých	-8.70408
▁Ch	-8.70428
ickou	-8.70477
▁2007	-8.70516
▁svým	-8.70525
▁rovněž	-8.70526
▁Pod	-8.7066
▁Josef	-8.70678
▁2006	-8.70733
▁základní	-8.70858
J	-8.70957
ga	-8.71015
▁kostel	-8.71047
▁obec	-8.7115
ge	-8.71468
ací	-8.71487
▁země	-8.71522
ští	-8.72021
▁poprvé	-8.72046
▁ná	-8.72098
▁syn	-8.72114
▁bude	-8.72138
▁kvůli	-8.72359
▁velké	-8.72555
5	-8.72596
ú	-8.72632
▁2016	-8.72731
▁Mar	-8.7275
6	-8.72845
▁nakonec	-8.72962
▁straně	-8.73041
▁Ba	-8.73097
▁prvním	-8.73202
▁leží	-8.73727
ad	-8.73741
▁jí	-8.73955
stav	-8.74045
▁Č	-8.7412
kov	-8.74529
▁Pa	-8.74736
▁mimo	-8.74851
ť	-8.7492
land	-8.75211
▁tu	-8.75269
▁ha	-8.75311
▁filmu	-8.75398
▁některých	-8.75739
▁b	-8.7617
▁poslední	-8.76275
▁čtyři	-8.76275
▁Sa	-8.76423
▁2015	-8.76663
▁jedno	-8.76803
▁téměř	-8.77152
▁lidí	-8.77322
▁vesnice	-8.77331
▁zvolen	-8.77338
▁ovšem	-8.77419
7	-8.77652
ován	-8.78206
ši	-8.7823
▁zemřel	-8.7826
bor	-8.78275
▁větší	-8.78325
či	-8.78553
mat	-8.78786
▁Me	-8.78788
▁album	-8.79011
pro	-8.79101
▁Ka	-8.79245
▁vlády	-8.79294
▁h	-8.7946
op	-8.79752
iny	-8.8014
▁života	-8.80368
ví	-8.80452
▁New	-8.80508
▁jméno	-8.80649
dě	-8.8072
▁práce	-8.8074
▁celé	-8.80793
▁18.	-8.80941
▁Co	-8.80965
▁něm	-8.81066
▁Ho	-8.81201
▁dne	-8.81274
▁obci	-8.81336
▁Tato	-8.81621
▁cm	-8.82446
▁včetně	-8.82488
hl	-8.82631
▁Když	-8.82697
▁počet	-8.82711
▁tyto	-8.82858
▁znovu	-8.8308
son	-8.83151
▁možné	-8.83196
ob	-8.83237
un	-8.83273
nit	-8.8335
zi	-8.83363
du	-8.83486
▁tří	-8.83603
▁stále	-8.83723
▁mnoha	-8.83811
▁3.	-8.8392
▁válce	-8.84036
▁18	-8.84184
▁Ja	-8.84194
že	-8.84734
ler	-8.84912
ran	-8.84984
let	-8.84995
▁St	-8.85033
be	-8.85218
ili	-8.85361
▁systém	-8.85377
▁české	-8.85414
0	-8.85452
kové	-8.85656
▁2005	-8.85771
ční	-8.85781
ici	-8.85883
ke	-8.861
mo	-8.86436
▁2000	-8.86593
tr	-8.86716
dl	-8.86775
▁život	-8.86849
sku	-8.86985
▁hudební	-8.86996
▁okolí	-8.87176
▁t	-8.87292
▁Evropy	-8.87297
▁nejvyšší	-8.8786
▁musí	-8.88038
▁případě	-8.881
9	-8.88624
▁2004	-8.88711
▁hrál	-8.89088
mer	-8.8931
▁postupně	-8.89377
len	-8.89516
▁Marie	-8.89594
▁množství	-8.89602
▁Poté	-8.8983
▁některé	-8.89939
lin	-8.89946
▁He	-8.89957
lou	-8.90262
▁národní	-8.90537
án	-8.90564
ev	-8.90627
▁roky	-8.90777
▁roli	-8.91243
▁třetí	-8.91256
ud	-8.91418
vý	-8.9145
▁c	-8.91471
▁dnes	-8.91529
ák	-8.91531
8	-8.91561
ár	-8.91649
▁Ar	-8.91738
rod	-8.91747
▁obcí	-8.92162
les	-8.92179
▁svět	-8.92197
tá	-8.92247
pl	-8.92366
“,	-8.92446
ent	-8.92527
den	-8.92648
▁(18	-8.92826
ven	-8.92829
▁přičemž	-8.93248
▁jim	-8.93297
▁konce	-8.9336
▁původní	-8.93569
▁klub	-8.93736
▁společně	-8.93806
nými	-8.94065
ovými	-8.94154
▁umění	-8.94271
▁největší	-8.9458
▁rozdíl	-8.94677
▁pracoval	-8.94693
▁rodu	-8.94696
▁prostředí	-8.94698
▁nichž	-8.94819
▁severní	-8.95004
▁Další	-8.95064
▁svém	-8.95069
▁Be	-8.95138
▁celkem	-8.95277
tra	-8.95469
▁čtyř	-8.95655
▁klubu	-8.95693
▁skupina	-8.95846
▁jedním	-8.95856
osti	-8.95859
▁polovině	-8.95884
▁přímo	-8.95931
▁nez	-8.95967
▁stanice	-8.96049
▁4.	-8.96068
▁žilo	-8.96176
▁f	-8.96321
hu	-8.96405
bi	-8.96521
▁Dne	-8.96565
▁počátku	-8.9667
▁začala	-8.96764
lá	-8.96774
▁film	-8.96952
hod	-8.97127
▁člen	-8.97528
ó	-8.97726
▁stejně	-8.97834
▁používá	-8.97937
▁obvykle	-8.9795
pe	-8.9796
ard	-8.98019
▁2001	-8.98122
▁Ri	-8.98127
ner	-8.98148
▁2002	-8.9817
▁Zá	-8.98243
▁Jiří	-8.98496
br	-8.98545
20	-8.98586
▁druhů	-8.98721
sa	-8.98845
vat	-8.98955
▁16.	-8.98972
▁e	-8.98995
ón	-8.99192
▁typu	-8.99204
▁státní	-8.99367
▁jiných	-8.9946
▁Ro	-8.9958
▁školy	-8.99602
▁zcela	-8.99625
▁15.	-8.9965
▁Před	-8.9972
ického	-8.99728
▁dobu	-8.99756
▁Ú	-8.99929
▁zároveň	-8.99993
▁la	-9
▁čas	-9.00182
ri	-9.00203
ena	-9.0025
▁rady	-9.00327
▁30	-9.00396
▁vrátil	-9.00511
▁původně	-9.00533
▁většinou	-9.00541
▁Petr	-9.00597
▁Lo	-9.00685
su	-9.00686
ca	-9.00737
▁funkci	-9.00767
▁místní	-9.01002
▁tým	-9.01066
▁základě	-9.01176
▁Su	-9.01245
▁jež	-9.01278
ají	-9.01366
▁Pe	-9.01422
▁přibližně	-9.01511
▁17.	-9.01541
▁den	-9.01611
ková	-9.0168
▁krále	-9.01728
ron	-9.01771
▁100	-9.01911
nov	-9.01927
▁střední	-9.02056
▁zařízení	-9.02173
▁Jana	-9.02212
▁1990	-9.02536
vod	-9.02546
▁Sch	-9.02621
▁níž	-9.02645
▁ČR	-9.03181
▁systému	-9.03296
go	-9.03302
▁Bo	-9.03406
▁5.	-9.03411
▁pa	-9.03438
icky	-9.03577
▁král	-9.03693
▁řeky	-9.03784
sh	-9.03861
ak	-9.03961
▁druh	-9.03977
sk	-9.03989
▁následně	-9.04075
ine	-9.04099
▁menší	-9.04124
ační	-9.04237
▁the	-9.04348
▁týmu	-9.04665
▁kostela	-9.04674
▁14.	-9.0471
▁současnosti	-9.04851
▁dostal	-9.05005
▁získala	-9.0507
▁pl	-9.05587
ster	-9.05602
bě	-9.05634
ang	-9.05798
iště	-9.05847
ovaný	-9.0597
gen	-9.06034
▁někdy	-9.06091
av	-9.06133
per	-9.06284
▁Nachází	-9.06353
▁2003	-9.06434
▁nastoupil	-9.06438
▁hor	-9.06518
▁právě	-9.06684
▁š	-9.06871
▁Te	-9.06953
▁Její	-9.07061
bí	-9.07091
▁Ni	-9.07177
▁děl	-9.07314
▁mm	-9.07316
▁6.	-9.0734
▁2017	-9.07411
ována	-9.07425
▁kole	-9.07469
hr	-9.07816
ovo	-9.08112
▁jménem	-9.08123
▁Ž	-9.08214
▁pěti	-9.08619
▁Má	-9.08813
▁průběhu	-9.08893
bo	-9.08951
▁státu	-9.08992
und	-9.09048
ok	-9.09055
co	-9.0908
▁13.	-9.09086
▁rostlin	-9.09163
▁řád	-9.09195
fi	-9.09225
▁tehdy	-9.09259
min	-9.09319
▁Gu	-9.09343
▁tom	-9.09411
▁jižní	-9.09417
▁1945	-9.09533
nic	-9.09593
▁rod	-9.10111
▁So	-9.10132
▁Později	-9.10154
tí	-9.10171
▁pra	-9.10224
▁osob	-9.10228
▁mistrovství	-9.10263
▁Ti	-9.10276
▁Lu	-9.10316
▁dokonce	-9.1033
▁Li	-9.10335
▁převážně	-9.1039
▁per	-9.10792
▁12.	-9.108
např	-9.10821
▁vody	-9.10986
▁vede	-9.11075
dr	-9.113
▁oblast	-9.1137
čin	-9.11471
10	-9.11547
▁nevy	-9.11738
▁Dr	-9.11774
nik	-9.11788
▁Kromě	-9.1179
▁politik	-9.11897
▁verze	-9.12151
▁práva	-9.12175
▁ten	-9.12456
▁zpět	-9.12498
▁sám	-9.12513
▁jednoho	-9.12591
ovaná	-9.12856
▁František	-9.12902
▁tato	-9.13017
▁hlavně	-9.13102
▁Ten	-9.13118
▁10.	-9.13129
▁1992	-9.13153
té	-9.13183
pt	-9.1327
▁mil	-9.13273
▁Jedná	-9.13318
ovice	-9.13486
ovém	-9.13523
▁hlavním	-9.13542
ger	-9.13576
han	-9.13596
sta	-9.13631
▁bývalý	-9.13633
▁Karel	-9.13716
▁Ga	-9.13724
▁autor	-9.13863
▁30.	-9.13877
▁Ná	-9.14218
▁světě	-9.14233
▁Ke	-9.14358
▁hrad	-9.14369
▁americký	-9.14405
▁př	-9.14418
▁obsahuje	-9.14444
▁nepo	-9.14511
est	-9.147
▁železniční	-9.14732
▁ta	-9.14824
▁druhy	-9.1489
▁současné	-9.15001
▁kr	-9.15026
▁X	-9.15053
▁7.	-9.15238
▁směrem	-9.15527
ion	-9.15611
▁jejím	-9.15749
50	-9.15856
The	-9.15989
▁vždy	-9.15999
▁rodiny	-9.16019
▁pět	-9.16034
rad	-9.16056
▁různé	-9.16092
▁di	-9.16161
▁založil	-9.16347
vin	-9.1635
pol	-9.16399
▁11.	-9.16587
ovací	-9.16601
▁jedna	-9.16682
▁jednou	-9.16717
▁8.	-9.16773
-19	-9.16779
▁obou	-9.17004
ik	-9.17036
▁neboť	-9.1705
▁zemi	-9.17056
▁stát	-9.17148
ten	-9.17158
▁tisíc	-9.17341
▁utkání	-9.17371
▁označení	-9.17455
▁pokud	-9.17536
stup	-9.1761
▁toto	-9.17682
▁50	-9.17692
ární	-9.1773
▁Da	-9.17742
▁Kon	-9.17779
ala	-9.17896
▁zemí	-9.17956
▁9.	-9.18032
▁olympijských	-9.18117
čka	-9.18168
▁Bar	-9.18171
▁No	-9.18292
ké	-9.18417
▁Martin	-9.18529
sen	-9.18571
ovaných	-9.18615
▁1998	-9.18616
▁vznikl	-9.18647
str	-9.18772
▁hrách	-9.18781
▁Václav	-9.19001
▁funkce	-9.19028
▁21.	-9.19069
▁kterém	-9.19234
▁soud	-9.19279
▁ex	-9.19363
▁nes	-9.1938
ovali	-9.19465
▁Roz	-9.19591
▁zmínka	-9.19631
ä	-9.1964
▁Ob	-9.19662
dí	-9.19666
hrad	-9.19673
▁Di	-9.20224
▁vz	-9.20397
▁Narodil	-9.20521
ovány	-9.20526
▁shromáždění	-9.20536
▁sebe	-9.20558
▁třídy	-9.20669
▁organizace	-9.20697
▁III	-9.20753
▁obvod	-9.21035
▁hodin	-9.21052
ií	-9.21094
ex	-9.21277
ment	-9.21342
▁Ku	-9.21378
▁republice	-9.21454
▁práci	-9.21474
ér	-9.21474
gu	-9.2148
▁0	-9.2154
▁panství	-9.21548
▁částí	-9.2159
ers	-9.21595
▁Evropě	-9.21882
ené	-9.21922
▁Man	-9.21979
ist	-9.21983
▁El	-9.22018
ání	-9.22114
▁německé	-9.22134
ném	-9.22156
▁mohl	-9.2219
▁jedné	-9.22231
▁uvádí	-9.22253
▁Du	-9.22433
▁začátku	-9.22434
▁království	-9.22625
ung	-9.22693
▁číslo	-9.22745
▁ma	-9.22752
▁vznikla	-9.22796
▁du	-9.2284
▁Per	-9.22849
▁hry	-9.22857
mar	-9.22885
▁nebyl	-9.22967
▁seriálu	-9.23014
▁tuto	-9.2307
chod	-9.23072
▁západní	-9.23103
ista	-9.2322
▁děti	-9.23276
tel	-9.23314
▁nový	-9.23397
nění	-9.23677
▁dal	-9.23688
▁mělo	-9.23695
▁•	-9.23735
var	-9.23766
eb	-9.23794
▁českých	-9.23795
▁přírodní	-9.23864
▁Tyto	-9.23924
▁okolo	-9.23961
▁dříve	-9.23966
▁finále	-9.24008
▁1996	-9.24026
rt	-9.24151
▁Her	-9.24366
ář	-9.24368
št	-9.24442
▁mít	-9.24661
▁hnutí	-9.2477
▁armády	-9.24798
▁pan	-9.24843
▁vyšší	-9.24865
▁vliv	-9.25237
ig	-9.25326
▁silnice	-9.255
▁Dále	-9.25526
áz	-9.25647
▁regionu	-9.25694
bou	-9.25794
▁moc	-9.25954
▁napsal	-9.25984
▁nedo	-9.26144
ct	-9.26173
▁1999	-9.26219
▁avšak	-9.26222
▁východní	-9.26378
▁soutěže	-9.2662
▁kraji	-9.26621
ü	-9.26972
▁států	-9.27046
álně	-9.27181
30	-9.27209
▁g	-9.27527
▁1989	-9.27532
slov	-9.27536
▁hráč	-9.27537
rov	-9.2763
▁kulturní	-9.27633
▁Ze	-9.27836
▁25	-9.27846
▁Mistrovství	-9.27872
tin	-9.27914
▁zatímco	-9.27988
2.	-9.28011
▁Fa	-9.2805
iv	-9.28409
▁význam	-9.2867
ží	-9.28708
▁svatého	-9.28742
form	-9.28892
▁kilometrů	-9.29019
▁1991	-9.29033
lik	-9.29128
▁věku	-9.29216
▁dvoj	-9.2924
11	-9.29404
▁každý	-9.29415
ín	-9.29496
▁vrchol	-9.29547
▁40	-9.29664
▁kraj	-9.29703
kách	-9.29739
▁neu	-9.29772
▁pravděpodobně	-9.29779
▁sociální	-9.29819
zí	-9.29827
▁studoval	-9.29947
rn	-9.30095
▁vydal	-9.30101
▁univerzitě	-9.30128
inu	-9.30282
ana	-9.30325
zna	-9.30343
▁spíše	-9.30362
▁Mi	-9.30376
▁Pokud	-9.30481
▁hra	-9.30711
pi	-9.30768
lit	-9.30914
▁dvěma	-9.30961
▁1994	-9.31119
věd	-9.31138
80	-9.31187
▁říše	-9.31271
▁služby	-9.31344
▁jenž	-9.31391
▁vyhrál	-9.31397
▁výboru	-9.31406
▁dat	-9.31437
▁údolí	-9.31461
▁Severní	-9.31488
▁John	-9.31518
▁řadu	-9.31548
▁bratr	-9.31601
ček	-9.31617
ub	-9.31691
00	-9.31748
▁adres	-9.31774
▁výkon	-9.31797
▁věd	-9.31808
▁prostor	-9.31839
▁In	-9.31855
▁stojí	-9.31925
tan	-9.31936
fr	-9.31987
▁kterým	-9.31996
ence	-9.32004
▁nechal	-9.32039
▁podařilo	-9.321
oz	-9.32184
Š	-9.32235
▁způsob	-9.32273
▁nejen	-9.32309
▁výšce	-9.32311
▁otec	-9.32317
▁díla	-9.32425
kr	-9.32457
▁Bu	-9.32459
▁Toto	-9.32489
▁Or	-9.32535
itel	-9.32609
▁Pi	-9.32796
▁her	-9.3295
▁kterých	-9.33016
ss	-9.3313
▁měly	-9.33136
ič	-9.33161
▁druhý	-9.33218
▁Spojených	-9.33376
sel	-9.33405
▁Zde	-9.33408
bra	-9.33453
▁kterého	-9.33521
▁Kostel	-9.33562
▁Mal	-9.33567
ö	-9.33591
sti	-9.33677
▁vzniku	-9.33689
zá	-9.337
60	-9.33932
▁navíc	-9.33994
▁velký	-9.34061
▁Pan	-9.34103
▁obraz	-9.34172
pat	-9.34206
▁takže	-9.34394
ovu	-9.34395
▁Velké	-9.3461
▁příliš	-9.34805
pr	-9.34871
▁stav	-9.34892
▁1993	-9.34895
▁zhruba	-9.34939
▁severu	-9.3498
▁Prahy	-9.35008
▁náměstí	-9.35114
▁FC	-9.35169
ař	-9.35186
▁poměrně	-9.35233
▁Pří	-9.35242
▁pe	-9.35312
▁nejsou	-9.35326
▁stál	-9.35434
▁dr	-9.35441
▁starší	-9.35473
▁tvar	-9.35813
▁nově	-9.35843
▁ni	-9.35959
▁jmenován	-9.35982
and	-9.35996
▁francouzský	-9.3602
▁šest	-9.36039
▁škole	-9.36068
sí	-9.36155
nes	-9.36177
▁Hlavní	-9.36512
▁jednu	-9.36605
▁vítězství	-9.36784
cem	-9.36834
hy	-9.36907
▁ním	-9.3697
▁San	-9.37051
hal	-9.37067
▁nikdy	-9.37091
▁moře	-9.37133
▁skupin	-9.37269
rat	-9.37273
ismu	-9.37311
kol	-9.37355
▁znamená	-9.37419
tem	-9.37516
▁práv	-9.37671
▁cca	-9.37695
▁1948	-9.37988
▁kromě	-9.38022
▁str	-9.38147
▁původu	-9.38154
res	-9.38309
▁Tu	-9.38338
nici	-9.38344
▁řada	-9.38358
he	-9.38476
▁vysoké	-9.3849
▁28.	-9.38543
▁žen	-9.38553
▁1995	-9.38573
▁bývá	-9.38584
▁typ	-9.38601
byt	-9.38651
▁dobře	-9.38694
dá	-9.38821
▁vedl	-9.38905
▁dlouhé	-9.38916
▁Nej	-9.38956
mp	-9.38967
▁post	-9.39026
▁and	-9.39071
▁kol	-9.39096
▁1997	-9.39146
kal	-9.39156
mann	-9.3925
▁tam	-9.39262
átor	-9.39471
▁Val	-9.39494
ren	-9.39517
ff	-9.39523
▁založen	-9.39582
▁cenu	-9.39654
▁Ru	-9.39696
uk	-9.39754
▁lednu	-9.39826
▁Open	-9.39937
▁prvních	-9.39978
ity	-9.40003
era	-9.40085
▁čímž	-9.40089
iz	-9.40144
eš	-9.40304
▁strana	-9.40327
▁projekt	-9.40639
▁syna	-9.40736
▁méně	-9.40754
▁musel	-9.40803
▁Ge	-9.40875
lez	-9.40909
▁von	-9.4091
▁stranu	-9.40941
▁odešel	-9.41007
▁stavu	-9.41019
mon	-9.41052
▁pár	-9.41089
40	-9.41095
ík	-9.41152
▁Jo	-9.4116
▁fotbalový	-9.41161
ký	-9.41166
▁výzkum	-9.41223
▁Francie	-9.41305
▁řady	-9.41413
ád	-9.41485
▁písemná	-9.41501
▁rozhodl	-9.41598
▁obě	-9.41668
▁sezóně	-9.41698
▁sice	-9.41704
▁Ab	-9.41763
lov	-9.41768
▁celou	-9.41773
▁jihu	-9.41778
tal	-9.41863
▁korun	-9.41906
▁císař	-9.42001
lan	-9.42024
ker	-9.42105
▁Obec	-9.42171
aj	-9.42176
por	-9.42207
▁jednotlivých	-9.42267
-1	-9.42326
vou	-9.42396
▁členů	-9.42426
bal	-9.42468
▁Har	-9.42493
▁žije	-9.42612
▁dá	-9.42738
▁kar	-9.42762
eč	-9.42815
▁alba	-9.4289
▁br	-9.4289
▁vodní	-9.43015
▁Pře	-9.431
▁Byla	-9.43119
▁řádu	-9.43173
lat	-9.43207
▁prvního	-9.43232
fer	-9.43241
měř	-9.43252
klad	-9.4333
▁činnost	-9.43345
▁jedná	-9.4338
▁singl	-9.43459
▁hvězd	-9.43582
▁věnoval	-9.43606
▁místa	-9.43609
už	-9.43698
▁vol	-9.43735
van	-9.43746
▁spojení	-9.43752
▁provoz	-9.43838
▁zákon	-9.43869
we	-9.43966
▁vydání	-9.43967
X	-9.44058
▁loď	-9.44088
ismus	-9.44112
▁Ca	-9.44146
ď	-9.4425
lon	-9.44313
▁model	-9.44334
rd	-9.44367
▁postup	-9.44372
hled	-9.44446
itu	-9.44453
▁vedení	-9.4455
▁Jejich	-9.44552
om	-9.44561
▁milionů	-9.44638
▁pobřeží	-9.44682
cz	-9.44703
▁slouží	-9.44762
berg	-9.44814
▁1968	-9.44832
ruš	-9.4485
▁žádné	-9.44861
▁nejlepší	-9.4497
▁prezident	-9.44984
▁nejprve	-9.45252
voz	-9.45266
ki	-9.45269
▁městem	-9.45298
▁25.	-9.453
12	-9.45388
и	-9.45592
90	-9.45621
▁činnosti	-9.45622
ley	-9.45697
▁školu	-9.4596
▁odehrál	-9.45989
tek	-9.46207
70	-9.46282
▁potok	-9.46293
▁škola	-9.46345
▁lodi	-9.46358
▁boj	-9.46398
▁Y	-9.46409
▁většina	-9.4645
▁mezinárodní	-9.46527
▁ba	-9.46568
stal	-9.46636
▁dnešní	-9.46668
▁Go	-9.46724
▁měli	-9.4682
ius	-9.46824
▁22.	-9.46859
▁Brně	-9.46876
▁právo	-9.4688
▁počtu	-9.46901
▁známý	-9.46901
tro	-9.46927
▁působí	-9.47015
▁jednotky	-9.47028
▁aktivní	-9.47144
drž	-9.47238
▁narodil	-9.47263
▁Mon	-9.47349
▁součást	-9.47353
▁následující	-9.47372
▁jde	-9.47386
▁24.	-9.47453
ag	-9.47556
▁An	-9.47635
▁knih	-9.477
–1	-9.47701
▁23.	-9.47759
vo	-9.47895
▁kam	-9.47905
ilo	-9.47914
vr	-9.47985
▁ryb	-9.48146
▁200	-9.48206
ika	-9.48234
zu	-9.48283
▁historii	-9.48346
▁Cha	-9.4844
▁Jižní	-9.48611
ění	-9.48648
byl	-9.48657
▁provozu	-9.4898
kup	-9.49099
▁vnitřní	-9.49107
▁českého	-9.49156
▁21	-9.49191
▁Seznam	-9.49252
▁Ben	-9.49274
▁mužů	-9.49322
▁skončil	-9.49326
▁nyní	-9.49436
▁sbor	-9.49526
▁celý	-9.49693
▁ty	-9.49713
▁prosinci	-9.49752
▁vytvořil	-9.50044
▁řízení	-9.50085
▁stalo	-9.50149
ali	-9.50262
▁lodí	-9.50276
▁obchodní	-9.50553
Č	-9.50555
▁poslanec	-9.50634
nd	-9.50706
▁americké	-9.50758
▁parlamentu	-9.50777
▁vývoj	-9.50788
vaz	-9.50832
ium	-9.50865
ovaly	-9.51031
duk	-9.51046
▁pole	-9.51049
del	-9.51095
ita	-9.51391
▁zemích	-9.51429
▁tr	-9.51449
krát	-9.51467
▁znám	-9.51474
▁minut	-9.51641
▁park	-9.51683
▁komp	-9.51686
pon	-9.51697
▁26.	-9.517
14	-9.51701
bit	-9.51709
▁domů	-9.51787
▁malé	-9.51814
ier	-9.51872
kami	-9.51885
▁Francii	-9.51998
▁prostoru	-9.52022
dal	-9.52086
▁Národní	-9.52101
▁27.	-9.52148
▁Mor	-9.5229
▁použití	-9.52338
▁Československa	-9.52432
▁neza	-9.52444
▁sportovní	-9.52473
čit	-9.52563
▁možnost	-9.52592
zy	-9.52661
tor	-9.52669
rou	-9.52679
▁vedoucí	-9.52722
▁ostatní	-9.5275
▁kom	-9.52832
ickým	-9.52838
▁šesti	-9.52849
▁třeba	-9.52857
▁hranice	-9.52997
25	-9.52998
▁symbol	-9.53014
plat	-9.53088
▁kandidát	-9.53192
▁program	-9.5323
▁jazyk	-9.53247
▁němž	-9.53249
ng	-9.53327
▁dosáhl	-9.53435
▁31.	-9.53458
▁svými	-9.53487
níci	-9.53516
šť	-9.53536
fa	-9.53665
nutí	-9.53794
▁jména	-9.53795
▁vojenské	-9.53831
▁román	-9.53865
18	-9.53891
▁Díky	-9.53894
▁moderní	-9.53916
▁měst	-9.54055
▁totiž	-9.54057
▁budova	-9.54083
▁osm	-9.54107
▁nového	-9.54125
lad	-9.54153
▁firmy	-9.54158
▁Mil	-9.5417
▁jejichž	-9.54193
▁československé	-9.54225
▁500	-9.54438
stat	-9.54442
▁Proto	-9.54449
lý	-9.54464
▁Město	-9.54474
▁střel	-9.54521
čně	-9.54528
poj	-9.54577
▁Jsou	-9.54636
▁most	-9.54649
▁budovy	-9.54762
▁29.	-9.54791
▁Am	-9.54828
▁knihy	-9.54947
sil	-9.54979
up	-9.54981
▁bo	-9.55083
▁objevil	-9.55123
mín	-9.55124
22	-9.55169
vel	-9.55428
▁mladší	-9.55451
end	-9.55551
▁poloviny	-9.55554
▁krátce	-9.55572
▁květnu	-9.55574
▁Horní	-9.5559
▁založena	-9.55611
▁vzor	-9.55711
▁okresu	-9.55721
▁Také	-9.55738
▁mas	-9.55823
▁dílo	-9.5584
šek	-9.55913
▁dětí	-9.55935
▁dodnes	-9.55985
▁David	-9.56008
▁slova	-9.56014
az	-9.56095
▁medaili	-9.5619
92	-9.56308
▁oprav	-9.56412
▁Sp	-9.56481
ováno	-9.56498
▁výrazně	-9.56647
▁(17	-9.56746
▁skladatel	-9.56818
ian	-9.56922
▁Sam	-9.56926
▁Tur	-9.5694
▁vůbec	-9.56961
▁kraje	-9.57008
▁způsobem	-9.57034
nout	-9.57108
▁Kr	-9.57201
▁styl	-9.5721
▁nebyla	-9.57241
▁podnik	-9.57242
▁Německu	-9.57363
áh	-9.57383
▁série	-9.57642
▁naopak	-9.57695
▁horní	-9.57821
▁Bi	-9.57854
▁Car	-9.57871
jší	-9.5803
viz	-9.58033
▁městské	-9.58091
▁Brno	-9.58154
▁zůstal	-9.58174
▁Paul	-9.58285
jev	-9.58293
▁pre	-9.58313
ště	-9.58383
▁dopravní	-9.58424
▁žil	-9.58434
▁lidé	-9.58435
kl	-9.58436
▁obdržel	-9.58489
▁stran	-9.58492
wa	-9.58586
▁dalšími	-9.58621
ící	-9.5863
pu	-9.58668
sp	-9.58737
▁nadmořské	-9.5877
iš	-9.58783
▁klášter	-9.58807
▁1988	-9.58826
▁vláda	-9.58986
pp	-9.59003
▁trať	-9.59105
▁motor	-9.5914
▁Br	-9.59175
▁obchod	-9.59191
tý	-9.59274
Ma	-9.59279
▁červnu	-9.59305
▁Tr	-9.59321
▁Hor	-9.59343
▁Dolní	-9.59438
lep	-9.5952
sch	-9.59758
▁trenér	-9.59798
ac	-9.59841
ité	-9.59887
▁Os	-9.59893
roz	-9.59913
▁Sal	-9.59932
▁hraje	-9.60038
▁malíř	-9.60086
▁škol	-9.60109
▁Kar	-9.60113
▁Rad	-9.60158
nem	-9.60197
▁Pol	-9.6022
mal	-9.60246
▁Paříži	-9.60256
▁druhou	-9.60322
▁ostrov	-9.60346
pí	-9.60348
pal	-9.60369
%	-9.60404
▁IV	-9.60423
▁spisovatel	-9.60443
▁osobní	-9.60567
▁kor	-9.6062
▁Hol	-9.60731
–18	-9.60744
▁nimi	-9.60778
▁rychle	-9.60808
▁1939	-9.60873
▁Zemřel	-9.60915
▁lety	-9.60919
wi	-9.60925
▁kaple	-9.60926
▁Wa	-9.60933
▁Vol	-9.61087
ij	-9.61178
▁přístup	-9.61264
▁dlouho	-9.61341
ep	-9.61421
yl	-9.6143
skými	-9.61453
ow	-9.61482
há	-9.61538
sou	-9.61551
ovalo	-9.61634
▁nová	-9.61638
95	-9.61671
▁tehdejší	-9.61717
vis	-9.61726
▁téhož	-9.61753
▁60	-9.6186
fe	-9.61986
▁nových	-9.62004
▁te	-9.62151
ez	-9.62175
▁dochází	-9.62202
▁Některé	-9.62262
▁čele	-9.62369
▁barokní	-9.62501
▁podobě	-9.6256
▁soutěži	-9.6257
▁hlavního	-9.626
hor	-9.62612
▁návrh	-9.62618
▁Karla	-9.62667
▁1980	-9.62693
ecké	-9.62805
▁církve	-9.62813
13	-9.62837
mě	-9.62877
eň	-9.62884
ecký	-9.62915
vor	-9.62941
▁Již	-9.62956
▁právní	-9.62972
▁učitel	-9.62981
▁informace	-9.63007
▁bod	-9.6304
▁svaz	-9.63046
▁místech	-9.63069
▁úřad	-9.63193
ling	-9.63297
▁Ivan	-9.63375
ovský	-9.63386
▁podílel	-9.6352
din	-9.63615
▁amerických	-9.63617
▁společností	-9.63655
▁jejího	-9.63685
tka	-9.6371
▁televizní	-9.63714
▁Con	-9.63715
17	-9.63772
▁24	-9.63777
▁břehu	-9.63828
▁říjnu	-9.63869
▁dle	-9.63957
▁projektu	-9.64028
97	-9.64047
▁ulici	-9.64074
zor	-9.64088
▁cílem	-9.64133
▁času	-9.64144
zer	-9.64192
▁potom	-9.64225
▁velkou	-9.64234
▁kříž	-9.64251
▁vztah	-9.64255
▁zřejmě	-9.6429
tur	-9.64385
▁inter	-9.64526
▁1969	-9.64537
▁pal	-9.64564
ation	-9.64585
▁Pavel	-9.64683
86	-9.64714
▁pozici	-9.64867
čky	-9.64931
▁Jaroslav	-9.6495
ovanou	-9.64957
▁Jindřich	-9.64963
hel	-9.64992
▁al	-9.65019
rit	-9.65066
▁sedm	-9.65107
Po	-9.65195
▁jejíž	-9.6523
▁Par	-9.65292
ance	-9.65307
uz	-9.65312
▁slov	-9.65316
▁podzim	-9.65423
▁stavební	-9.65459
▁sobě	-9.65483
▁politické	-9.65501
liv	-9.65529
▁dál	-9.65616
▁používají	-9.65637
▁trati	-9.65648
▁zda	-9.65666
▁Ber	-9.65668
▁rozhodnutí	-9.65818
▁automobil	-9.65917
ph	-9.65994
▁Wi	-9.66023
▁Robert	-9.66057
ovské	-9.66099
▁pokračoval	-9.661
vedl	-9.66102
kro	-9.66151
tou	-9.66184
▁řešení	-9.66223
pen	-9.66295
21	-9.66307
▁finanční	-9.66339
zd	-9.66348
Y	-9.6637
mluv	-9.66371
▁des	-9.66392
▁tradiční	-9.66512
▁programu	-9.66669
ill	-9.66675
▁led	-9.66705
čen	-9.66722
▁Gi	-9.66763
mír	-9.66777
ica	-9.66813
rá	-9.66832
▁on	-9.66839
her	-9.6684
lík	-9.6694
▁vedením	-9.66969
▁důsledku	-9.67107
měn	-9.67149
▁1960	-9.67231
▁anti	-9.67268
▁Poslední	-9.67272
▁bitvě	-9.67394
▁1976	-9.67404
▁rozvoj	-9.67426
olog	-9.6743
▁centra	-9.67433
don	-9.67439
▁opustil	-9.67512
▁jednání	-9.67514
98	-9.67605
so	-9.67664
▁březnu	-9.6767
▁stavby	-9.67727
▁pr	-9.6779
▁akce	-9.67821
kin	-9.67847
stra	-9.67875
lem	-9.67953
▁projev	-9.67973
▁působení	-9.67996
▁architekt	-9.68017
▁st	-9.68115
▁proces	-9.68209
▁závod	-9.68266
▁domácí	-9.68286
▁nebylo	-9.68337
▁Josefa	-9.68418
zel	-9.68506
▁duchovní	-9.68533
▁nemá	-9.68565
nictví	-9.68575
▁Ad	-9.68601
ač	-9.68655
▁zákona	-9.68673
sla	-9.68703
out	-9.6872
▁hradu	-9.6891
▁minulosti	-9.68911
▁půl	-9.68914
▁sezóny	-9.68968
▁československý	-9.6904
eno	-9.69092
▁troj	-9.69143
35	-9.69158
▁1938	-9.69172
▁1986	-9.69213
▁Richard	-9.69247
▁atd	-9.69255
▁pomoc	-9.69275
▁tri	-9.69286
93	-9.69346
▁zahrnuje	-9.69413
▁polo	-9.69471
▁op	-9.69584
▁studia	-9.69587
▁člověka	-9.69637
las	-9.69652
▁popis	-9.6984
]	-9.69874
▁ulice	-9.69923
▁vyskytuje	-9.70025
▁(16	-9.70065
▁Lib	-9.70076
▁bar	-9.70083
sek	-9.70189
▁malá	-9.702
▁Bor	-9.7022
▁ženy	-9.70277
▁plyn	-9.70295
▁Pu	-9.70329
▁nejčastěji	-9.70383
hi	-9.70391
isté	-9.70398
▁důvodu	-9.70402
▁Sta	-9.70443
gi	-9.7049
▁Čech	-9.70492
▁1944	-9.70507
▁vítěz	-9.70517
▁síť	-9.70547
▁ro	-9.70551
nil	-9.70615
▁stroj	-9.70664
šení	-9.70733
▁Mu	-9.70744
▁lodě	-9.70775
▁vůči	-9.70775
oj	-9.70829
▁sil	-9.70858
▁hlas	-9.70899
▁brzy	-9.70952
ající	-9.70952
▁Slovensku	-9.70953
88	-9.70972
▁Kal	-9.71023
oš	-9.71033
šel	-9.71059
nické	-9.71098
jm	-9.71104
ps	-9.71182
▁Tra	-9.7123
▁pohoří	-9.71267
▁Er	-9.71304
▁22	-9.71321
▁Mark	-9.71332
▁vše	-9.71334
živ	-9.71366
▁rekord	-9.7137
▁zvláštní	-9.71382
▁pohyb	-9.71396
▁dům	-9.71408
vu	-9.71538
stře	-9.71541
ip	-9.71542
▁míst	-9.71583
ros	-9.7161
ski	-9.71629
▁předsedou	-9.71663
▁oba	-9.71664
▁seznam	-9.71761
▁směr	-9.71765
▁lize	-9.71819
▁okraji	-9.7182
▁Stra	-9.71901
ani	-9.71932
im	-9.72046
▁Mezinárodní	-9.72055
▁poblíž	-9.72058
▁mal	-9.72077
▁málo	-9.72082
94	-9.721
▁sloužil	-9.72103
bel	-9.72122
▁1970	-9.72155
▁(15	-9.7218
▁1984	-9.72244
96	-9.72369
/0	-9.72412
▁písní	-9.72413
▁ra	-9.72455
▁cesty	-9.72479
ind	-9.72612
▁Národního	-9.72631
▁ně	-9.72647
75	-9.72712
▁Evropské	-9.72739
▁píseň	-9.72767
▁pozdější	-9.72823
▁patřil	-9.72883
▁neo	-9.72984
▁hudby	-9.73012
▁hrob	-9.73056
▁ročníku	-9.73061
▁dosud	-9.73087
05	-9.73109
áč	-9.73156
▁Kor	-9.73161
▁Ty	-9.73178
45	-9.73205
▁srpnu	-9.73298
ás	-9.73302
▁lékař	-9.73309
▁skupině	-9.73337
▁druhém	-9.73355
▁zámku	-9.73361
▁mír	-9.73362
_1	-9.73394
▁červenci	-9.73435
78	-9.73527
(	-9.7368
▁oblastech	-9.73697
▁literární	-9.73698
▁23	-9.73712
▁blízkosti	-9.73713
87	-9.73717
▁tisk	-9.73743
pří	-9.73788
▁80	-9.73844
▁účastnil	-9.7393
▁dubnu	-9.7396
tře	-9.73983
▁Říšské	-9.73988
▁bodů	-9.74015
▁případně	-9.74076
▁1972	-9.74083
til	-9.74087
▁celém	-9.74137
▁Název	-9.74141
ráž	-9.74156
23	-9.74194
pan	-9.74209
15	-9.74235
práv	-9.74253
▁postavení	-9.74257
▁snaží	-9.74317
▁Jde	-9.74387
ola	-9.74424
▁prací	-9.74475
91	-9.74494
▁moci	-9.74505
▁fotograf	-9.74542
▁trvale	-9.74545
▁proud	-9.74626
85	-9.74628
▁vstoupil	-9.74638
cu	-9.74669
pis	-9.74701
▁ligy	-9.74828
▁písně	-9.74887
▁činí	-9.74891
▁císaře	-9.74924
▁Ver	-9.7494
▁lid	-9.75038
prac	-9.75139
▁hranici	-9.75238
▁Film	-9.75239
▁začíná	-9.75274
áž	-9.75347
stru	-9.75382
ňuje	-9.75382
27	-9.75402
▁staro	-9.75432
hra	-9.75445
▁novou	-9.75495
bar	-9.75537
ření	-9.75537
▁čeledi	-9.75616
▁nese	-9.75649
▁česká	-9.75663
▁nahradil	-9.75763
ruč	-9.75764
zo	-9.75783
que	-9.75837
ený	-9.75962
▁stejné	-9.76063
stří	-9.76063
▁postaven	-9.76141
▁velko	-9.76155
zení	-9.7621
24	-9.76221
▁vrch	-9.76236
▁nicméně	-9.76259
▁Adam	-9.76281
▁dní	-9.76282
▁ostatních	-9.76324
▁Peter	-9.76332
▁1946	-9.76347
ble	-9.76391
nor	-9.76401
▁postoupil	-9.7641
▁Če	-9.76444
▁nejstarší	-9.76452
▁částečně	-9.76459
rot	-9.76495
▁klíč	-9.76513
▁státy	-9.76527
▁velice	-9.76578
kaz	-9.76617
▁=	-9.7662
ari	-9.76653
tov	-9.76692
▁parku	-9.76756
sl	-9.76792
▁buď	-9.76794
▁získat	-9.76829
lar	-9.76832
▁Fi	-9.76868
01	-9.76897
▁podobně	-9.76932
▁list	-9.76975
▁teorie	-9.76999
▁přátel	-9.77016
▁19	-9.77025
▁svému	-9.77025
▁divadla	-9.77031
čas	-9.77055
▁Země	-9.77106
▁kola	-9.77122
▁profesionální	-9.77134
jící	-9.77162
▁manželství	-9.77232
▁absolvoval	-9.77254
▁kariéru	-9.77264
▁apod	-9.77316
▁1950	-9.77318
tar	-9.77361
71	-9.7743
▁podél	-9.77453
▁zpěvák	-9.77455
ab	-9.77474
▁1981	-9.77482
▁podporu	-9.77496
▁otce	-9.77505
▁1918	-9.77507
ivní	-9.77514
▁celého	-9.77521
▁1987	-9.77601
▁Bra	-9.77613
▁&	-9.77637
▁Si	-9.7769
▁zdejší	-9.77702
před	-9.77702
▁dalším	-9.77722
▁Tak	-9.77748
▁památka	-9.77766
▁manžel	-9.77779
▁1971	-9.77826
▁umožňuje	-9.77852
tt	-9.77853
▁1941	-9.77911
▁kód	-9.77917
▁mo	-9.77928
▁svoji	-9.77932
▁považován	-9.7794
ft	-9.78005
par	-9.78014
▁většinu	-9.78044
kar	-9.78103
ily	-9.78127
▁státech	-9.78143
▁dráhy	-9.78185
▁nedaleko	-9.78281
▁založení	-9.78326
ona	-9.78393
▁alb	-9.78435
▁kop	-9.7849
▁Mat	-9.78553
▁stylu	-9.78603
skému	-9.78608
▁firma	-9.78616
▁90.	-9.78673
▁univerzity	-9.78674
▁režisér	-9.78764
▁pracovní	-9.78769
uš	-9.78774
▁rychlost	-9.7889
▁60.	-9.79002
▁1985	-9.79011
dle	-9.79214
▁lidu	-9.79219
▁80.	-9.79294
▁li	-9.79308
▁podíl	-9.79311
▁1942	-9.79357
▁ž	-9.79379
▁povstání	-9.79417
▁Nový	-9.79418
▁/	-9.79509
▁Star	-9.79562
rk	-9.7957
▁1964	-9.79597
jezd	-9.79606
▁věž	-9.79667
▁Česká	-9.79731
voj	-9.79733
▁známé	-9.79778
ška	-9.79804
▁1967	-9.79826
▁bi	-9.79881
ral	-9.79905
▁únoru	-9.79954
▁mar	-9.79986
▁okruhu	-9.79997
▁"„	-9.80055
16	-9.80138
▁Cor	-9.80146
▁Žije	-9.80215
ologie	-9.80242
ser	-9.80243
▁létě	-9.8026
▁využití	-9.80287
▁""	-9.80298
▁plán	-9.80364
▁řadě	-9.80397
metr	-9.80411
▁druhého	-9.8046
cím	-9.80487
tice	-9.80549
▁Většina	-9.80555
▁Saint	-9.80814
▁Karl	-9.80905
eny	-9.80905
▁cen	-9.80945
▁soutěž	-9.80972
▁1,	-9.80996
▁no	-9.81002
istů	-9.8106
tic	-9.81068
▁prvky	-9.81079
▁Leží	-9.81119
pla	-9.81139
▁odmítl	-9.81168
▁chtěl	-9.81242
for	-9.81259
bin	-9.8126
?	-9.8133
▁zpravidla	-9.81418
–20	-9.81438
sy	-9.81473
▁situace	-9.81474
gar	-9.81509
▁Ci	-9.81509
▁1974	-9.81512
▁Rus	-9.81529
▁nazývá	-9.81557
gr	-9.81557
▁mě	-9.81652
▁planet	-9.81683
ému	-9.81697
▁zámek	-9.81743
▁německý	-9.81794
▁koncem	-9.81816
79	-9.81846
▁léta	-9.81848
▁souvislosti	-9.81933
▁východě	-9.81985
slav	-9.82011
▁kultury	-9.82096
mil	-9.82106
▁dolarů	-9.82121
▁oblastí	-9.82143
tz	-9.82156
▁Česku	-9.82168
nat	-9.82174
▁převzal	-9.82208
áci	-9.82211
▁tvaru	-9.82387
▁mnohem	-9.8241
ností	-9.82456
ovce	-9.82469
▁chyb	-9.8248
▁Rod	-9.82481
▁populace	-9.825
▁člověk	-9.82535
▁vesnici	-9.82539
▁Kanton	-9.82553
▁70.	-9.82558
▁osmi	-9.82559
▁nacházejí	-9.82574
55	-9.82585
83	-9.82598
▁nižší	-9.82603
▁velká	-9.82628
▁námořní	-9.82635
▁"(	-9.82647
▁Št	-9.82676
▁Nové	-9.82689
73	-9.82736
▁Vladimír	-9.8277
▁et	-9.82792
▁test	-9.82794
▁divadelní	-9.82852
65	-9.82901
ino	-9.82908
04	-9.82944
▁nejvíce	-9.82955
▁označuje	-9.82979
▁sto	-9.83025
▁Pri	-9.83048
▁základ	-9.83081
Na	-9.83146
▁1982	-9.83147
▁°	-9.83178
▁1949	-9.83249
▁Th	-9.83263
74	-9.83347
tah	-9.83357
▁Alexandr	-9.83436
tes	-9.83478
ovité	-9.8353
▁Panny	-9.83566
▁Tour	-9.83566
kova	-9.83572
vlád	-9.83592
▁nena	-9.8361
▁stavba	-9.83626
▁kg	-9.83638
bl	-9.83711
▁roze	-9.83714
▁speciální	-9.83715
zen	-9.83739
dla	-9.8376
nova	-9.83822
rav	-9.83904
▁zápas	-9.83912
▁Ex	-9.83942
ise	-9.8395
▁les	-9.83961
lom	-9.83972
▁vrcholu	-9.84017
▁provincie	-9.84089
▁štít	-9.8416
▁Jak	-9.84169
gor	-9.84173
lic	-9.84174
har	-9.84202
▁pilot	-9.84241
▁da	-9.84279
hlíd	-9.8429
▁kláštera	-9.84293
čer	-9.84311
02	-9.84326
▁problémy	-9.8435
ička	-9.84358
▁ústí	-9.84364
▁lesní	-9.84383
▁prostřednictvím	-9.84426
bud	-9.84437
34	-9.84493
rie	-9.84557
▁svazu	-9.84577
▁spolupráci	-9.84609
▁oficiální	-9.84615
rus	-9.84618
svět	-9.84629
▁text	-9.84637
vid	-9.84644
▁Min	-9.8466
▁1973	-9.84661
věř	-9.84674
▁výraz	-9.84704
skem	-9.84716
sson	-9.84851
ír	-9.84898
▁1975	-9.84949
▁představuje	-9.84951
48	-9.85003
-2	-9.851
▁1983	-9.85121
Ne	-9.85135
▁1958	-9.8521
▁přijal	-9.85235
!	-9.85247
vět	-9.85295
▁postavena	-9.85316
pod	-9.85328
▁Itálie	-9.85334
▁1940	-9.85425
▁těla	-9.8543
těž	-9.85461
▁charakter	-9.85469
▁velkých	-9.85557
kový	-9.85573
▁výše	-9.85613
▁prodej	-9.85622
nder	-9.85641
tri	-9.8566
▁turnaj	-9.85662
▁Fu	-9.85663
▁členy	-9.85676
kt	-9.85721
▁pu	-9.85731
Ro	-9.85795
▁ti	-9.85808
▁Františka	-9.85832
▁průmysl	-9.85838
Le	-9.8588
▁sta	-9.859
31	-9.85922
▁Čechách	-9.85997
▁každé	-9.86028
▁Německa	-9.86031
▁zastával	-9.86031
▁1978	-9.86082
▁jednom	-9.86086
▁centrální	-9.86109
▁uváděn	-9.86116
iku	-9.86194
▁hru	-9.86257
▁Grand	-9.86284
▁strom	-9.86342
99	-9.86348
▁třech	-9.86366
ong	-9.86368
▁Bur	-9.86394
kládá	-9.8641
▁Dub	-9.86434
ix	-9.86445
ština	-9.86456
▁kdo	-9.8648
ováním	-9.86492
▁35	-9.865
čil	-9.86502
port	-9.86559
▁Gra	-9.86563
▁oženil	-9.86577
▁zájem	-9.86591
06	-9.86647
▁Ag	-9.8666
▁jediný	-9.86711
▁Bre	-9.86713
▁Fo	-9.86781
▁oddělení	-9.86818
▁stroje	-9.86841
▁listy	-9.86929
▁dlouhá	-9.8694
chov	-9.86959
▁nadále	-9.86984
iky	-9.87
▁Ter	-9.87045
▁určité	-9.87082
rab	-9.87093
▁výbor	-9.87144
▁Mc	-9.87163
pad	-9.8721
▁biskup	-9.87237
▁matka	-9.87243
▁uveden	-9.87267
cov	-9.87368
▁měsíců	-9.87379
▁členové	-9.87384
ben	-9.87419
▁1979	-9.87476
▁rozšíření	-9.87486
▁posledních	-9.87492
ula	-9.87516
▁dostala	-9.8752
lus	-9.8753
26	-9.87593
▁autorem	-9.87605
▁nádraží	-9.87634
▁hory	-9.8764
ide	-9.87682
▁tj	-9.87706
▁přesto	-9.87734
▁role	-9.87765
ovic	-9.87776
▁rozloze	-9.878
▁Michal	-9.87865
▁díl	-9.87874
▁dokázal	-9.87893
rem	-9.87915
ata	-9.88009
▁York	-9.88055
47	-9.88071
▁Původně	-9.88181
▁samo	-9.88184
nič	-9.88185
▁Ed	-9.88245
а	-9.88253
84	-9.88282
89	-9.88286
lek	-9.88319
▁energie	-9.88408
▁žádný	-9.88421
mysl	-9.88484
kop	-9.8854
▁ročník	-9.88587
▁chrám	-9.88607
ora	-9.88618
▁1920	-9.88627
žit	-9.88639
▁jednotek	-9.88678
▁zúčastnil	-9.88709
lab	-9.88752
▁ministr	-9.88778
▁žebříčku	-9.88817
lice	-9.88843
▁Vídni	-9.88859
▁skupinu	-9.88865
▁silně	-9.88871
▁soudu	-9.88924
▁síly	-9.88953
▁vět	-9.88986
▁můžeme	-9.8904
▁Ale	-9.89061
▁začaly	-9.89072
dol	-9.89082
09	-9.89127
▁sedmi	-9.89133
▁Var	-9.89174
▁Protože	-9.89179
37	-9.89197
én	-9.89209
▁sloup	-9.89209
zem	-9.89233
psán	-9.89234
▁důvodů	-9.89343
▁sídlo	-9.89364
▁Ir	-9.89388
▁zvuk	-9.89453
▁přišel	-9.8946
▁řad	-9.89471
▁povrch	-9.89512
▁Bud	-9.8955
▁hlediska	-9.89567
▁1977	-9.89584
▁nejznámější	-9.89591
▁deseti	-9.89603
▁nepře	-9.89605
▁řeka	-9.89627
▁začalo	-9.89644
▁bu	-9.89646
enci	-9.8966
)"	-9.8966
dat	-9.89679
▁[	-9.89679
▁čin	-9.89726
▁druhá	-9.89729
▁Tri	-9.89743
sah	-9.89768
/19	-9.89853
▁hodnot	-9.89854
py	-9.89882
izace	-9.89931
▁následujících	-9.8994
ther	-9.89992
▁druhu	-9.90009
▁Hr	-9.90024
jan	-9.90033
▁vedle	-9.90116
nul	-9.90127
▁stanici	-9.90168
fu	-9.90212
▁1943	-9.90236
03	-9.90272
sed	-9.90294
▁tímto	-9.90294
▁dob	-9.90335
bus	-9.90404
▁Svět	-9.90416
▁mandát	-9.90469
▁nepro	-9.90473
▁Ol	-9.90474
▁My	-9.90492
stavěn	-9.90577
ris	-9.90599
star	-9.90607
▁prochází	-9.90635
68	-9.90697
La	-9.90735
▁Tomáš	-9.90741
kor	-9.90751
ham	-9.90759
▁návratu	-9.90763
64	-9.9077
▁domu	-9.90804
cký	-9.90821
dra	-9.90886
▁rakouský	-9.90893
▁účast	-9.90916
ug	-9.90921
átu	-9.90935
ená	-9.91
▁zahraničí	-9.9101
▁soubor	-9.91045
▁Zdroj	-9.91047
▁termín	-9.91079
▁představ	-9.91158
▁verzi	-9.91175
rop	-9.91202
▁Pra	-9.91329
čení	-9.91363
▁hrdin	-9.914
▁významné	-9.91408
▁budou	-9.91454
▁profesor	-9.91537
▁Následující	-9.91537
▁katastrálním	-9.9159
▁něco	-9.91615
▁Gar	-9.91621
▁Tel	-9.91689
▁byt	-9.91696
střel	-9.91709
isty	-9.9171
▁Původní	-9.9175
о	-9.91833
stí	-9.91844
▁kategorie	-9.91844
▁armáda	-9.9185
che	-9.91899
▁ter	-9.91912
▁přijat	-9.91917
▁oficiálně	-9.9193
▁Dan	-9.91937
▁vzniklo	-9.91938
▁cit	-9.9196
eli	-9.91967
▁britské	-9.91994
▁prezidenta	-9.92036
▁divadle	-9.92054
oni	-9.92074
tus	-9.92094
▁kariéry	-9.92153
▁pedagog	-9.92157
▁papež	-9.92161
▁odbor	-9.92175
pě	-9.92244
▁směru	-9.92309
▁domov	-9.92429
▁)	-9.92429
kan	-9.92463
tů	-9.92493
▁En	-9.92512
▁sub	-9.92517
kovou	-9.92539
gg	-9.92594
raz	-9.92615
▁hlavních	-9.92648
▁Václava	-9.92693
▁Mimo	-9.92707
▁Vzhledem	-9.92723
▁náboženství	-9.92872
▁ja	-9.92911
54	-9.92983
▁ležící	-9.93055
Ch	-9.93138
▁přelomu	-9.9316
▁stol	-9.93264
lis	-9.93318
▁chráněn	-9.93334
▁300	-9.93389
arch	-9.93393
▁spolupracoval	-9.93407
▁novo	-9.93463
lig	-9.93489
▁zahraniční	-9.9351
bol	-9.93522
vil	-9.93538
▁snažil	-9.93591
násob	-9.93592
ži	-9.93623
41	-9.93649
níky	-9.93689
▁značně	-9.93774
38	-9.9378
int	-9.93899
▁existuje	-9.93924
bert	-9.94008
▁zařazen	-9.94019
▁Západní	-9.94152
šov	-9.94152
28	-9.94164
tivní	-9.94172
▁nos	-9.94251
▁gen	-9.94262
ovaného	-9.94276
ané	-9.943
▁neměl	-9.94378
io	-9.94417
▁zdravotní	-9.94529
nut	-9.94529
▁sebou	-9.94545
▁cestu	-9.94588
▁26	-9.94616
▁zrušen	-9.94625
▁obvodu	-9.94671
▁chce	-9.947
dar	-9.94716
▁(2	-9.94812
bil	-9.94838
▁Králové	-9.94843
56	-9.94866
36	-9.94885
▁cesta	-9.94959
▁reprezentant	-9.9496
33	-9.9497
fin	-9.94974
▁celá	-9.95036
▁zvon	-9.95067
▁Slav	-9.95074
72	-9.95164
▁Mac	-9.9517
32	-9.95188
▁prů	-9.95259
▁rukou	-9.95283
08	-9.95315
tre	-9.9539
▁využívá	-9.95404
▁studiu	-9.95415
▁Plzeň	-9.95419
▁Fin	-9.95457
▁ocenění	-9.95471
net	-9.95501
▁lov	-9.95502
mel	-9.95561
▁pomoci	-9.95565
ána	-9.95574
pin	-9.95575
▁Ji	-9.95576
▁přítok	-9.9558
dem	-9.95583
▁Spolu	-9.95589
▁Dnes	-9.95683
▁velikosti	-9.95692
▁pás	-9.95774
▁departementu	-9.95813
▁sever	-9.95841
natý	-9.9587
▁Antonín	-9.95926
▁premiér	-9.95927
▁Pla	-9.95934
icích	-9.95943
▁1947	-9.96002
▁jinak	-9.96009
▁cíl	-9.96027
ovka	-9.96109
▁kategorii	-9.96111
▁Následně	-9.9615
▁východ	-9.96162
▁1966	-9.96207
▁dcera	-9.96213
ečný	-9.96232
▁přední	-9.96292
▁Op	-9.96353
67	-9.96365
věr	-9.96416
29	-9.96423
▁herec	-9.96426
▁kapely	-9.96427
▁arcibiskup	-9.96433
▁toku	-9.96444
▁lev	-9.96462
též	-9.96508
▁Itálii	-9.96523
▁Sou	-9.96548
▁1965	-9.96556
▁rostliny	-9.96592
ks	-9.96609
▁majetku	-9.96639
51	-9.96674
▁Český	-9.96683
▁sněmu	-9.968
49	-9.97103
▁materiál	-9.97108
ston	-9.97124
▁Londýně	-9.97125
cházel	-9.97134
▁letiště	-9.97176
▁podepsal	-9.97184
▁básník	-9.97188
▁trh	-9.97238
boj	-9.97243
▁Všechny	-9.97321
ura	-9.97332
44	-9.97357
▁případ	-9.97383
nis	-9.97398
ll	-9.97425
▁skončení	-9.97431
of	-9.9749
▁dopravy	-9.9754
▁roste	-9.97546
▁rozšířen	-9.97551
▁jsem	-9.97565
▁politiky	-9.9759
▁Yorku	-9.97607
66	-9.97645
▁západě	-9.97661
▁Bylo	-9.97675
▁nemohl	-9.97692
▁prakticky	-9.97718
▁Can	-9.9778
čet	-9.97786
▁správní	-9.97809
ves	-9.97811
▁mohla	-9.97848
▁zápasy	-9.9787
vit	-9.97872
▁ředitel	-9.97873
cen	-9.97894
▁hrabě	-9.97977
▁1956	-9.98012
▁současně	-9.98072
▁úrovni	-9.98137
▁podobné	-9.98162
níků	-9.98173
▁be	-9.98187
▁ústav	-9.98194
tiv	-9.98207
gy	-9.98271
▁jezera	-9.98298
▁pořadí	-9.98303
▁jednotlivé	-9.9835
▁veřejné	-9.98352
▁nejvýznamnější	-9.98426
san	-9.98447
kle	-9.98454
art	-9.98525
▁linky	-9.98571
ativní	-9.98622
▁Bal	-9.98671
▁32	-9.98672
▁kontrol	-9.98674
ts	-9.98693
▁centrum	-9.98706
▁evidováno	-9.98716
▁objeven	-9.98748
▁metod	-9.988
▁rybník	-9.98824
pel	-9.98826
▁odsouzen	-9.98875
▁George	-9.98954
▁sk	-9.98964
▁dvakrát	-9.98967
▁výrobu	-9.98986
ýr	-9.98993
▁historie	-9.99003
vky	-9.99014
▁dlouhý	-9.99039
▁War	-9.99084
▁skončila	-9.99088
▁rodině	-9.991
▁regionální	-9.99104
▁kanton	-9.99142
▁Měl	-9.9916
sto	-9.99177
▁chování	-9.99183
▁Petra	-9.99234
▁skutečnosti	-9.99237
▁Své	-9.99238
▁Jean	-9.99271
nek	-9.99307
▁hlad	-9.99336
▁přístav	-9.99373
▁Ger	-9.99378
▁Michael	-9.99433
istické	-9.99437
▁hal	-9.99465
gan	-9.99585
ava	-9.99608
▁předseda	-9.99684
vál	-9.99697
▁výhod	-9.99703
е	-9.9979
▁1954	-9.99811
ele	-9.9984
▁start	-9.99965
▁nalezen	-10
▁návštěv	-10.0001
aš	-10.0002
77	-10.0003
▁1952	-10.0008
▁he	-10.0008
leté	-10.0009
▁stop	-10.0012
▁zdroj	-10.0016
39	-10.0019
Mo	-10.0023
▁fa	-10.003
▁jich	-10.0032
▁zadní	-10.0033
▁ostrova	-10.0039
ara	-10.004
_	-10.0041
▁deset	-10.0041
▁70	-10.0041
ida	-10.0042
▁vychází	-10.0044
rin	-10.0047
niž	-10.0047
▁tenis	-10.0047
ánské	-10.0049
46	-10.0052
▁scén	-10.0055
▁staré	-10.0058
řad	-10.0059
▁životní	-10.0061
▁We	-10.0061
▁trest	-10.0072
▁francouzské	-10.0073
▁povrchu	-10.0075
▁boje	-10.0075
▁ostrově	-10.0075
▁Ak	-10.0077
▁všichni	-10.0081
▁(14	-10.0088
▁vys	-10.0092
▁1963	-10.0096
▁chod	-10.0097
▁národního	-10.0101
▁mod	-10.0102
klá	-10.0102
▁1919	-10.0108
▁muž	-10.0109
▁Ša	-10.0109
▁liší	-10.011
fik	-10.0113
▁Mer	-10.0113
▁Ros	-10.0117
dor	-10.0117
nos	-10.012
lie	-10.0123
▁široké	-10.0124
▁farnosti	-10.0128
▁pá	-10.0129
jedná	-10.0131
▁ochrany	-10.0131
82	-10.0138
eri	-10.0145
▁Přes	-10.0147
ičky	-10.0148
dom	-10.0148
▁my	-10.0149
ovník	-10.0152
▁Port	-10.0153
▁poly	-10.0159
▁Let	-10.0162
ině	-10.0164
▁mor	-10.0166
bírá	-10.0168
▁historik	-10.0169
▁skládá	-10.017
81	-10.0173
▁největším	-10.0174
▁seriál	-10.0175
42	-10.0179
▁nic	-10.0181
▁William	-10.0184
▁králem	-10.019
▁aktivit	-10.0192
▁přechod	-10.0193
▁27	-10.0194
▁Fe	-10.0196
▁severně	-10.0202
znám	-10.0202
čín	-10.0205
▁pokus	-10.0207
▁Konce	-10.0209
▁Rudolf	-10.0212
▁označen	-10.0214
mont	-10.0218
▁vzdělání	-10.0218
fon	-10.0226
▁Kat	-10.0226
י	-10.0228
▁němu	-10.0228
▁výkonu	-10.023
▁1961	-10.0231
▁rodina	-10.0234
▁smlouvu	-10.0236
▁zápasů	-10.0239
dan	-10.0242
▁smrt	-10.0246
▁vstup	-10.0249
▁kusů	-10.0251
▁probíhá	-10.0258
▁německých	-10.0259
▁Med	-10.026
▁Pl	-10.0264
▁„"	-10.0266
▁vzhledem	-10.0269
rz	-10.0276
xi	-10.0276
▁generál	-10.0277
▁lidové	-10.028
▁akci	-10.0283
▁školní	-10.0284
▁cestě	-10.0284
oc	-10.0287
▁pohár	-10.0288
▁sp	-10.0289
▁vyšlo	-10.0293
lín	-10.0296
▁1930	-10.0296
▁velitel	-10.0302
▁400	-10.0305
▁boji	-10.0311
▁sídlem	-10.0311
ložit	-10.0319
▁1953	-10.032
▁1962	-10.0322
▁amerického	-10.0323
▁oboru	-10.0323
cké	-10.0325
og	-10.0325
▁ukončení	-10.0329
▁historické	-10.0331
▁Lip	-10.0332
▁začali	-10.0334
ell	-10.0335
▁případech	-10.0337
▁(20	-10.0339
▁válka	-10.0347
▁poháru	-10.0347
▁služeb	-10.0354
▁anglický	-10.0355
▁sítě	-10.0355
▁Ste	-10.0358
▁strávil	-10.0359
▁novinář	-10.0362
57	-10.0365
▁Společnost	-10.037
▁populární	-10.0371
▁dokument	-10.0377
štině	-10.0378
▁Německo	-10.0379
▁bílé	-10.0379
▁reprezentace	-10.0381
ada	-10.0386
mor	-10.039
▁Americe	-10.0394
ram	-10.0396
▁dnech	-10.0398
▁opak	-10.0399
▁výšky	-10.0399
nci	-10.04
běž	-10.0401
ější	-10.0405
▁německého	-10.0411
rát	-10.0415
▁ruské	-10.0415
▁bývalé	-10.0418
▁pražské	-10.0418
▁úřadu	-10.0425
▁pravidelně	-10.0427
▁trůn	-10.0431
▁známá	-10.0434
tech	-10.0435
▁(3	-10.0435
▁1951	-10.0437
▁turnaje	-10.0437
▁dispozici	-10.0437
rob	-10.0439
▁disku	-10.044
vají	-10.0442
▁malý	-10.0448
▁hned	-10.0448
ale	-10.0453
nie	-10.0458
▁komise	-10.0458
pit	-10.0459
▁Tam	-10.0459
52	-10.0464
Al	-10.0468
▁Nejvyšší	-10.047
▁Státní	-10.0472
▁Sk	-10.0473
▁vytvoření	-10.0476
▁sochař	-10.0476
▁změny	-10.0479
▁obyvatelstva	-10.0481
kul	-10.0482
▁pán	-10.0485
▁hlasů	-10.0486
cel	-10.0496
▁Izrael	-10.0496
▁Ves	-10.05
▁Art	-10.0502
ford	-10.0507
▁nutné	-10.0515
▁přeprav	-10.0516
▁hráčů	-10.0519
▁spodní	-10.0523
izaci	-10.0523
▁sdružení	-10.0526
▁host	-10.0528
▁potřeb	-10.0531
liš	-10.0532
vé	-10.0542
▁Han	-10.0544
▁fakultě	-10.0546
▁resp	-10.0546
▁Ještě	-10.0547
▁snad	-10.0547
hrom	-10.0547
moc	-10.0548
▁vytvořen	-10.0553
▁Pak	-10.0553
šk	-10.0554
any	-10.0554
▁úspěch	-10.0559
nicí	-10.056
měr	-10.0566
▁mlýn	-10.0567
▁cest	-10.057
ju	-10.057
▁jižně	-10.0572
▁černo	-10.0576
žil	-10.058
▁sport	-10.0582
▁Sb	-10.0587
▁zne	-10.0587
▁Hlavním	-10.0597
69	-10.0601
▁výstup	-10.0603
▁Ju	-10.0605
▁budoucí	-10.0606
icko	-10.0607
▁+	-10.0614
ávání	-10.0616
▁for	-10.0616
▁SSSR	-10.0618
asi	-10.0619
▁Los	-10.0619
▁objevuje	-10.062
cy	-10.0623
▁Stal	-10.0623
▁kterému	-10.0624
▁Col	-10.0627
ste	-10.0628
▁Jen	-10.0628
eng	-10.063
▁blok	-10.0634
▁takové	-10.0637
kyně	-10.0642
▁dosahuje	-10.0648
hrál	-10.0651
▁farnost	-10.0652
61	-10.0657
▁centrem	-10.0659
▁barvy	-10.066
▁správy	-10.066
▁vojáků	-10.0662
▁nahrazen	-10.0662
pou	-10.0664
▁1932	-10.0669
▁1936	-10.067
▁výroby	-10.0672
07	-10.0672
kových	-10.0673
▁použit	-10.0679
▁vydala	-10.0679
▁lit	-10.0679
▁vzdálenosti	-10.068
▁slovenský	-10.0682
▁efekt	-10.0682
měst	-10.069
áře	-10.0692
tní	-10.0695
▁vojska	-10.0695
ire	-10.0698
▁obecně	-10.071
▁sklad	-10.0713
kovi	-10.0714
rek	-10.0719
▁takto	-10.0719
▁Miroslav	-10.072
jde	-10.072
lev	-10.0723
sled	-10.0724
▁kanál	-10.0725
▁veřejnosti	-10.0731
nějším	-10.0741
▁ústavu	-10.0743
▁28	-10.0745
▁bal	-10.075
išti	-10.0757
atel	-10.0758
▁Kap	-10.0758
▁map	-10.0759
▁církevní	-10.0767
ville	-10.0768
▁1935	-10.0771
nky	-10.0775
▁posléze	-10.078
Pa	-10.078
▁hřbitov	-10.0782
▁Cla	-10.0784
▁fakt	-10.0786
▁dítě	-10.0788
▁výstav	-10.0788
▁dynastie	-10.0792
▁informací	-10.0792
▁fi	-10.0792
53	-10.0793
59	-10.0795
▁Nicméně	-10.0796
▁tělo	-10.0799
▁University	-10.0799
▁delší	-10.0805
ickém	-10.0806
▁lepší	-10.0808
▁Například	-10.0809
ovky	-10.0813
▁oltář	-10.0813
▁jmenoval	-10.0814
▁jednot	-10.0814
ovní	-10.0818
nská	-10.0821
nové	-10.0823
eg	-10.0824
▁der	-10.0824
mož	-10.0825
ria	-10.0829
▁jaře	-10.0829
▁počítač	-10.083
▁Celkem	-10.0836
▁Album	-10.0844
▁fotografie	-10.0845
nka	-10.0845
amp	-10.0846
▁Nakonec	-10.0847
▁porazil	-10.0847
43	-10.0848
▁údajně	-10.0849
▁možno	-10.085
jel	-10.085
sse	-10.0853
▁albu	-10.0853
▁úsek	-10.0856
▁čtvrti	-10.086
▁filmové	-10.0866
top	-10.0867
▁Olomouc	-10.0867
▁areálu	-10.0871
▁Is	-10.0872
с	-10.0878
▁písmen	-10.0883
▁trans	-10.0884
des	-10.0886
▁KSČ	-10.089
▁označován	-10.0891
▁45	-10.0894
▁Kra	-10.0902
Li	-10.0903
▁postavil	-10.0911
ens	-10.0912
ast	-10.0913
ela	-10.0914
hlav	-10.0914
▁padl	-10.0918
▁věže	-10.0919
nt	-10.0922
▁Sto	-10.0923
nec	-10.0927
ł	-10.093
▁evropských	-10.0936
log	-10.0939
▁jazyka	-10.0946
▁vytváří	-10.0948
▁nepři	-10.0949
▁synem	-10.0956
▁studií	-10.0956
▁pohřben	-10.0958
▁útok	-10.0958
▁postav	-10.0963
▁studium	-10.0965
nický	-10.0968
▁Jedno	-10.0969
▁Milan	-10.0971
osa	-10.0971
▁hrát	-10.0972
▁dobré	-10.0974
ecká	-10.0974
▁čase	-10.0979
▁ukončil	-10.0985
nom	-10.0988
▁Dra	-10.0991
▁krok	-10.0997
▁Frank	-10.0999
▁nucen	-10.0999
nému	-10.1
▁Kč	-10.1003
▁Ře	-10.1019
▁spojen	-10.1024
pustil	-10.1031
’	-10.1032
▁knize	-10.1033
▁roční	-10.1035
▁majitel	-10.1036
▁odvozen	-10.1036
ith	-10.1037
▁pracovat	-10.1045
▁budov	-10.1049
▁noci	-10.1049
dou	-10.1049
ickými	-10.1052
▁Far	-10.1057
▁doprava	-10.1057
▁As	-10.1061
yn	-10.1063
▁muzeum	-10.1066
icí	-10.1071
ór	-10.1071
▁Kol	-10.1073
▁'	-10.108
▁předtím	-10.1081
▁1959	-10.1081
▁podmínky	-10.1082
▁kostele	-10.1083
▁okres	-10.1085
▁Les	-10.1085
▁operační	-10.1086
▁Letní	-10.1086
▁Mont	-10.1093
▁Daniel	-10.1095
▁protéká	-10.1096
▁posledním	-10.1098
▁použít	-10.1099
▁průmyslu	-10.1101
▁pi	-10.1108
▁vězení	-10.1111
▁situaci	-10.1112
ložen	-10.1112
▁150	-10.1114
Mar	-10.1116
ella	-10.1116
▁Hy	-10.1116
▁povýšen	-10.1118
stvo	-10.1125
▁zápase	-10.1126
▁vsi	-10.1127
▁Ústí	-10.1129
▁Charles	-10.113
off	-10.1137
ern	-10.1142
▁zatím	-10.1146
ovského	-10.1151
lup	-10.1153
die	-10.1155
▁jelikož	-10.1157
▁koupil	-10.1161
bývá	-10.1163
▁platí	-10.1163
▁časopis	-10.1164
▁Česko	-10.1167
nej	-10.1174
▁nebyly	-10.1174
▁del	-10.1177
šet	-10.1178
▁procesu	-10.1179
▁způsobil	-10.118
opis	-10.1185
▁poli	-10.1188
one	-10.1188
▁oddělen	-10.1191
rys	-10.1191
▁překlad	-10.1191
▁mj	-10.1193
▁smlouvy	-10.1193
▁data	-10.1195
▁(1	-10.1199
Pr	-10.1203
▁stejný	-10.1212
▁občanské	-10.1213
▁zvířat	-10.1215
uf	-10.1217
▁astronom	-10.1219
▁par	-10.1223
▁pohled	-10.1225
▁vyšla	-10.1228
▁Dar	-10.1229
com	-10.1231
▁Rusku	-10.1232
potřeb	-10.1232
▁nás	-10.1235
▁Kan	-10.1235
▁národů	-10.1237
kládal	-10.1239
▁muzea	-10.1247
▁stavbu	-10.1249
▁vzniká	-10.1249
ins	-10.1251
▁názvu	-10.1252
▁obhájil	-10.1257
▁Cel	-10.1257
▁Oba	-10.1263
▁vyp	-10.1265
▁růž	-10.1265
▁osad	-10.1268
the	-10.1269
▁ša	-10.127
▁1929	-10.1274
▁bratra	-10.1277
▁zemědělství	-10.1284
▁bílý	-10.1286
▁zahájil	-10.1286
▁události	-10.1286
ić	-10.1291
58	-10.1293
▁Records	-10.1293
▁Ki	-10.1297
ečné	-10.1303
▁formu	-10.1303
▁(4	-10.1306
▁sousední	-10.1315
▁Univerzity	-10.1316
▁Viktor	-10.132
▁dějin	-10.1322
▁vozy	-10.1325
▁konkrétní	-10.1325
ával	-10.1325
▁1937	-10.1326
▁prototyp	-10.1327
▁Hu	-10.1332
▁územní	-10.1333
▁Mag	-10.1333
▁Karlovy	-10.1334
cího	-10.1336
míst	-10.1337
▁Hus	-10.1338
▁asistent	-10.1339
▁národnosti	-10.1345
dává	-10.1348
▁()	-10.1349
Re	-10.1351
▁Pr	-10.1357
▁zpracování	-10.1357
▁vznik	-10.1358
▁zachoval	-10.136
jme	-10.1369
▁kontakt	-10.1369
▁Ladislav	-10.1371
▁jízd	-10.1379
▁délce	-10.1385
▁odkud	-10.1385
vet	-10.1385
▁skladby	-10.1386
▁tříd	-10.1386
▁1957	-10.1387
▁Ameriky	-10.1392
▁oslav	-10.1394
vič	-10.1395
▁plně	-10.1409
▁organizací	-10.1414
▁Luc	-10.1414
▁přitom	-10.1415
▁osud	-10.1416
▁Moravě	-10.1419
▁mohli	-10.142
tit	-10.1421
▁standard	-10.1422
▁1955	-10.1429
▁židovské	-10.1431
▁rezervace	-10.1431
▁Řád	-10.1431
▁Ham	-10.1431
▁Spojené	-10.1436
íř	-10.1441
▁Park	-10.1441
▁voleb	-10.1444
▁uvedl	-10.1449
rom	-10.1451
▁oproti	-10.1455
▁Přestože	-10.1457
▁Lev	-10.1461
ole	-10.1464
▁(„	-10.1466
▁lu	-10.1468
▁významných	-10.1468
▁podnikatel	-10.147
gh	-10.1471
▁živ	-10.1476
76	-10.148
▁ředitelem	-10.1482
▁le	-10.1484
▁Střední	-10.149
▁rozdělen	-10.1494
▁Nová	-10.1494
▁vládě	-10.1494
▁Klub	-10.1497
▁jih	-10.1501
▁student	-10.1501
▁prohlásil	-10.1504
▁Ča	-10.1504
▁1921	-10.1505
▁státě	-10.1505
▁divadlo	-10.1516
▁Filip	-10.1521
▁Zároveň	-10.1524
▁vod	-10.1531
▁Nor	-10.1532
▁debutoval	-10.1532
▁krátké	-10.1538
▁uložen	-10.1538
▁raket	-10.1541
▁úspěšně	-10.1543
▁vozů	-10.1545
ovna	-10.1546
▁sboru	-10.1546
▁ceny	-10.1546
rub	-10.1549
▁Kraj	-10.155
62	-10.1551
▁bývají	-10.1551
áček	-10.1553
▁Cho	-10.1554
▁objekt	-10.1557
▁kap	-10.1563
con	-10.1569
▁Brit	-10.157
▁turné	-10.1573
▁Kub	-10.1573
▁tank	-10.1577
▁Johann	-10.158
▁čísla	-10.1581
▁půdy	-10.1583
▁pozice	-10.1583
tter	-10.1583
brán	-10.1584
▁vztahy	-10.1585
▁Ot	-10.1589
▁MS	-10.1597
▁původního	-10.1598
▁World	-10.1598
rp	-10.1599
▁časopisu	-10.1601
▁měsíce	-10.1602
rovná	-10.1606
▁zemského	-10.1606
▁klasické	-10.1608
ah	-10.1609
▁Až	-10.1614
ign	-10.1615
dů	-10.1616
▁Ing	-10.1616
rich	-10.162
▁úkol	-10.1623
▁Tom	-10.1627
met	-10.1628
▁zvítězil	-10.1631
chází	-10.1632
▁norm	-10.164
tok	-10.1645
išť	-10.1649
lace	-10.1651
“)	-10.1658
▁zatčen	-10.166
▁sérii	-10.1662
mít	-10.1667
▁společenství	-10.1669
age	-10.1669
▁uživatel	-10.1672
▁Největší	-10.1674
Bo	-10.1675
▁Vilém	-10.168
▁problém	-10.1681
▁90	-10.1685
koli	-10.1686
díl	-10.1686
hat	-10.1689
▁několikrát	-10.1692
▁býval	-10.1693
stupuje	-10.1694
▁žena	-10.1697
plň	-10.1698
▁muže	-10.1701
▁jižním	-10.1703
De	-10.1704
▁republika	-10.1708
nesl	-10.1713
tha	-10.1714
stoupil	-10.1714
ňoval	-10.1715
rak	-10.1716
▁severním	-10.172
stein	-10.172
way	-10.1721
▁kolo	-10.1722
ef	-10.1724
šla	-10.1728
▁Labem	-10.1731
▁hus	-10.1734
▁kořen	-10.1734
▁Carl	-10.1739
ero	-10.174
▁1925	-10.1744
▁skupinou	-10.1746
vz	-10.175
▁Gal	-10.175
▁osobností	-10.1751
▁nacházející	-10.1753
ien	-10.1754
▁1924	-10.1758
▁ju	-10.1777
▁nev	-10.1779
dent	-10.178
▁útoku	-10.1782
▁partner	-10.1783
eta	-10.1786
▁Vystudoval	-10.1787
tion	-10.1788
▁náklad	-10.1789
▁změnil	-10.1791
ovská	-10.1792
▁Kom	-10.1797
▁velkým	-10.1798
▁Anglie	-10.1799
▁Nad	-10.1801
▁útvar	-10.1803
onu	-10.1805
▁mon	-10.1809
▁manželkou	-10.1811
▁tvořen	-10.182
ává	-10.1824
▁Che	-10.1825
▁rozlohu	-10.1827
lové	-10.1828
ených	-10.183
trop	-10.1836
▁objevila	-10.1837
▁střed	-10.1837
▁muži	-10.184
typ	-10.1841
▁Pre	-10.1844
if	-10.1844
-3	-10.1848
▁Nik	-10.1848
tis	-10.185
itou	-10.1851
▁třetím	-10.1851
▁americká	-10.1856
▁umístěn	-10.1857
▁titulu	-10.1861
▁Men	-10.1866
▁britský	-10.1867
řit	-10.1867
Ka	-10.1869
stoup	-10.1871
▁osoby	-10.1871
▁chov	-10.1872
▁pat	-10.1875
nů	-10.1876
▁teprve	-10.1879
▁Com	-10.188
▁staveb	-10.1883
▁spor	-10.1886
štiny	-10.189
.“	-10.1891
tráv	-10.1892
▁Tím	-10.1901
▁římské	-10.1903
▁běžné	-10.1907
nějších	-10.1907
▁připojil	-10.1911
▁Základní	-10.1914
▁žijící	-10.1916
▁čet	-10.1919
▁hudbu	-10.1924
▁(13	-10.1924
pře	-10.1925
▁plav	-10.1936
ostí	-10.1936
▁potoka	-10.1938
▁akademie	-10.1939
▁50.	-10.194
▁obor	-10.1948
pouště	-10.1949
▁politických	-10.195
▁mag	-10.195
▁nepřátel	-10.1953
▁potravin	-10.1961
sz	-10.1962
▁Mě	-10.1963
nc	-10.1967
▁pozornost	-10.1969
▁Československé	-10.1969
▁festivalu	-10.1973
▁uvnitř	-10.1978
▁mírně	-10.1979
▁36	-10.198
▁medaile	-10.1983
ett	-10.1984
kra	-10.1988
AM	-10.1991
▁dopis	-10.1992
▁operace	-10.1999
sem	-10.2001
luč	-10.2001
▁Ferdinand	-10.2001
▁díle	-10.2002
▁jiného	-10.2012
▁významným	-10.2014
▁dnešního	-10.2021
63	-10.2025
▁Q	-10.2028
▁stanov	-10.2034
▁neboli	-10.2035
▁princip	-10.2035
▁úprav	-10.2037
ald	-10.2037
vár	-10.204
▁navrhl	-10.204
▁funkcí	-10.204
ovec	-10.2042
▁technické	-10.2042
▁rozsáhlé	-10.2043
ust	-10.2047
▁dosavadní	-10.205
▁Bla	-10.205
▁spoj	-10.2054
jet	-10.2055
▁jednalo	-10.2056
▁studiové	-10.2057
▁vyz	-10.2057
naté	-10.2058
elný	-10.2061
▁vybaven	-10.2062
▁alespoň	-10.2064
▁výběr	-10.2069
▁zdroje	-10.207
ovců	-10.207
part	-10.207
▁letoun	-10.2077
▁upraven	-10.208
▁Mus	-10.208
▁Atlant	-10.2084
▁kniha	-10.2084
▁jazyků	-10.2085
▁Českého	-10.2087
vít	-10.2093
▁Anna	-10.2093
▁Ludvík	-10.21
ess	-10.2101
▁klad	-10.2106
▁nasazen	-10.2108
▁používat	-10.2109
▁vystudoval	-10.2109
▁sčítání	-10.2109
div	-10.211
▁Británie	-10.2114
▁majetek	-10.2114
▁palác	-10.2114
táhl	-10.2118
konal	-10.2119
Ko	-10.2126
áb	-10.2134
▁elektron	-10.2138
▁para	-10.2141
▁vedla	-10.2142
▁rokem	-10.2142
dán	-10.2143
▁Air	-10.2143
▁záměr	-10.2148
▁mikro	-10.215
▁pokusil	-10.215
lib	-10.2151
▁zvláště	-10.2151
▁epizod	-10.2154
▁formě	-10.2155
▁dcery	-10.2155
▁rytíř	-10.2156
▁Louis	-10.2157
▁dělí	-10.2157
dž	-10.2161
▁známo	-10.2162
▁For	-10.2168
▁1933	-10.2171
▁znak	-10.2171
rán	-10.2172
▁Štěpán	-10.2174
▁lidské	-10.2176
▁šp	-10.2178
▁novým	-10.2178
čan	-10.2178
▁místních	-10.2184
▁fr	-10.2186
▁Hra	-10.2188
▁sama	-10.2188
▁západním	-10.2191
▁důstojník	-10.2197
▁James	-10.2197
eti	-10.2197
▁říká	-10.2197
▁polské	-10.2199
▁Slovan	-10.22
akt	-10.2203
▁Zatímco	-10.2204
▁FK	-10.2208
▁vystoupil	-10.221
т	-10.2211
rozený	-10.2212
▁sídlí	-10.2216
▁Zdeněk	-10.2217
▁smyslu	-10.2221
▁kup	-10.2222
▁rostoucí	-10.2223
sud	-10.2225
ľ	-10.2225
ními	-10.2226
áze	-10.2227
níku	-10.223
▁letecké	-10.2233
▁Pal	-10.2237
ys	-10.2239
▁Albert	-10.224
▁vyskytují	-10.224
▁italské	-10.2244
úr	-10.2244
▁Ky	-10.2247
ré	-10.2251
▁min	-10.2251
▁kamen	-10.2252
▁plat	-10.2252
▁vražd	-10.2254
burg	-10.2258
▁útočník	-10.2258
tzv	-10.2258
▁tra	-10.2262
▁hodnoty	-10.2262
▁1928	-10.2263
čku	-10.2263
ením	-10.2267
▁tábor	-10.2269
vede	-10.227
letý	-10.2273
▁Mir	-10.2275
▁jed	-10.2277
▁car	-10.2284
▁vlivem	-10.2285
/1)	-10.2286
▁Polsku	-10.2286
vní	-10.2288
▁konstrukce	-10.2289
dní	-10.2289
stran	-10.229
▁Tor	-10.2296
▁zase	-10.2296
▁City	-10.2298
hn	-10.2304
▁CD	-10.2306
▁příkaz	-10.2307
wan	-10.2307
ovaným	-10.2316
bez	-10.2319
ektor	-10.232
▁Jar	-10.2321
jo	-10.2327
▁gól	-10.2327
řil	-10.2332
▁registr	-10.2332
▁příprav	-10.2333
▁stejném	-10.2334
▁olympijské	-10.2336
▁vládní	-10.2336
▁paměti	-10.2339
▁tun	-10.234
kus	-10.2341
sion	-10.2343
ologické	-10.2347
▁zanikl	-10.2349
▁Lou	-10.2353
set	-10.2356
▁rada	-10.2358
▁stanoven	-10.2362
ovič	-10.2364
▁těžké	-10.2368
▁Že	-10.2369
▁zničen	-10.2373
ight	-10.2373
množ	-10.2373
bro	-10.2379
rtu	-10.2382
af	-10.2382
▁provedl	-10.2382
ile	-10.2383
▁osídlení	-10.2384
▁hře	-10.2387
jat	-10.2389
▁proveden	-10.2397
tické	-10.2399
ün	-10.2401
▁dvor	-10.2404
+	-10.2406
dání	-10.2406
▁kritik	-10.2409
▁příběh	-10.2412
▁navržen	-10.2418
▁končí	-10.242
ovitých	-10.2422
▁složení	-10.2422
▁hnízd	-10.2422
▁nemůže	-10.2424
enz	-10.2425
▁vhodné	-10.2425
▁týmem	-10.2428
zar	-10.2428
▁Sha	-10.2428
St	-10.2429
▁čtvrt	-10.2431
▁slovo	-10.2438
▁(5	-10.2443
▁forma	-10.2444
▁stud	-10.2444
▁oblouk	-10.2446
▁zabit	-10.2448
Ar	-10.245
mes	-10.2451
▁režimu	-10.2457
▁čísel	-10.2458
koliv	-10.246
▁Ind	-10.246
tom	-10.2463
▁oxid	-10.2465
▁tur	-10.2466
▁Poprvé	-10.2467
▁najít	-10.2471
▁unie	-10.2472
sazen	-10.2472
▁přešel	-10.2476
▁samostatné	-10.2486
Je	-10.2487
▁protest	-10.2487
▁1934	-10.2488
▁rozdělení	-10.2488
nická	-10.2493
▁vojsk	-10.2493
fo	-10.2497
▁napětí	-10.2498
▁umělecké	-10.2498
▁motiv	-10.2499
lip	-10.2502
▁středu	-10.2503
▁region	-10.2504
▁profesorem	-10.2506
▁filmů	-10.2512
lap	-10.2513
rozen	-10.2513
▁fotbalista	-10.2515
lor	-10.2528
klen	-10.2529
▁odpor	-10.2534
▁Kvůli	-10.2534
▁Velká	-10.2535
▁charakteristick	-10.2535
▁pohon	-10.2535
▁jmen	-10.2537
lení	-10.2539
▁Ur	-10.254
▁dny	-10.2541
▁far	-10.2541
▁zaznamenal	-10.2542
▁černé	-10.2552
▁muslim	-10.2553
haj	-10.2553
▁Izraeli	-10.2553
▁ztrát	-10.2556
vek	-10.2561
▁českém	-10.2561
▁změně	-10.2571
▁onemocnění	-10.2573
▁33	-10.2574
▁log	-10.2578
000	-10.2579
▁pokračuje	-10.2584
▁já	-10.2586
kám	-10.2586
áš	-10.2587
▁Lit	-10.2587
Ú	-10.2589
car	-10.259
▁zapojil	-10.2591
▁dálnice	-10.2592
ujících	-10.2596
▁x	-10.2597
▁systémy	-10.2598
▁odkaz	-10.2598
▁Inter	-10.2598
izován	-10.26
▁med	-10.2601
▁zpěv	-10.2603
▁okolní	-10.2603
▁teplot	-10.2604
trž	-10.2606
▁krajin	-10.261
▁říši	-10.261
ult	-10.2612
▁Británii	-10.2615
▁Den	-10.2616
alo	-10.2616
▁zbraně	-10.2617
▁seznamu	-10.262
▁proběhla	-10.2621
ath	-10.2622
gel	-10.2627
▁nějaké	-10.2629
▁italský	-10.2631
nebo	-10.2631
▁papír	-10.2632
▁původ	-10.2636
2,	-10.2636
cher	-10.2637
▁Roman	-10.2637
▁Paříž	-10.2645
An	-10.2655
▁metra	-10.2658
nce	-10.2659
▁vln	-10.2659
▁spol	-10.2661
▁nelze	-10.2662
▁Nachal	-10.2665
▁účelem	-10.2666
▁ochranu	-10.2667
▁typy	-10.2667
▁skal	-10.2668
▁řece	-10.2668
leh	-10.2672
▁pracuje	-10.2697
gon	-10.2699
▁Ce	-10.2701
▁Most	-10.2703
rok	-10.2703
▁sněm	-10.2703
▁volné	-10.2704
▁hospodářské	-10.271
ovicích	-10.2711
▁úseku	-10.2712
▁schopnost	-10.2713
hla	-10.2718
▁Tre	-10.2718
▁provincii	-10.2723
▁Gr	-10.2726
▁faktor	-10.2727
▁zajat	-10.2727
▁poz	-10.2729
▁Dol	-10.2734
▁zrušení	-10.2735
▁zdrojů	-10.2736
eckého	-10.2736
▁Velký	-10.2739
bli	-10.2741
▁1848	-10.2741
▁obecní	-10.2742
rik	-10.2743
pust	-10.2745
▁auto	-10.2752
▁pomohl	-10.2754
▁odhad	-10.2756
▁kytar	-10.2758
▁Obě	-10.276
▁rud	-10.2761
hrá	-10.2763
▁Thomas	-10.2765
▁kardinál	-10.2769
▁zbraní	-10.277
▁maximální	-10.2772
▁stává	-10.2774
▁Morav	-10.2776
▁průzkum	-10.2776
ras	-10.2779
▁zprávy	-10.2779
ret	-10.278
dži	-10.2782
OS	-10.2783
▁vysokou	-10.2784
▁areál	-10.2784
▁literatury	-10.2787
▁Em	-10.2788
IS	-10.2792
In	-10.2794
dnes	-10.28
▁Působil	-10.2801
▁Nu	-10.2802
▁západ	-10.2805
kovice	-10.2811
rum	-10.2811
lid	-10.2812
ány	-10.2816
▁Jméno	-10.2818
cykl	-10.282
▁bývalého	-10.2824
▁Král	-10.2827
entní	-10.2828
▁řekl	-10.2828
pos	-10.2829
-18	-10.2831
▁voda	-10.2831
▁Es	-10.2835
▁(6	-10.2835
hard	-10.284
▁Vedle	-10.284
šky	-10.284
ingu	-10.2841
vrat	-10.2842
▁výrobě	-10.2842
▁1923	-10.2842
▁dostat	-10.2845
▁(12	-10.2852
dlo	-10.2854
▁tomuto	-10.2855
▁příklad	-10.2856
lot	-10.2856
▁podporoval	-10.2863
▁důležité	-10.2865
▁Eduard	-10.2865
▁látky	-10.2866
▁změn	-10.2868
▁vnější	-10.2871
▁epi	-10.2872
žen	-10.2873
▁proměn	-10.2873
izovat	-10.2873
eček	-10.2875
pět	-10.288
▁zásob	-10.2883
▁vlastním	-10.2884
▁Přesto	-10.2886
▁EU	-10.2886
▁diváků	-10.2889
kládají	-10.2889
▁Ruska	-10.2892
▁přenos	-10.2893
our	-10.2894
▁měří	-10.2894
▁Bob	-10.2897
ňují	-10.2897
▁krás	-10.2899
ille	-10.29
1.	-10.2902
bož	-10.291
▁existence	-10.2911
▁jediným	-10.2912
▁divize	-10.2915
▁body	-10.2916
▁Chu	-10.292
kot	-10.2923
▁vzduchu	-10.2929
▁domě	-10.2932
hne	-10.2934
▁trhu	-10.2936
▁vývoje	-10.2938
▁semifinále	-10.2938
▁silné	-10.2938
▁životě	-10.2942
▁portrét	-10.2943
▁výjimkou	-10.2943
nské	-10.2945
▁tunel	-10.2945
▁chvíli	-10.2945
rů	-10.2946
▁1,5	-10.2946
▁ATP	-10.2947
▁čtvrté	-10.2947
▁vládu	-10.2949
▁cíle	-10.2949
▁plod	-10.295
illa	-10.2952
_2	-10.2953
▁geo	-10.2954
▁někteří	-10.2954
▁generace	-10.2959
▁nakladatelství	-10.2963
▁oznámil	-10.2964
Ho	-10.2966
▁vystupoval	-10.2966
vice	-10.2968
zz	-10.2968
aw	-10.2969
▁komplex	-10.2975
▁dnů	-10.2975
q	-10.2976
běh	-10.2977
▁přestěhoval	-10.2979
▁Rakousko	-10.2981
▁dub	-10.2981
los	-10.2982
▁hl	-10.2982
ánský	-10.2984
▁subjekt	-10.2985
▁rám	-10.2986
ša	-10.2987
▁1922	-10.2989
▁dědictví	-10.299
▁vysoká	-10.299
▁Max	-10.2991
▁diecéze	-10.2992
šin	-10.2992
▁chlad	-10.2995
▁zbytek	-10.2997
▁zlom	-10.3
▁slovenské	-10.3001
▁Dalším	-10.3001
▁francouzského	-10.3003
▁staly	-10.3006
▁výroba	-10.3007
ori	-10.3008
▁obsah	-10.3009
žad	-10.3009
▁Hi	-10.3011
▁Mel	-10.3011
▁vystoupení	-10.3013
▁disk	-10.3013
mmer	-10.3014
ini	-10.3014
▁revoluce	-10.3015
▁přestoupil	-10.3015
▁jediné	-10.3016
▁výsledky	-10.3017
▁složil	-10.302
▁Brod	-10.3021
▁pocházel	-10.3026
▁stupně	-10.3028
▁katolické	-10.303
▁ovlivněn	-10.3033
▁rodin	-10.3035
například	-10.3035
▁národ	-10.3037
▁volby	-10.3037
▁připomíná	-10.3037
▁nabízí	-10.3039
▁Pas	-10.304
dit	-10.3042
▁navštívil	-10.3044
▁rychlosti	-10.3045
▁pol	-10.3048
ško	-10.3051
▁ztratil	-10.3051
▁týmy	-10.3057
ו	-10.3059
itě	-10.3059
ovitý	-10.306
▁dis	-10.3063
▁provedení	-10.3063
▁akcí	-10.3064
hř	-10.3066
▁elektro	-10.3067
▁vzal	-10.3068
▁vidět	-10.3068
▁poškozen	-10.3068
▁značné	-10.307
istou	-10.307
čel	-10.3071
heim	-10.3071
▁Novo	-10.3073
▁vybojoval	-10.3074
▁obsadil	-10.3076
lk	-10.3078
▁West	-10.3079
▁průměr	-10.3081
refer	-10.3082
▁Anglii	-10.3084
▁1000	-10.3087
stro	-10.3088
▁závodě	-10.3088
nin	-10.309
▁dcerou	-10.3091
▁fotbal	-10.3092
▁drah	-10.3093
▁průměru	-10.3095
▁základních	-10.3097
rol	-10.31
▁cena	-10.3104
▁pravd	-10.3104
pres	-10.3105
▁vlastnosti	-10.3107
▁zranění	-10.3107
▁zboží	-10.3109
▁středověku	-10.3111
▁vydavatelství	-10.3114
▁obrany	-10.3114
▁největších	-10.3115
nstru	-10.3118
lát	-10.312
zón	-10.3125
▁Sol	-10.3127
vent	-10.3128
▁producent	-10.3136
▁používal	-10.3136
▁ministra	-10.3138
vali	-10.3138
▁délky	-10.3141
▁ruský	-10.3143
▁předchozí	-10.3143
▁obyvatelé	-10.3144
▁jejích	-10.3146
▁Československo	-10.3146
kých	-10.3148
sol	-10.3149
▁květy	-10.3154
peč	-10.3157
▁doplněn	-10.3159
▁mění	-10.316
▁kryt	-10.316
▁kapli	-10.3162
▁hřeben	-10.3162
▁dolní	-10.3167
ktor	-10.3169
▁hráči	-10.317
▁Hel	-10.3172
ese	-10.3174
▁východně	-10.3174
stavení	-10.3177
▁činil	-10.3177
▁Polska	-10.318
▁Windows	-10.3181
▁představení	-10.3183
▁All	-10.3183
vání	-10.3184
▁jednotka	-10.3186
▁královské	-10.3187
▁udělen	-10.3188
inou	-10.3188
▁používán	-10.3189
▁Krist	-10.319
▁fotbalové	-10.3191
▁Třeb	-10.3197
▁zůstala	-10.3202
▁Rakousku	-10.3202
čít	-10.3202
tín	-10.3205
hen	-10.3206
▁řeč	-10.3208
ván	-10.3209
▁Char	-10.3211
podob	-10.3212
cházet	-10.3213
▁1931	-10.3215
▁učení	-10.3218
▁kapela	-10.3219
izoval	-10.3222
▁hmotnost	-10.3225
▁Druhý	-10.3231
▁zástupce	-10.3231
▁postavy	-10.3233
▁Bez	-10.3234
▁žádost	-10.3235
▁umístil	-10.3235
▁hrála	-10.324
”	-10.324
áři	-10.3243
leg	-10.3246
▁poměr	-10.3247
▁reprezentoval	-10.3249
něn	-10.325
vající	-10.3254
▁představoval	-10.3255
▁vlád	-10.3256
▁stat	-10.3256
▁trub	-10.3258
▁osada	-10.3258
▁patřila	-10.3259
▁západně	-10.3259
qui	-10.3261
▁materiálu	-10.3262
▁červené	-10.3262
▁nástroje	-10.3263
▁jejímž	-10.3263
▁Mas	-10.3264
▁opery	-10.3265
▁kurz	-10.3265
níkem	-10.3267
▁ekonomické	-10.3268
▁přesně	-10.3276
▁(10	-10.3278
▁zřízen	-10.3279
▁coby	-10.3284
▁svaté	-10.3285
▁komunikace	-10.3288
▁doprovod	-10.3288
▁poruch	-10.329
▁celo	-10.329
gal	-10.3293
▁Asii	-10.3293
▁modul	-10.3293
lová	-10.3298
▁Washington	-10.3301
▁setrval	-10.3302
▁Jiřího	-10.3304
▁křídla	-10.3305
▁vytvořit	-10.3305
ama	-10.3305
▁1911	-10.3308
"“	-10.3314
▁Československu	-10.3314
▁společné	-10.3314
▁linie	-10.3316
▁festival	-10.3318
line	-10.3319
▁druhým	-10.3319
▁Del	-10.3333
▁Slovenska	-10.3333
▁pravé	-10.3334
izuje	-10.3335
▁Ang	-10.3335
lák	-10.3336
▁250	-10.3337
▁vztahu	-10.3343
dro	-10.3344
▁Stejně	-10.3344
kého	-10.3349
▁osady	-10.335
elné	-10.3351
▁kost	-10.3353
▁bojoval	-10.3353
▁dětství	-10.3355
ies	-10.3356
▁600	-10.3364
▁Hrad	-10.3365
▁věci	-10.3367
▁sezoně	-10.3371
▁setkal	-10.3375
▁velikost	-10.3376
▁jednak	-10.3378
▁Řím	-10.3379
▁běhu	-10.3379
razil	-10.338
▁Bro	-10.3381
▁autobus	-10.3387
▁rozšířil	-10.3393
žení	-10.3395
▁občan	-10.3397
▁manželky	-10.3397
anc	-10.3397
cové	-10.3401
▁malých	-10.3403
rc	-10.3403
▁blízko	-10.3403
▁patrně	-10.3403
mus	-10.3405
▁Angeles	-10.3408
▁pořad	-10.3408
enou	-10.3414
▁občas	-10.3415
▁přidal	-10.3416
▁cho	-10.3423
▁motory	-10.3424
▁ostr	-10.3426
▁Malé	-10.3429
▁názor	-10.3429
bur	-10.3431
▁SK	-10.3431
▁pevnost	-10.3436
fl	-10.3438
▁1914	-10.3439
dik	-10.3459
▁nemoc	-10.346
▁získali	-10.3464
enské	-10.3464
▁úspěšné	-10.3464
▁sekund	-10.347
▁pojmenován	-10.347
▁chrámu	-10.347
▁figur	-10.3472
▁Pet	-10.3473
▁Hal	-10.3475
▁praxi	-10.3477
▁využíván	-10.3478
ür	-10.3479
▁kal	-10.3479
▁souhlas	-10.3481
▁Lid	-10.3484
ián	-10.3485
jal	-10.3489
lán	-10.3491
▁historických	-10.3491
▁Jednalo	-10.3497
▁experiment	-10.3497
▁zimní	-10.3497
ert	-10.3498
▁Rakouska	-10.3499
▁jinými	-10.3503
vl	-10.3504
plo	-10.3505
gin	-10.3509
tvrd	-10.3509
▁Rud	-10.3515
▁34	-10.352
▁výzkumu	-10.3521
▁Hradec	-10.3522
cion	-10.3523
▁příležitosti	-10.3523
▁systémem	-10.3525
Ž	-10.3525
▁Už	-10.3525
▁farář	-10.3534
▁potřeby	-10.3539
▁pěst	-10.3541
ib	-10.3542
▁reprezentaci	-10.3542
▁otevřen	-10.3543
kryt	-10.3544
anu	-10.3545
▁snadno	-10.3547
▁bran	-10.3548
▁prezidentem	-10.3548
IA	-10.355
▁dopad	-10.3551
šli	-10.3552
ney	-10.3554
▁kolon	-10.3554
▁centru	-10.3554
▁Maria	-10.3555
▁prohrál	-10.3556
▁37	-10.3557
▁Fr	-10.3559
▁děd	-10.3559
▁skutečně	-10.3559
▁jaké	-10.3559
▁29	-10.3562
▁Staré	-10.3565
▁Tro	-10.3567
rid	-10.3567
pír	-10.3569
all	-10.3569
vádí	-10.3571
▁rovno	-10.3572
Do	-10.3573
▁1926	-10.3576
▁vydán	-10.3577
▁variant	-10.3578
▁rodiče	-10.3578
▁tradice	-10.358
▁lo	-10.3581
▁zápis	-10.3582
▁přispěl	-10.3584
uc	-10.3585
▁umístění	-10.3587
▁spis	-10.3589
▁příjmení	-10.3594
ple	-10.3595
lam	-10.3596
▁ramen	-10.3596
▁orgán	-10.3597
ting	-10.3597
▁Vídeň	-10.3597
▁Bel	-10.3599
▁uvedena	-10.36
▁stráž	-10.3601
nskou	-10.3601
Mi	-10.3602
▁vodou	-10.3609
▁potvrdil	-10.3613
kázal	-10.3615
▁1900	-10.3618
▁Don	-10.362
▁stěn	-10.362
▁(-/0),	-10.3624
▁uprostřed	-10.3624
▁atlet	-10.3626
▁postavit	-10.3631
▁Cu	-10.3635
tabil	-10.3636
▁strojů	-10.3637
ija	-10.3638
▁dar	-10.3638
▁zvané	-10.364
šlo	-10.3645
▁Chi	-10.3646
▁Francouz	-10.365
▁řez	-10.3657
▁zásah	-10.3657
▁větve	-10.3658
▁lokomotiv	-10.3659
▁Římě	-10.3659
lav	-10.366
▁jev	-10.366
spir	-10.366
▁neod	-10.3661
členěn	-10.3662
▁hraběte	-10.3662
▁atom	-10.3663
▁1927	-10.3664
▁významu	-10.3664
▁učil	-10.3665
ר	-10.3671
▁dokončil	-10.3671
▁Ří	-10.3673
tol	-10.3676
▁vstřelil	-10.3678
▁Kos	-10.3678
krat	-10.3679
▁památek	-10.368
▁Třetí	-10.3681
dél	-10.3683
▁Leopold	-10.3684
atur	-10.3685
▁prodal	-10.3687
Ra	-10.369
▁psal	-10.369
kv	-10.3691
▁přejmenován	-10.3694
věst	-10.3696
▁skladeb	-10.3696
▁tvorbě	-10.3698
▁církev	-10.37
▁Bol	-10.37
▁obchodu	-10.3702
▁Georg	-10.3702
▁objev	-10.3703
Pro	-10.3704
▁plochy	-10.3706
rož	-10.3707
▁Franz	-10.3708
▁poražen	-10.371
▁připojen	-10.3713
ovci	-10.3713
▁manželka	-10.3714
▁východním	-10.3715
▁bojů	-10.3716
▁růst	-10.3717
cker	-10.3722
▁zastupitel	-10.3724
▁800	-10.3724
▁izraelské	-10.3725
ury	-10.3726
▁integr	-10.3727
▁velkého	-10.3727
▁třemi	-10.3727
tj	-10.3729
▁metal	-10.3731
▁Pavla	-10.3733
▁Jakub	-10.3736
▁zemědělské	-10.3741
▁Ry	-10.3742
dov	-10.3743
▁výsad	-10.3746
▁skalní	-10.3746
▁existují	-10.3747
šen	-10.3747
▁režim	-10.3748
▁uměl	-10.3752
▁portál	-10.376
▁Še	-10.3761
▁ši	-10.3761
▁množin	-10.3762
▁závěru	-10.3763
▁Adolf	-10.3764
▁dceru	-10.3765
▁potřeba	-10.3767
▁textu	-10.3771
▁náboženské	-10.3773
▁vyhrála	-10.3774
▁šampionátu	-10.3778
▁ukázal	-10.3782
▁Paříže	-10.3782
▁konal	-10.3787
▁rakouské	-10.3793
▁evropské	-10.3794
ivé	-10.3794
▁31	-10.3798
▁vedlejší	-10.3799
▁Ul	-10.38
▁postava	-10.3801
▁zákaz	-10.3806
▁pohybuje	-10.3806
▁sněmovny	-10.3807
▁šlo	-10.3807
▁Alp	-10.3813
vír	-10.3815
▁koncert	-10.3816
veden	-10.3817
zl	-10.3819
▁nápad	-10.3819
▁Neu	-10.3821
▁informační	-10.3826
▁představil	-10.3829
▁vysoký	-10.383
▁přímé	-10.3831
▁možná	-10.3832
▁dobro	-10.3833
▁pruh	-10.384
▁Každý	-10.384
▁dokončen	-10.384
old	-10.3841
stan	-10.3842
▁sexuální	-10.3842
chová	-10.3843
cit	-10.3843
▁celkové	-10.3843
▁řadí	-10.3846
▁oper	-10.3847
к	-10.3849
▁nápis	-10.3849
▁řazen	-10.3856
▁tah	-10.3857
ary	-10.3858
▁Fridrich	-10.3858
▁County	-10.3858
▁věnuje	-10.386
▁Bru	-10.3863
▁černý	-10.3864
▁relativně	-10.3867
▁Str	-10.3871
▁ostrovy	-10.3871
▁květ	-10.3872
ER	-10.3872
▁vědecké	-10.3873
▁Rozhodčí	-10.3873
▁w	-10.3877
▁rád	-10.3879
-4	-10.3879
elektr	-10.3882
květ	-10.3884
▁Van	-10.3885
tace	-10.3888
▁vedlo	-10.389
▁dopravu	-10.3893
▁počátkem	-10.3899
▁volný	-10.3903
▁Sv	-10.3906
čík	-10.3906
▁Američan	-10.3911
▁Hans	-10.3911
▁možnosti	-10.3912
kla	-10.3913
ring	-10.3914
▁vesmíru	-10.3921
pra	-10.3927
▁běžně	-10.3933
ink	-10.3939
▁Eli	-10.394
itý	-10.3941
▁překladu	-10.3942
▁komunit	-10.3942
▁mohly	-10.3949
kut	-10.395
▁radě	-10.395
▁hora	-10.3953
▁NHL	-10.3954
▁světle	-10.3958
▁popisuje	-10.3958
kva	-10.3961
kres	-10.3962
▁vybavení	-10.3967
▁produkt	-10.3968
▁technologie	-10.3968
mit	-10.3969
▁disciplín	-10.397
▁jiný	-10.3971
""	-10.3971
▁národním	-10.3974
važ	-10.3976
▁zpočátku	-10.3976
▁linka	-10.3978
▁tlak	-10.3979
×	-10.3982
▁soukromé	-10.3982
kat	-10.3984
pil	-10.3985
▁procent	-10.3987
▁1907	-10.3987
▁(7	-10.3988
▁SS	-10.399
▁odehrává	-10.399
▁On	-10.399
▁povodí	-10.3993
▁42	-10.3994
mos	-10.3994
▁výskyt	-10.3999
/2	-10.3999
▁týmů	-10.4
▁zabýval	-10.4001
árna	-10.4004
▁tep	-10.4006
stavil	-10.4007
▁pověřen	-10.4008
▁oddíl	-10.401
idy	-10.401
▁Federální	-10.4011
▁Emil	-10.4015
▁setkání	-10.4016
▁Asie	-10.4016
▁mohlo	-10.4016
▁vzdálen	-10.4018
▁Často	-10.4018
klid	-10.4019
lič	-10.4021
▁různými	-10.4021
▁Joseph	-10.4023
▁původním	-10.4026
gre	-10.4027
dia	-10.4027
▁vznikly	-10.4028
▁věk	-10.4028
▁mistr	-10.4031
▁porost	-10.4033
▁or	-10.4034
▁míru	-10.4035
▁tentokrát	-10.4042
mot	-10.4044
▁závodu	-10.4046
▁prvo	-10.4046
▁Bas	-10.4048
▁zločin	-10.4048
hav	-10.405
rig	-10.405
oň	-10.405
▁připraven	-10.4051
▁kur	-10.4052
▁představen	-10.4053
▁Gor	-10.406
▁společný	-10.4061
▁prvků	-10.4062
▁odpovídá	-10.4064
mez	-10.4067
▁1917	-10.4069
▁Africe	-10.4074
izační	-10.4075
▁hornin	-10.4075
mut	-10.4076
▁Bell	-10.4077
▁zásad	-10.4078
▁1912	-10.4078
▁obránce	-10.4078
zon	-10.4079
aceae	-10.408
▁38	-10.4082
ović	-10.4085
▁nastal	-10.4088
▁dán	-10.409
aň	-10.4091
▁úspěšný	-10.4092
AR	-10.4098
▁hvězdy	-10.4098
▁natočen	-10.4101
▁podmínek	-10.4102
▁cizí	-10.4104
▁hlav	-10.4104
▁kapitán	-10.4106
cká	-10.4109
qu	-10.4109
kom	-10.411
RA	-10.4111
▁odchodu	-10.4113
ons	-10.4114
▁opat	-10.4114
▁umístěna	-10.4115
▁Bab	-10.4117
inger	-10.4124
▁televize	-10.4125
▁gymnázium	-10.4125
▁novin	-10.4127
▁většiny	-10.4131
▁listů	-10.4133
▁Kun	-10.4135
▁japonské	-10.4137
▁Dal	-10.4141
ičtí	-10.4146
▁vyráběn	-10.4147
▁svobod	-10.4152
▁Des	-10.4157
ávk	-10.416
▁stromů	-10.4161
▁kandidoval	-10.4164
▁otcem	-10.4165
▁armádě	-10.4166
▁International	-10.4166
▁prospěch	-10.4167
Lo	-10.4169
Ba	-10.4172
“"	-10.4174
chal	-10.4183
▁vlastnictví	-10.4183
▁knihu	-10.4184
▁soudní	-10.4186
tická	-10.4186
▁nazýván	-10.4192
▁Berlíně	-10.4196
▁zemřela	-10.4197
▁mládí	-10.42
utí	-10.4203
ňování	-10.4204
anci	-10.4205
vrh	-10.4207
něji	-10.4209
▁Masaryk	-10.4214
enský	-10.422
cházejí	-10.4221
▁klient	-10.4224
Ha	-10.4225
▁žup	-10.4225
▁omezen	-10.4226
▁Red	-10.4227
▁Uni	-10.4229
anda	-10.4229
°	-10.4232
▁herečka	-10.4233
▁Island	-10.4234
р	-10.4236
▁Studoval	-10.4241
▁publikoval	-10.4242
▁požár	-10.4242
▁knížete	-10.4245
▁přinesl	-10.4252
anta	-10.4256
šly	-10.4258
war	-10.4259
ken	-10.426
▁Bíl	-10.4262
▁(8	-10.4263
íček	-10.4265
▁narození	-10.4266
▁foto	-10.4266
▁uni	-10.4272
▁systémů	-10.4274
tán	-10.4278
▁městech	-10.428
▁1908	-10.428
▁obnoven	-10.4282
▁nezávislost	-10.4282
lád	-10.4286
▁kruh	-10.4288
▁nejméně	-10.429
ssa	-10.4292
▁rozhlas	-10.4292
▁obsahují	-10.4297
▁bezpečnostní	-10.4298
▁páté	-10.4299
▁středo	-10.4304
▁prof	-10.4309
hyb	-10.431
ati	-10.4316
▁širší	-10.4318
▁Black	-10.4319
bs	-10.432
▁Anton	-10.432
▁studentů	-10.4321
▁techniky	-10.4324
zol	-10.4324
▁dílem	-10.4325
▁Součástí	-10.4326
▁zahrad	-10.4334
▁barev	-10.4335
AN	-10.4335
▁Ján	-10.4336
zní	-10.4337
▁signál	-10.4337
▁struktur	-10.4339
▁místem	-10.4339
▁Čer	-10.434
▁WTA	-10.434
▁vůz	-10.4345
Br	-10.4347
lech	-10.4348
▁1910	-10.435
▁kterými	-10.4354
▁podniku	-10.4357
▁civilní	-10.4361
▁náleží	-10.4362
▁zvýšení	-10.4362
▁Arab	-10.4362
sty	-10.4363
▁Španěl	-10.4365
ánek	-10.4365
▁vybudován	-10.4365
istický	-10.4368
▁Bos	-10.437
▁turnaji	-10.4371
enu	-10.4372
▁super	-10.4373
tky	-10.4373
▁inženýr	-10.4374
▁chorob	-10.4377
▁mi	-10.4377
▁založené	-10.4378
▁zaveden	-10.4379
▁návrhu	-10.4379
▁podlehl	-10.438
▁Lan	-10.438
nová	-10.4383
▁Čí	-10.4385
ory	-10.4386
morf	-10.4388
▁mono	-10.4388
děn	-10.439
řez	-10.4393
Ta	-10.4393
▁120	-10.4394
▁kancelář	-10.4398
▁fo	-10.4399
▁každém	-10.4401
ick	-10.4402
▁ras	-10.4402
▁podobu	-10.4407
▁svá	-10.4407
ína	-10.4407
▁Afriky	-10.4407
▁man	-10.441
ene	-10.4411
▁spolku	-10.4411
▁významný	-10.4414
▁letu	-10.4414
▁vyvinut	-10.4418
▁Rusko	-10.4422
▁pramen	-10.4423
▁údajů	-10.4431
▁vlastně	-10.4433
▁záření	-10.4435
▁vzdělávání	-10.444
▁dílů	-10.4441
▁radi	-10.4441
▁Ram	-10.4443
▁volební	-10.4443
▁písni	-10.4444
▁fáze	-10.4446
▁označil	-10.4447
ique	-10.4449
▁dokončení	-10.4449
▁architektury	-10.4449
▁kmen	-10.4451
▁Bon	-10.4453
CH	-10.4454
▁uspořádání	-10.4455
▁Skupina	-10.4455
▁světlo	-10.4458
▁federace	-10.4459
▁dané	-10.4459
▁celkově	-10.4462
hle	-10.4462
▁vůdce	-10.4463
tina	-10.4464
▁vzduch	-10.4464
ont	-10.4465
▁Tar	-10.4466
▁bit	-10.4468
3.	-10.4468
hněd	-10.4469
▁pocházející	-10.4471
▁Lin	-10.4473
štěp	-10.4474
▁fázi	-10.4476
stává	-10.4477
win	-10.4483
▁moři	-10.4483
ding	-10.4484
▁srdce	-10.4485
▁jiným	-10.4487
▁filosof	-10.4487
nar	-10.4488
▁zahraničních	-10.4489
sadil	-10.449
▁úplně	-10.4492
▁zřízení	-10.4494
▁tvrz	-10.4495
▁přestavěn	-10.4496
ucha	-10.4496
▁1905	-10.4499
▁držel	-10.45
▁Zlín	-10.4502
▁většině	-10.4503
nad	-10.4504
▁jihovýchodní	-10.4505
▁pohybu	-10.4507
▁zlaté	-10.451
list	-10.4511
▁závěr	-10.4516
▁severo	-10.4517
nia	-10.4518
▁působící	-10.4518
▁románu	-10.4518
bat	-10.4519
psal	-10.452
▁samospráv	-10.4522
-20	-10.4536
▁Bl	-10.4537
▁Branky	-10.4538
ckého	-10.4541
▁podzemní	-10.4541
▁přítel	-10.4542
fér	-10.4542
čov	-10.4544
▁něhož	-10.4546
▁uhlí	-10.4548
▁Will	-10.4548
▁Bat	-10.4549
sur	-10.4552
▁těsně	-10.4556
▁klid	-10.4556
▁původních	-10.4557
00)	-10.4557
▁verzí	-10.456
▁design	-10.4563
▁hlavy	-10.4564
▁Tvoří	-10.4566
stva	-10.4567
▁konflikt	-10.4568
▁délka	-10.4569
▁Jedi	-10.4573
▁panovník	-10.4574
▁Berlín	-10.4574
▁žijí	-10.4574
▁podstatě	-10.4577
ota	-10.458
kur	-10.4582
▁vysvěcen	-10.4584
▁US	-10.4584
yer	-10.4584
▁třída	-10.4587
nách	-10.4588
unt	-10.4593
ujícím	-10.4598
Ca	-10.4599
▁metody	-10.4599
–17	-10.46
▁silniční	-10.4601
▁Ser	-10.4602
▁Říma	-10.4603
▁měšťan	-10.4607
▁volně	-10.4608
▁teorii	-10.4611
▁sluneční	-10.4611
▁souboru	-10.4611
▁prostředky	-10.4617
▁slib	-10.4623
▁dochoval	-10.4625
▁dlouhou	-10.4627
▁následné	-10.4628
▁vysílání	-10.4635
▁Východní	-10.4635
býval	-10.4636
▁devět	-10.4637
▁nížin	-10.4644
▁menšin	-10.4645
vát	-10.4645
▁ujal	-10.4645
▁okresní	-10.4649
▁vzhled	-10.4654
▁těles	-10.4656
aly	-10.4656
fyz	-10.4658
▁Ital	-10.4659
jem	-10.4659
tickou	-10.4659
šan	-10.4663
▁pokryt	-10.4664
▁počítače	-10.4665
▁kmene	-10.4665
▁bank	-10.4667
can	-10.4668
▁využít	-10.4668
▁revoluci	-10.467
▁měření	-10.4672
cin	-10.4673
nických	-10.4675
▁správce	-10.4677
padl	-10.4678
wer	-10.4681
▁letní	-10.4682
ord	-10.4683
▁kos	-10.4686
▁(11	-10.469
▁Super	-10.4691
▁hodiny	-10.4692
▁Někteří	-10.4694
▁orchestr	-10.4694
sor	-10.4694
eřej	-10.4697
▁náhod	-10.4697
▁Napoleon	-10.4698
▁japonský	-10.4698
▁Alb	-10.4698
▁pozor	-10.4699
avé	-10.47
▁produkce	-10.47
▁Dob	-10.4702
rac	-10.4705
ans	-10.4714
▁přírody	-10.4715
▁sad	-10.4715
▁nástroj	-10.4716
▁společenské	-10.4726
▁ml	-10.4727
moř	-10.4727
▁Voj	-10.4731
▁telefon	-10.4732
▁Mik	-10.4742
▁výročí	-10.4743
ction	-10.4744
▁ekonom	-10.4744
▁chat	-10.4745
▁jím	-10.4745
▁bio	-10.4746
▁boční	-10.4747
lly	-10.475
▁protokol	-10.4751
oko	-10.4751
▁získá	-10.4753
▁48	-10.4755
▁samotný	-10.4758
▁(:	-10.4761
soci	-10.4761
▁Oh	-10.4762
▁kněz	-10.4764
laj	-10.4765
zni	-10.4765
▁pojem	-10.4769
▁Boží	-10.4774
▁renesanční	-10.4777
spekt	-10.4779
zan	-10.478
▁semen	-10.4781
▁zůstává	-10.4782
▁plánu	-10.4785
▁peníze	-10.4786
óz	-10.4788
při	-10.4791
▁lom	-10.4792
▁zakladatel	-10.4794
▁ga	-10.4794
▁ev	-10.4797
▁reprezentační	-10.4797
▁Jejím	-10.4802
feld	-10.4803
kel	-10.4803
▁Počet	-10.4804
ovač	-10.4805
stu	-10.4807
▁Dž	-10.481
▁zakončen	-10.4813
Q	-10.4813
▁záznam	-10.4815
▁Bratislavě	-10.4818
nan	-10.4819
▁mat	-10.4824
▁Lar	-10.4824
▁dřívější	-10.4825
▁prý	-10.4825
▁pravidel	-10.4826
tep	-10.4836
vač	-10.4837
▁tvorby	-10.4838
Se	-10.484
▁1850	-10.4843
▁výhradně	-10.4843
stroj	-10.4843
▁věcí	-10.4843
▁vystaven	-10.4846
▁vyvinul	-10.4847
▁objektu	-10.4849
▁odborné	-10.4855
▁nu	-10.4855
alizace	-10.4856
▁At	-10.4857
lec	-10.4861
▁studovat	-10.4863
▁významnou	-10.4868
▁Zemi	-10.487
▁Jeden	-10.4872
tažen	-10.4875
▁uzavřen	-10.4878
▁pojetí	-10.488
mana	-10.4881
▁vyroben	-10.4882
Co	-10.4883
▁Někdy	-10.4884
▁světla	-10.4884
▁čínské	-10.4885
▁%)	-10.4887
▁jedinou	-10.4887
▁Pís	-10.4887
▁Význam	-10.489
▁procesor	-10.489
▁Stanislav	-10.489
lej	-10.4894
nese	-10.4894
▁použil	-10.4895
▁šlechtic	-10.4903
▁Vysoké	-10.4903
ban	-10.4905
▁mezinárodních	-10.4906
▁55	-10.4913
eni	-10.4915
▁zvyk	-10.4922
▁omezení	-10.4923
▁Bern	-10.4924
▁vrtulník	-10.4925
▁jisté	-10.4927
AT	-10.4932
ogen	-10.4933
▁Kur	-10.4935
ator	-10.4938
▁an	-10.4941
▁považována	-10.4945
▁obsahující	-10.4945
kání	-10.4947
▁hranic	-10.4949
náší	-10.4955
▁výzbroj	-10.4955
▁web	-10.4959
▁dvojice	-10.496
▁lan	-10.496
▁Bratislava	-10.496
▁nejdůležitější	-10.4962
▁využil	-10.4963
▁zelené	-10.4965
tori	-10.4968
ografie	-10.4968
▁basketbal	-10.4969
▁bratrem	-10.497
obraz	-10.4976
▁buňky	-10.4976
rostl	-10.4977
nus	-10.4978
▁turist	-10.4984
▁obr	-10.4984
▁zahrady	-10.4987
▁Moravy	-10.4988
▁interpret	-10.4988
▁(9	-10.4988
▁výměn	-10.4991
lehl	-10.4992
Me	-10.4993
▁Nic	-10.4993
▁King	-10.4995
▁Němci	-10.4998
▁psycholog	-10.5
▁rovin	-10.5008
uta	-10.5008
▁Území	-10.5015
▁složen	-10.5016
well	-10.5016
víd	-10.5017
hrn	-10.5018
low	-10.5018
▁Mnoho	-10.5021
▁poskytuje	-10.5022
▁převod	-10.5027
▁vodu	-10.5029
loup	-10.503
▁poslancem	-10.5031
▁administrativní	-10.5031
▁válečné	-10.5033
▁codice	-10.5034
▁přestal	-10.5035
bet	-10.5038
è	-10.5038
▁pohledu	-10.5039
▁dostalo	-10.5041
▁dobrý	-10.5041
▁fakulty	-10.5042
▁Euro	-10.5043
▁zvaný	-10.5045
▁zabývá	-10.5046
livé	-10.5047
▁Prvním	-10.5048
▁otevřena	-10.5048
▁demokrat	-10.5048
▁Sedl	-10.5051
▁policie	-10.5053
▁budově	-10.5055
▁způsoben	-10.5055
▁objevují	-10.5061
▁neob	-10.5062
▁stranách	-10.5063
stin	-10.5066
▁ostrovů	-10.5067
▁konkrétně	-10.5069
ate	-10.5079
▁sval	-10.508
▁menších	-10.508
▁blízké	-10.5082
▁rozhraní	-10.5082
▁Rock	-10.5082
▁sociálních	-10.5085
▁meta	-10.5088
▁letouny	-10.5088
▁Bavor	-10.509
▁takový	-10.5091
ploš	-10.5092
▁reakce	-10.5092
▁zdi	-10.5093
▁75	-10.5095
▁vlastnil	-10.5095
▁schválen	-10.5102
▁Srb	-10.5106
qua	-10.5111
▁standardní	-10.5111
use	-10.5112
▁začne	-10.5115
▁potvrzen	-10.5115
▁nemají	-10.5116
▁viz	-10.5117
▁listin	-10.5117
▁Boh	-10.5118
▁boku	-10.5121
▁bl	-10.5122
▁pozemní	-10.5123
▁vydané	-10.5129
▁Tři	-10.5129
▁premiéru	-10.5131
▁opuštěn	-10.5133
▁Navíc	-10.5133
▁získává	-10.5134
▁hmot	-10.5138
▁započal	-10.514
▁formy	-10.5142
▁nákladní	-10.5145
leb	-10.5148
▁zpráv	-10.5149
▁nemocnice	-10.5149
nicích	-10.515
rup	-10.5151
▁mistrů	-10.5152
▁vládl	-10.5154
▁musela	-10.5154
▁August	-10.5154
ous	-10.5155
bla	-10.5155
ES	-10.5158
Tr	-10.5159
▁Auto	-10.516
▁ca	-10.5161
▁ostatními	-10.5163
německy	-10.5165
který	-10.5169
hrán	-10.5171
▁ODS	-10.5173
nských	-10.5173
▁konec	-10.5174
▁Mlad	-10.5174
▁profil	-10.5178
▁zbytky	-10.518
organiz	-10.5181
▁socha	-10.5184
▁francouzská	-10.5184
šil	-10.5186
▁Olomouci	-10.5186
žír	-10.5186
▁mnohé	-10.5187
▁plošin	-10.5189
▁Kop	-10.5191
nského	-10.5192
▁všem	-10.5192
▁organ	-10.5194
itelné	-10.5194
▁ročně	-10.5195
▁motoru	-10.5196
▁Argentin	-10.5198
▁Jud	-10.5198
▁závislosti	-10.5199
▁dosáhnout	-10.52
▁hod	-10.5201
▁znaky	-10.5201
▁domy	-10.5201
ordin	-10.5204
itz	-10.5206
▁cha	-10.5206
▁smrtí	-10.5211
nož	-10.5212
▁sovětské	-10.5213
▁Hall	-10.5216
níka	-10.5216
▁hrabství	-10.522
bach	-10.5221
у	-10.5223
▁vyšel	-10.5223
=	-10.5229
▁Ondřej	-10.5232
▁přírodě	-10.5236
Sa	-10.5239
▁vzdálenost	-10.5239
▁koncept	-10.524
▁Ačkoliv	-10.5242
lét	-10.5242
▁zemský	-10.5242
▁dřevin	-10.5246
▁Slov	-10.5247
▁probíhala	-10.5251
kově	-10.5251
▁organizaci	-10.5252
▁událostí	-10.5253
▁noční	-10.5255
▁zub	-10.5255
▁považoval	-10.5256
▁úředník	-10.526
▁zasedal	-10.526
▁video	-10.526
н	-10.5261
1,	-10.5265
▁Sněmovny	-10.5268
▁stavbě	-10.5269
▁dvůr	-10.527
▁ovlivnil	-10.527
▁středně	-10.527
dávají	-10.527
▁gu	-10.5272
cer	-10.5273
▁desky	-10.5278
▁Mach	-10.5281
row	-10.5283
cům	-10.5285
▁Vel	-10.5288
▁kulturních	-10.5291
▁spolupráce	-10.5293
▁okraj	-10.5295
▁jezero	-10.5296
▁komor	-10.5296
pas	-10.5297
MA	-10.5297
avy	-10.5298
▁hodnocení	-10.53
▁silnici	-10.5301
▁ocel	-10.5301
▁typů	-10.5301
▁péče	-10.5302
▁Část	-10.5303
▁Brna	-10.5307
▁Židů	-10.5307
▁Arm	-10.5311
▁vystřídal	-10.5311
▁fyzik	-10.5311
▁českou	-10.5313
▁následujícím	-10.5319
▁nositel	-10.5319
▁Sokol	-10.532
▁originále	-10.5321
▁Music	-10.5321
▁graf	-10.5322
▁stejnojmenné	-10.5326
▁používaný	-10.5327
álních	-10.5327
▁Bou	-10.5329
▁objekty	-10.5329
▁obsahoval	-10.533
▁Aby	-10.533
▁správu	-10.533
▁náklady	-10.5331
nica	-10.5333
ály	-10.5338
▁posádky	-10.5338
2)	-10.5339
▁skutečnost	-10.5344
▁Gri	-10.5347
▁pla	-10.535
▁tvrdí	-10.5352
▁dvora	-10.5353
▁řízen	-10.5356
▁zajistil	-10.5356
▁určit	-10.5356
▁Vítěz	-10.5356
▁taneční	-10.5358
olo	-10.5361
non	-10.5361
uss	-10.5361
▁proudu	-10.5361
▁autorů	-10.5362
ima	-10.5362
▁kultur	-10.5367
rád	-10.5369
д	-10.537
▁kyselin	-10.5371
▁Sc	-10.5371
▁Krátce	-10.5372
▁akademii	-10.5375
▁special	-10.5378
vatel	-10.5378
▁tažení	-10.5379
▁vyřazen	-10.5379
▁2,5	-10.5383
▁farní	-10.5384
▁By	-10.5387
člen	-10.5388
▁dřeva	-10.539
king	-10.5391
▁Gen	-10.5391
štejn	-10.5391
pul	-10.5396
▁každého	-10.54
▁stadionu	-10.5401
▁var	-10.5404
▁nejlepším	-10.5405
▁Tru	-10.541
▁vojsko	-10.541
▁existoval	-10.5412
▁příležitost	-10.5414
▁děj	-10.5418
vržen	-10.5418
▁hydro	-10.542
▁památky	-10.5421
ejší	-10.5424
▁řek	-10.5424
▁rostlina	-10.5425
▁založeno	-10.5426
▁útoč	-10.5429
▁děkan	-10.543
▁tř	-10.5431
▁usadil	-10.5431
▁navštěvoval	-10.5432
▁objektů	-10.5433
sar	-10.5433
mper	-10.5434
▁ptáků	-10.5437
lh	-10.5437
ismem	-10.544
▁kníže	-10.5443
▁přehled	-10.5443
ank	-10.5444
▁opatření	-10.5444
▁gr	-10.5446
dala	-10.5447
▁jazyky	-10.5447
vce	-10.5449
počt	-10.5449
zin	-10.5451
▁vozu	-10.5452
▁modelu	-10.5454
olit	-10.5454
▁využíval	-10.5455
▁vědy	-10.5456
▁vyhlásil	-10.5459
▁získalo	-10.5462
psat	-10.5463
▁1913	-10.5463
▁vyráběl	-10.5464
▁svojí	-10.5465
pů	-10.5465
▁uprchl	-10.5466
anglicky	-10.5467
▁analýz	-10.547
▁vývoji	-10.547
▁Pat	-10.547
▁nejdříve	-10.547
▁deska	-10.5471
▁natočil	-10.5473
▁starost	-10.5473
▁Společně	-10.5481
▁hy	-10.5485
▁aplikace	-10.549
▁veřejnost	-10.549
čuje	-10.5495
▁agent	-10.5495
▁Prix	-10.55
▁1906	-10.5501
▁Liber	-10.5501
sad	-10.5503
chan	-10.5503
▁bitvy	-10.5508
▁vybrán	-10.5509
▁katastrálního	-10.5513
▁soupeř	-10.5514
▁hloub	-10.5517
▁cel	-10.5519
▁Židé	-10.552
▁čtvrtfinále	-10.5522
nal	-10.5522
▁dává	-10.5523
▁Nejstarší	-10.5525
▁účely	-10.5526
▁těch	-10.5529
▁Miloš	-10.553
tla	-10.5532
▁obrat	-10.5538
▁rot	-10.5539
▁válku	-10.554
▁Bill	-10.5541
elle	-10.5541
Ř	-10.5542
lina	-10.5543
regul	-10.555
▁spojil	-10.555
▁hodnotu	-10.5552
▁studie	-10.5553
tle	-10.5555
▁Kolem	-10.5556
▁vysoko	-10.5556
▁věnovat	-10.5559
▁sál	-10.556
▁aktivity	-10.5561
▁Luž	-10.5564
▁kráter	-10.5567
▁izraelský	-10.5569
▁vodních	-10.5569
▁nám	-10.5571
▁Rakous	-10.5579
čko	-10.5579
▁přednost	-10.558
▁přirozené	-10.5582
▁Mari	-10.5586
▁Mos	-10.5586
▁Asi	-10.5587
▁událost	-10.5591
▁kult	-10.5594
▁hřbitově	-10.5594
▁hřbet	-10.5596
▁Len	-10.5598
slovensk	-10.5599
▁světového	-10.5601
▁jezer	-10.5606
▁Ostrava	-10.5607
▁úspěchu	-10.5607
▁Mandát	-10.5608
▁mistra	-10.5608
▁brněnské	-10.5609
idla	-10.561
▁HC	-10.5611
▁doktor	-10.5613
▁Bart	-10.5615
▁stíhací	-10.5616
▁světovou	-10.5616
▁proslul	-10.5618
▁odpad	-10.562
▁1901	-10.5621
▁hráče	-10.5622
čkov	-10.5623
▁filozof	-10.5624
▁meč	-10.5625
▁Skal	-10.5625
▁látek	-10.5625
ano	-10.5625
▁samostatný	-10.5626
tický	-10.5627
▁popsán	-10.563
▁Gro	-10.5631
▁schopnosti	-10.5631
▁cukr	-10.5632
▁dráhu	-10.5634
pád	-10.5636
▁Alois	-10.5637
led	-10.5638
▁Ruské	-10.5638
čice	-10.5641
▁přijetí	-10.5644
▁mistrem	-10.5645
▁česko	-10.5647
▁umělců	-10.5649
▁poškození	-10.565
▁brankář	-10.5651
▁přestup	-10.5652
včetně	-10.5652
в	-10.5653
▁—	-10.5654
▁Boleslav	-10.5654
▁Důvodem	-10.5655
▁vydáno	-10.5656
▁kus	-10.5656
▁stavitel	-10.5657
▁vycházel	-10.5658
▁gymnáziu	-10.5662
▁Cal	-10.5662
▁vyloučen	-10.5666
ges	-10.5666
▁liber	-10.5668
▁spadá	-10.5668
▁považuje	-10.567
▁latin	-10.567
▁zjistil	-10.5672
▁břeh	-10.5675
bul	-10.568
▁Ken	-10.5681
▁zasvěcen	-10.5681
▁pozdní	-10.5681
avý	-10.5682
▁devíti	-10.5684
edi	-10.5684
dis	-10.5686
▁získání	-10.5687
▁44	-10.5694
▁Il	-10.5694
▁schopen	-10.5696
▁výrobní	-10.5699
pus	-10.5702
sco	-10.5702
▁severovýchodně	-10.5703
▁respektive	-10.5704
▁val	-10.5706
znamen	-10.5707
▁Německé	-10.5707
▁Indie	-10.5707
▁filmech	-10.5708
▁1897	-10.5709
▁Dia	-10.571
sin	-10.5711
▁čtyřech	-10.5713
▁otevřel	-10.5713
▁etap	-10.5714
▁dostane	-10.5717
▁Slovenské	-10.5718
▁Moskvě	-10.5719
▁dalšího	-10.572
▁Slovensko	-10.572
erg	-10.5727
árny	-10.5728
▁kláves	-10.5729
nickou	-10.5729
žd	-10.5731
▁milionu	-10.5731
▁...	-10.5732
▁letadla	-10.5734
tika	-10.5734
rist	-10.5735
pri	-10.5736
▁poslán	-10.5736
▁startoval	-10.5738
ečná	-10.5739
▁jiho	-10.5741
▁katastru	-10.5742
▁hovoří	-10.5743
ávají	-10.5743
▁smysl	-10.5744
▁nějaký	-10.5746
MS	-10.5748
▁Hitler	-10.575
▁existenci	-10.5752
blo	-10.5753
ester	-10.5754
▁nárok	-10.5756
▁stával	-10.5757
ís	-10.5758
kos	-10.5758
";	-10.5763
▁ředitele	-10.5765
barv	-10.5767
▁Patří	-10.5768
tisk	-10.5772
hut	-10.5773
▁přesunul	-10.578
▁rozkládá	-10.5781
▁Fla	-10.5782
loh	-10.5784
▁Bran	-10.5785
tern	-10.5788
jek	-10.5788
ל	-10.5793
niční	-10.5793
štěn	-10.5795
▁popsal	-10.5796
ns	-10.5796
▁vydává	-10.5801
▁otevřené	-10.5802
▁anglického	-10.5802
lia	-10.5804
gue	-10.5805
grad	-10.5805
▁vlak	-10.5805
▁nim	-10.5806
▁Pavl	-10.5811
▁vysokých	-10.5812
▁veškeré	-10.5813
▁vrací	-10.5815
▁vyhlášen	-10.5817
▁letounů	-10.5822
▁večer	-10.5826
▁polí	-10.5827
▁používání	-10.5828
▁paláce	-10.5829
gie	-10.5831
▁průmyslové	-10.5833
▁celku	-10.5833
▁%.	-10.5835
▁pes	-10.5835
▁americkém	-10.5837
▁sídlil	-10.5838
▁založili	-10.584
▁miliony	-10.5841
árně	-10.5844
fal	-10.5845
▁odtud	-10.5846
iana	-10.585
▁drobné	-10.5851
▁Rovněž	-10.5853
▁každoročně	-10.5857
▁umožnil	-10.5862
▁lokální	-10.5864
jské	-10.5869
▁tón	-10.587
▁doložen	-10.5874
▁polský	-10.5874
rez	-10.5875
▁Novém	-10.5876
▁elektrické	-10.5881
▁Slunce	-10.5882
sť	-10.5882
▁náboj	-10.5885
ražen	-10.5886
▁nástup	-10.5891
▁námořnictva	-10.5891
▁Mad	-10.5891
▁opevnění	-10.5893
ráz	-10.5894
▁pěší	-10.5897
▁vystavěn	-10.5898
▁seznámil	-10.5899
▁letounu	-10.5902
▁Wo	-10.5903
▁matky	-10.5905
▁souboj	-10.5906
pokoj	-10.5906
▁Středo	-10.591
field	-10.5911
▁dřevěný	-10.5911
▁Au	-10.5913
▁Jack	-10.5913
zemní	-10.5914
mas	-10.5915
▁akt	-10.5917
▁německá	-10.5923
To	-10.5926
▁Tě	-10.5926
▁duch	-10.5929
ovitá	-10.5933
try	-10.5934
▁nominován	-10.5937
▁rozvod	-10.5938
▁obrazy	-10.5939
burk	-10.5944
▁dvanáct	-10.5947
▁Oblast	-10.5948
▁Kre	-10.595
▁Hrál	-10.5952
▁52	-10.5952
▁českým	-10.5953
▁výška	-10.5953
▁vozidla	-10.5954
▁dvouhře	-10.5954
▁sbírky	-10.5954
▁vápen	-10.5954
▁třetin	-10.5957
tura	-10.596
▁široký	-10.5961
▁přeložen	-10.5961
▁míry	-10.5965
▁Sar	-10.5967
západ	-10.597
▁drob	-10.5971
▁Typ	-10.5975
▁Lí	-10.5978
▁silný	-10.5981
▁ženské	-10.5981
▁prince	-10.5981
▁39	-10.5983
▁Albrecht	-10.5983
▁nejlepších	-10.5984
▁Tem	-10.5985
▁stromy	-10.5987
▁říms	-10.5989
/1	-10.5989
▁Mikuláš	-10.599
▁Kas	-10.5991
▁uzavřel	-10.5998
eční	-10.5998
dil	-10.5999
▁Liberec	-10.5999
▁*	-10.6002
▁ves	-10.6005
▁skvrn	-10.6005
▁značky	-10.6005
enberg	-10.6006
▁Club	-10.6007
▁museli	-10.6008
mět	-10.6009
▁dia	-10.6011
▁pokoj	-10.6016
▁důraz	-10.6017
▁vlastního	-10.6021
▁nejmladší	-10.6025
▁kariéře	-10.6027
▁rádi	-10.6027
▁přestože	-10.6028
▁zlatou	-10.6029
stupující	-10.6031
▁Světové	-10.6033
▁obecné	-10.6035
▁předsedy	-10.6037
kládání	-10.6038
▁samotné	-10.6042
děj	-10.6045
▁poslal	-10.6048
iva	-10.6051
érie	-10.6053
▁rolí	-10.6054
▁VI	-10.6056
▁Já	-10.6056
gl	-10.6058
▁rozhodla	-10.6058
▁výrobce	-10.6058
▁vojenskou	-10.6061
někud	-10.6064
▁spolek	-10.6065
▁peněz	-10.6067
▁spisovatele	-10.6067
▁královský	-10.6069
▁pokračování	-10.6071
▁červený	-10.6072
ivý	-10.6072
▁armádou	-10.6072
▁Ban	-10.6075
▁Škoda	-10.6076
▁válek	-10.6077
▁vrchní	-10.6078
měl	-10.6078
▁účastník	-10.6083
▁daleko	-10.6083
mluvil	-10.6085
▁hodnosti	-10.6088
▁Vojtěch	-10.6091
▁archiv	-10.6092
itelný	-10.6096
áků	-10.6097
▁vládou	-10.6098
▁Austrálie	-10.6101
▁Českých	-10.6101
▁touto	-10.6103
▁dorazil	-10.6103
▁dlouhodobě	-10.6103
▁nosí	-10.6104
▁měsíc	-10.6107
▁metr	-10.6109
RO	-10.6109
м	-10.611
▁nesl	-10.6114
▁vrátit	-10.6115
▁hospodářství	-10.6115
▁kněze	-10.6116
pěš	-10.6116
▁něho	-10.6118
▁pravo	-10.6119
rag	-10.6125
▁Kamen	-10.6133
▁kříže	-10.6136
▁parní	-10.6137
▁Ani	-10.6138
DS	-10.6139
▁pražského	-10.6143
livý	-10.6143
ID	-10.6144
▁Met	-10.6144
▁ciz	-10.6145
▁peč	-10.6146
▁senátor	-10.6147
cca	-10.6148
▁těl	-10.6149
▁Ant	-10.615
▁Číně	-10.6151
▁parlamentních	-10.6153
▁Berg	-10.6156
▁prapor	-10.6156
▁připojení	-10.6156
▁School	-10.616
▁tok	-10.6161
▁Proti	-10.6162
-5	-10.6163
▁občanů	-10.6164
▁Blo	-10.6165
▁prováděn	-10.6165
▁plast	-10.6165
▁Japonsku	-10.6167
▁Ker	-10.6168
▁Av	-10.6172
▁Žid	-10.6175
▁League	-10.6175
Da	-10.6175
ovně	-10.6177
▁vzdal	-10.6177
▁horách	-10.6177
▁zastoupen	-10.6178
bri	-10.6181
rozcestník	-10.6182
▁kurii	-10.6183
▁zálivu	-10.6183
▁National	-10.6184
▁zavedení	-10.6186
centr	-10.6187
▁možností	-10.6188
▁židovského	-10.6189
▁sochy	-10.6189
▁sond	-10.6191
jského	-10.6192
▁Může	-10.6195
▁kvalitní	-10.6195
▁Tan	-10.6196
▁manažer	-10.6197
▁obsazen	-10.6199
▁vrchu	-10.6202
rost	-10.6203
até	-10.6203
▁port	-10.6205
vala	-10.6207
▁Austrálii	-10.6209
▁jihovýchodně	-10.621
▁malou	-10.6212
přítomn	-10.6212
plnil	-10.6213
▁47	-10.6215
ë	-10.6217
▁bomb	-10.6219
luh	-10.622
ensis	-10.622
▁Henry	-10.6221
▁planety	-10.6222
▁mez	-10.6222
▁dosáhla	-10.6223
▁oceánu	-10.6224
▁žal	-10.6229
▁diplomat	-10.6229
▁výsledkem	-10.6232
▁vojenského	-10.6234
mán	-10.6236
▁ČSSD	-10.6237
▁You	-10.6238
kým	-10.6239
);	-10.624
▁příčin	-10.6245
jas	-10.6247
▁vesnic	-10.625
▁bělo	-10.6252
▁uskutečnil	-10.6257
▁nep	-10.6257
▁plát	-10.6257
▁Cas	-10.6258
▁ústřední	-10.6263
▁hodnota	-10.6266
▁zahájen	-10.6266
▁Kad	-10.6268
▁islám	-10.6268
▁poloh	-10.6271
▁texty	-10.6272
Vi	-10.6273
▁hmotnosti	-10.6273
ör	-10.6273
▁Stan	-10.6277
migr	-10.628
▁plné	-10.6281
▁vydána	-10.6282
▁lépe	-10.6282
▁návrat	-10.6282
▁pocházejí	-10.6282
▁Flor	-10.6282
▁Hon	-10.6284
▁lesy	-10.6284
▁Friedrich	-10.6284
dek	-10.6285
▁úroveň	-10.6287
▁kamer	-10.629
▁Nového	-10.6291
▁sami	-10.6292
▁sběr	-10.6292
▁oběma	-10.6292
▁zahynul	-10.6297
▁van	-10.6297
▁starý	-10.6299
▁úřední	-10.6299
▁podobný	-10.6299
▁aktiv	-10.6301
red	-10.6303
▁molekul	-10.6303
▁rekonstrukce	-10.6307
▁tan	-10.6308
ase	-10.6308
▁zavedl	-10.6308
iče	-10.631
▁zápasu	-10.6313
SD	-10.6314
▁lidmi	-10.6315
▁Hora	-10.6316
▁Lang	-10.6317
▁mostu	-10.6317
▁real	-10.6317
▁nahrál	-10.6318
▁krajiny	-10.6318
▁témat	-10.6318
▁Pá	-10.6321
▁prostředků	-10.6322
▁cestou	-10.6322
Ja	-10.6323
α	-10.6324
bot	-10.6328
▁vodě	-10.6329
▁dospěl	-10.6331
▁Qui	-10.6332
šku	-10.6336
▁náhrad	-10.6337
▁65	-10.6338
▁levé	-10.6339
▁účasti	-10.6343
▁Oldřich	-10.6345
▁konečně	-10.6347
▁pádu	-10.635
ule	-10.6352
▁hit	-10.6354
oví	-10.6359
tl	-10.636
▁řecké	-10.6361
jak	-10.6361
▁definitivně	-10.6362
eau	-10.6368
▁Bohu	-10.6369
▁výši	-10.637
lova	-10.6371
▁ztvárnil	-10.6375
▁krize	-10.6375
▁mladý	-10.6376
▁kanón	-10.6377
padá	-10.6377
▁Izraele	-10.6378
alis	-10.638
▁1909	-10.6382
▁zahájení	-10.6382
▁zdraví	-10.6383
▁závody	-10.6383
▁soustavy	-10.6384
▁tvořili	-10.6384
plod	-10.6384
▁stejného	-10.6386
▁Zelen	-10.6386
▁Králov	-10.6387
íme	-10.6387
▁nebezpečí	-10.6388
▁Národním	-10.6389
▁nor	-10.6392
▁43	-10.6393
▁založená	-10.6396
▁Římskokatolická	-10.6397
▁Ostrov	-10.6398
česky	-10.6398
▁Polsko	-10.6402
▁německy	-10.6407
▁Právě	-10.6409
AS	-10.6411
ה	-10.6415
▁názvy	-10.6418
▁kW	-10.642
lám	-10.6421
▁Tehdy	-10.6423
▁multi	-10.6424
▁Martina	-10.6424
▁Hill	-10.6426
▁žid	-10.6427
OH	-10.6427
kém	-10.6428
▁Jelikož	-10.6431
AP	-10.6431
▁připsal	-10.6431
▁41	-10.6432
▁rozvoje	-10.6433
řice	-10.6434
▁Syn	-10.6436
▁vysoce	-10.6436
rst	-10.6436
▁formální	-10.6436
fen	-10.6439
▁Podobně	-10.6439
enství	-10.644
▁hotel	-10.6447
▁Jedním	-10.6451
▁pas	-10.6453
▁policejní	-10.6454
▁jednoduchý	-10.6454
▁nebe	-10.6455
▁zábav	-10.6456
▁Stavba	-10.6458
▁go	-10.646
▁představitel	-10.6461
ářské	-10.6461
ital	-10.6468
▁čtyřhře	-10.6469
jako	-10.6472
prostřed	-10.6474
tum	-10.6475
vrátil	-10.6475
▁Jindřicha	-10.6476
▁téma	-10.6476
▁hudebních	-10.6479
stáv	-10.6481
▁jednoduché	-10.6482
čnou	-10.6485
▁problémů	-10.6485
▁filmy	-10.6489
aria	-10.649
mber	-10.649
IC	-10.649
▁nemusí	-10.6492
▁Mnichov	-10.6495
▁Lind	-10.6497
stěhoval	-10.6499
▁pobytu	-10.65
pálen	-10.6501
▁poutní	-10.6501
▁jakožto	-10.6502
▁status	-10.6504
▁pravidla	-10.651
dé	-10.651
▁začínal	-10.651
gas	-10.651
▁položen	-10.6511
▁lidem	-10.6514
▁objem	-10.6515
lun	-10.6515
▁zvolil	-10.6516
▁formou	-10.6516
lok	-10.6517
▁taktéž	-10.6517
▁kratší	-10.6518
boř	-10.6519
▁umístěny	-10.6521
▁Několik	-10.6523
ture	-10.6524
▁ministrem	-10.6524
raž	-10.6526
váž	-10.6527
▁průtok	-10.6529
▁soch	-10.653
ls	-10.6533
▁válkou	-10.6534
izovaný	-10.6535
▁Naopak	-10.6538
▁teplota	-10.6538
▁1916	-10.6542
▁krystal	-10.6546
▁předpis	-10.6547
▁Jozef	-10.6548
růst	-10.6548
▁Číny	-10.6549
ket	-10.655
▁španělský	-10.6552
▁nikdo	-10.6554
tických	-10.6556
▁zahrál	-10.6556
▁kostelem	-10.6558
▁digitální	-10.6564
▁vozidel	-10.6564
zdrav	-10.6564
▁elektrický	-10.6566
▁jihozápadně	-10.6566
▁přijímá	-10.6569
▁věží	-10.657
stávají	-10.6572
ning	-10.6577
nský	-10.6577
áky	-10.6578
▁konala	-10.658
▁dokončena	-10.6581
erem	-10.6581
▁TJ	-10.6583
▁Dva	-10.6584
▁j	-10.6584
▁Monte	-10.6586
Star	-10.6587
put	-10.6591
▁server	-10.6592
▁vojenských	-10.6592
▁přišla	-10.6593
▁1915	-10.6594
▁kontrolu	-10.6594
rusky	-10.6595
▁neustále	-10.6597
lování	-10.6598
▁jader	-10.6598
▁propuštěn	-10.6598
▁Motor	-10.66
▁doba	-10.6601
▁sousedí	-10.6602
▁Ludvíka	-10.6603
▁Není	-10.6604
ča	-10.6605
▁Orl	-10.6605
ß	-10.6605
▁nalézt	-10.6605
▁červen	-10.6607
▁TV	-10.6607
▁nemoci	-10.6608
▁poklad	-10.6608
▁vrátila	-10.6608
▁Simon	-10.6608
▁místním	-10.661
uli	-10.6611
▁tro	-10.6611
elná	-10.6614
▁lok	-10.6617
▁zasáhl	-10.6626
▁hodnost	-10.6627
char	-10.6627
▁buněk	-10.6628
žívá	-10.6629
Be	-10.6629
áno	-10.6631
▁Něm	-10.6631
cení	-10.6633
ňa	-10.6633
▁OSN	-10.6633
▁tvorbu	-10.6636
▁advokát	-10.6639
▁výsledek	-10.6639
oři	-10.664
▁Běl	-10.6641
▁pobřežní	-10.6642
▁dramat	-10.6642
▁dojde	-10.6643
▁jízdní	-10.6646
ticky	-10.6646
pev	-10.6647
▁protein	-10.665
▁mobilní	-10.665
▁zásadní	-10.6651
▁dolů	-10.6651
▁obal	-10.6653
▁průčelí	-10.6657
tim	-10.6659
áda	-10.666
▁Chan	-10.666
▁desetiletí	-10.6663
▁ženou	-10.6663
▁křesťanství	-10.6664
▁nerv	-10.6666
chen	-10.6667
▁Smith	-10.6667
▁Kri	-10.6669
▁roh	-10.667
lob	-10.6671
▁bývalá	-10.6672
▁řecký	-10.6672
▁státních	-10.6675
▁zraněn	-10.6675
▁městského	-10.6676
▁odjel	-10.6676
▁Břez	-10.6678
téká	-10.6679
hlá	-10.6679
stev	-10.6679
chyt	-10.668
▁žádná	-10.6681
▁zisk	-10.6681
▁Žil	-10.6684
▁mini	-10.6688
CA	-10.6689
▁založený	-10.6689
▁Santa	-10.6689
▁mládeže	-10.6696
EC	-10.6699
▁1904	-10.6701
get	-10.6702
▁písem	-10.6702
▁funkční	-10.6704
idae	-10.6708
▁týden	-10.6708
▁Stav	-10.6708
▁sloučenin	-10.6711
▁Wal	-10.6712
▁sítí	-10.6713
Di	-10.6713
▁počtem	-10.6715
▁hejtman	-10.6717
▁zapsán	-10.6717
▁Tuto	-10.6719
▁vojáci	-10.672
▁člun	-10.672
▁mnich	-10.6721
ild	-10.6723
▁česky	-10.6723
tvoř	-10.6724
Ve	-10.6728
▁životního	-10.6729
proti	-10.6732
▁Lig	-10.6733
▁obětí	-10.6734
▁metoda	-10.6738
▁katolický	-10.6739
▁vztahů	-10.674
letá	-10.674
▁May	-10.6741
▁Místo	-10.6741
▁účastní	-10.6741
▁dvacet	-10.6742
íd	-10.6744
tiky	-10.6748
rea	-10.6751
▁šel	-10.6753
▁tudíž	-10.6754
▁fotbale	-10.6754
▁představují	-10.6755
▁pozorování	-10.6755
▁okruh	-10.6756
▁zájmu	-10.6759
▁UK	-10.6759
▁Un	-10.6762
▁knihovny	-10.6765
ijské	-10.6766
▁okna	-10.6766
▁doma	-10.6771
áním	-10.6777
▁předpoklad	-10.6777
▁osobnosti	-10.6778
▁vyrábí	-10.678
▁46	-10.6785
▁dřevo	-10.6785
▁Teprve	-10.6788
▁úpravy	-10.6788
▁rodičů	-10.6789
sten	-10.6789
▁důkaz	-10.6789
▁španělské	-10.6791
▁obecný	-10.6791
▁katastrální	-10.6791
▁mládež	-10.6792
▁kotl	-10.6793
▁udělil	-10.6794
▁syny	-10.6795
řík	-10.6796
▁velitelem	-10.6797
▁trvá	-10.6801
▁chud	-10.6802
▁Karol	-10.6802
▁svobody	-10.6803
▁křižník	-10.6803
▁průvod	-10.6804
▁zajišťuje	-10.6804
rš	-10.6804
kry	-10.6805
▁starších	-10.6806
sáhl	-10.6808
▁křesťanské	-10.6813
▁označením	-10.6819
▁literatuře	-10.6822
PS	-10.6829
▁obyvatelstvo	-10.6829
▁patron	-10.683
▁Nejprve	-10.6833
stil	-10.6834
▁lesa	-10.6835
ograf	-10.6836
▁snížení	-10.6836
▁liga	-10.6836
▁knihovna	-10.6837
tání	-10.6841
SA	-10.6841
▁okamžitě	-10.6841
▁fre	-10.6841
▁instituce	-10.6846
▁nebude	-10.6846
uh	-10.685
rg	-10.6852
▁trestní	-10.6856
▁osídlen	-10.6856
vější	-10.6857
▁ztráty	-10.6857
▁školství	-10.6857
▁Bad	-10.6858
▁700	-10.6858
▁jazyce	-10.6862
▁detail	-10.6865
▁oči	-10.6865
▁Plat	-10.6866
vad	-10.687
▁službu	-10.687
iér	-10.6873
▁pop	-10.6875
▁drží	-10.6875
▁rychlostí	-10.6875
▁jádra	-10.6876
▁jsme	-10.6881
▁rozsáhlý	-10.6881
ologický	-10.6881
▁spolkové	-10.6883
sia	-10.6883
žek	-10.6884
▁komerční	-10.6886
pěv	-10.6886
cky	-10.6887
volal	-10.6888
dával	-10.6888
fil	-10.6888
▁bázi	-10.6889
▁údaje	-10.6889
▁1890	-10.6891
got	-10.6891
stál	-10.6893
áni	-10.6894
_3	-10.6896
-17	-10.6897
▁1896	-10.6898
▁odhalen	-10.6899
oth	-10.6902
▁pokračovat	-10.6902
čná	-10.6903
▁prst	-10.6904
bách	-10.6904
▁zaměřen	-10.6909
▁Michel	-10.691
▁pocit	-10.6912
▁teploty	-10.6915
SS	-10.6917
řin	-10.6917
▁rodinné	-10.6919
▁Gre	-10.6919
▁právník	-10.6921
blíž	-10.6922
cal	-10.6922
teri	-10.6922
▁úřady	-10.6922
▁internet	-10.6922
šti	-10.6923
▁Win	-10.6925
oly	-10.6926
ýš	-10.6927
orient	-10.6928
druž	-10.6929
▁Luk	-10.693
▁51	-10.6931
▁nejvýše	-10.6934
▁příjem	-10.6934
vec	-10.6937
HL	-10.6937
▁překladatel	-10.6938
íci	-10.6943
čár	-10.6943
▁lidských	-10.6946
▁zkušenosti	-10.6946
▁firmou	-10.695
▁kámen	-10.6951
una	-10.6953
▁Cy	-10.6953
▁hrající	-10.6953
▁svahu	-10.6958
▁Tal	-10.6958
▁navázal	-10.696
ore	-10.6962
▁páry	-10.6966
razí	-10.6967
▁žánr	-10.6968
▁biskupem	-10.6972
▁požádal	-10.6974
graf	-10.6976
▁firem	-10.6981
tva	-10.6981
▁zahájena	-10.6983
▁začátkem	-10.6985
▁front	-10.6987
▁platnost	-10.6987
tele	-10.6988
▁kapitul	-10.6989
▁tradici	-10.6989
▁protestant	-10.699
▁zástupci	-10.699
vací	-10.6991
ložil	-10.6992
▁Cap	-10.6995
▁někdejší	-10.6996
▁Sovětského	-10.6996
ávka	-10.6999
▁Land	-10.7
▁lidi	-10.7003
▁Johna	-10.7004
й	-10.7006
ovny	-10.7008
kli	-10.7009
▁pohlaví	-10.7009
▁vyšších	-10.7016
oru	-10.7017
▁Klad	-10.7018
–16	-10.7019
▁Lau	-10.7023
▁současný	-10.7024
▁Druhá	-10.7024
▁číslem	-10.7025
▁zajetí	-10.7025
▁Helen	-10.7027
razit	-10.7028
běžný	-10.7029
▁Kle	-10.703
▁Dobr	-10.703
▁nejvyšším	-10.7031
▁Projekt	-10.7031
spěl	-10.7031
př	-10.7033
▁naprosto	-10.7034
▁zemských	-10.7034
▁sestra	-10.7035
BA	-10.7035
▁zavražděn	-10.7036
měnil	-10.7036
▁1902	-10.7038
▁ploch	-10.7038
▁1500	-10.7039
bek	-10.7039
▁anglické	-10.7041
▁show	-10.7042
▁záložník	-10.7042
auto	-10.7043
držel	-10.7047
/3	-10.7048
▁spojené	-10.7051
▁parlament	-10.7052
▁funguje	-10.7058
▁televizi	-10.7058
▁kulomet	-10.7058
wo	-10.7059
▁Dom	-10.7059
kář	-10.7061
▁východu	-10.7066
▁britského	-10.7068
▁veřejně	-10.7072
atické	-10.7074
íků	-10.7075
▁pošt	-10.7075
▁králi	-10.7076
▁Ph	-10.7078
▁vystupuje	-10.7078
▁É	-10.7083
▁spojuje	-10.7083
zích	-10.7086
▁negativní	-10.7086
▁Svou	-10.7088
suz	-10.7088
▁mladé	-10.7089
▁vektor	-10.709
▁navazuje	-10.7093
▁hoře	-10.7094
▁slav	-10.7094
▁přepis	-10.7095
▁Sel	-10.7099
pozor	-10.71
▁College	-10.7101
antní	-10.7101
bíral	-10.7102
▁Cer	-10.7103
▁ploše	-10.7103
▁čtvrtý	-10.7106
▁Ann	-10.7107
▁bud	-10.7108
▁stejnou	-10.7112
▁Moravské	-10.7113
▁rad	-10.7118
▁tratě	-10.7118
české	-10.7119
gro	-10.712
▁Est	-10.7121
▁mech	-10.7124
▁Gold	-10.7127
ew	-10.7128
▁míře	-10.713
▁Sám	-10.7132
▁biolog	-10.7133
▁nehod	-10.7133
▁jediná	-10.7134
▁hráz	-10.7134
▁ukončen	-10.7135
▁Jugoslávie	-10.7137
▁trolejbus	-10.7137
▁1903	-10.7137
▁64	-10.7139
▁letadel	-10.714
▁vyvolal	-10.714
▁hudebník	-10.7141
▁Kir	-10.7142
▁nízké	-10.7142
▁Rom	-10.7142
▁obřad	-10.7144
▁ocas	-10.7149
▁hol	-10.7151
▁Gol	-10.7151
▁Prus	-10.7153
▁zemské	-10.7153
▁vlastních	-10.7155
▁přístroj	-10.7157
▁Švéd	-10.7158
Car	-10.7159
▁otevření	-10.7159
▁podporuje	-10.7163
▁Kam	-10.7164
▁vést	-10.7166
▁užívání	-10.7169
▁Květy	-10.7172
▁celek	-10.7174
▁cyklist	-10.7175
▁Edward	-10.7175
ifikace	-10.7178
nést	-10.7179
▁modern	-10.718
▁začleněn	-10.7183
▁provincií	-10.7183
▁samice	-10.7186
rského	-10.7188
tiku	-10.7189
onym	-10.7189
▁stříbrnou	-10.7191
▁rychlé	-10.7194
▁vnitra	-10.7195
▁Love	-10.7195
▁pru	-10.7195
▁nepodařilo	-10.7197
▁Bedřich	-10.7197
▁Byly	-10.7202
▁soutěží	-10.7203
л	-10.7205
▁zlato	-10.7206
▁lokalit	-10.7208
▁Die	-10.721
▁Green	-10.721
▁Mod	-10.7211
▁tě	-10.7212
ette	-10.7213
▁talent	-10.7213
krá	-10.7214
▁zimě	-10.7218
▁revoluční	-10.7219
▁místního	-10.7219
tera	-10.7219
▁Marc	-10.7223
▁sídla	-10.7225
▁centr	-10.7229
▁křesťan	-10.7229
▁švédské	-10.7233
▁1895	-10.7234
▁Hradci	-10.7234
▁trůnu	-10.7236
▁chr	-10.7236
▁nazýval	-10.7239
▁psaní	-10.724
uherské	-10.724
So	-10.7245
▁archeolog	-10.7246
▁hudbě	-10.7246
bral	-10.7246
▁ryt	-10.7247
▁nejlépe	-10.7249
▁Roger	-10.7253
▁vídeňské	-10.7255
▁Fri	-10.7255
▁opera	-10.7258
▁transport	-10.7258
▁mladých	-10.7262
▁1898	-10.7267
zdě	-10.7267
▁Ana	-10.7267
▁slep	-10.7267
ister	-10.7267
hem	-10.7268
▁Juli	-10.727
▁bas	-10.7272
▁part	-10.7272
▁Lé	-10.7273
▁církvi	-10.7274
síla	-10.7275
ambi	-10.7275
ów	-10.7276
▁podoby	-10.7277
▁studijní	-10.7279
▁dráha	-10.728
▁Marii	-10.7281
▁komunálních	-10.7282
▁trval	-10.7282
▁komory	-10.7285
ety	-10.7288
▁viděl	-10.7288
▁brzd	-10.729
▁vyhledá	-10.729
▁Williams	-10.729
náš	-10.7291
▁dějiny	-10.7292
▁1870	-10.7293
▁hromad	-10.7293
polit	-10.7295
▁vybral	-10.7295
elli	-10.7301
▁projevil	-10.7301
▁světových	-10.7303
▁dítěte	-10.7303
ánského	-10.7304
▁She	-10.7307
cka	-10.7309
bíl	-10.731
střed	-10.731
▁demokratické	-10.7311
▁Šlo	-10.7311
lak	-10.7312
psané	-10.7313
▁knížectví	-10.7313
▁ačkoliv	-10.7313
▁limit	-10.7315
služ	-10.7316
▁aktuální	-10.7318
ivost	-10.7319
▁Vídně	-10.7321
▁psa	-10.7322
▁připadl	-10.7323
▁reklam	-10.7324
▁doslova	-10.7327
bán	-10.7327
▁klas	-10.7328
▁veřejných	-10.733
▁postoj	-10.7331
▁Či	-10.7332
▁šéf	-10.7333
▁příslušník	-10.7336
▁komunist	-10.7337
▁řadou	-10.7337
▁bronzovou	-10.7337
lf	-10.7339
anti	-10.734
Dr	-10.7341
nického	-10.7342
▁podmínkách	-10.7343
▁vádí	-10.7344
▁římských	-10.7344
▁matematik	-10.7345
kázán	-10.7346
žky	-10.7347
▁provádí	-10.7349
ET	-10.7349
▁typické	-10.7349
plul	-10.735
▁had	-10.7353
▁(21	-10.7354
komp	-10.7355
▁režiséra	-10.7355
▁Profes	-10.7355
ovacích	-10.7357
▁hřiště	-10.7357
▁Gustav	-10.7357
ios	-10.7357
tříd	-10.7357
▁každá	-10.736
▁Francis	-10.7362
táče	-10.7362
šice	-10.7365
▁zmíněn	-10.7366
▁pevnosti	-10.7366
▁rozsahu	-10.7368
▁lék	-10.7368
▁dočkal	-10.7369
ovému	-10.7371
▁stali	-10.7371
▁zpravodaj	-10.7372
tonu	-10.7373
▁vynikající	-10.7374
kazuje	-10.7374
alt	-10.7377
▁sloužila	-10.7381
▁dvanácti	-10.7382
▁sezony	-10.7384
▁zvíře	-10.7388
▁koncertní	-10.739
hlásil	-10.739
▁Reg	-10.739
▁zpěvačka	-10.7391
jed	-10.7395
ifer	-10.7396
▁bezpečnosti	-10.7397
podle	-10.7398
▁určen	-10.7398
boč	-10.7404
▁ukazuje	-10.7405
▁zaznamenán	-10.7406
▁reliéf	-10.7408
vlast	-10.7408
▁motorů	-10.7409
▁1891	-10.7411
letou	-10.7412
pál	-10.7413
▁hodně	-10.7415
▁Španělsku	-10.7415
▁Zimní	-10.7416
▁článku	-10.7419
▁jádro	-10.7421
▁utkáních	-10.7424
▁Třebíč	-10.7425
▁severozápadně	-10.7425
▁tamní	-10.7427
leč	-10.7427
▁východo	-10.7431
▁Tim	-10.7433
stě	-10.7433
▁stála	-10.7437
▁škod	-10.744
lých	-10.7441
▁zaměstnanců	-10.7441
alismu	-10.7443
rand	-10.7444
▁prostory	-10.7444
▁pozitivní	-10.7444
▁reálné	-10.7445
▁důvod	-10.7445
▁Ostr	-10.7445
▁Sil	-10.7446
▁velkém	-10.7446
▁článek	-10.7447
▁Císař	-10.7447
▁plemen	-10.7447
▁klavír	-10.7448
▁historicky	-10.7456
▁Mars	-10.7457
ington	-10.7459
▁plocha	-10.7461
▁křiž	-10.7462
▁dynam	-10.7463
▁socialist	-10.7463
▁napojen	-10.7463
▁Jordán	-10.7464
rium	-10.7465
pur	-10.7467
▁typický	-10.7467
▁Madrid	-10.7467
▁tvář	-10.7469
▁sociálně	-10.7469
▁Cest	-10.747
▁trasa	-10.7473
▁věc	-10.7475
▁matkou	-10.7477
▁městský	-10.7479
▁mise	-10.7479
rač	-10.7479
dávat	-10.748
▁North	-10.7487
vést	-10.7487
bon	-10.7489
gli	-10.749
▁Mur	-10.7493
▁dřevěné	-10.7495
▁Vít	-10.7496
▁čp	-10.7497
▁pravidelné	-10.7498
▁starých	-10.7498
▁tábora	-10.7499
mini	-10.75
▁Christ	-10.7501
▁zabil	-10.7502
TA	-10.7503
▁Plzni	-10.7504
▁osobnost	-10.7505
▁moment	-10.7505
▁týdnů	-10.7506
▁pil	-10.7508
▁stupni	-10.7509
▁Son	-10.7512
▁konečné	-10.7516
▁zřízena	-10.7519
▁básní	-10.752
▁stránky	-10.7521
▁počest	-10.7523
istických	-10.7524
▁nikoliv	-10.7525
▁plynu	-10.7525
úz	-10.7526
anské	-10.7526
▁následoval	-10.7527
▁zjev	-10.7527
▁Para	-10.7528
gol	-10.7529
II	-10.753
pole	-10.7532
izující	-10.7532
▁poprav	-10.7532
▁Poslanecké	-10.7533
▁odboč	-10.7535
▁státního	-10.7539
▁technologií	-10.754
daných	-10.754
▁počasí	-10.7541
▁grafik	-10.7542
▁Avšak	-10.7543
▁zjistí	-10.7543
oda	-10.7546
▁Blue	-10.7548
▁trofej	-10.7549
tinu	-10.7549
▁Londýn	-10.7549
ctor	-10.7551
▁Zákon	-10.7553
▁biskupa	-10.7553
▁výsledků	-10.7554
▁podklad	-10.7556
▁Hod	-10.7558
▁generála	-10.7559
▁rock	-10.7565
▁Vin	-10.7566
▁vzájemné	-10.7567
▁Prů	-10.7567
▁1867	-10.7569
▁snah	-10.757
ůj	-10.7571
▁Sin	-10.7572
▁zdá	-10.7572
▁Jičín	-10.7574
▁filmový	-10.7578
nika	-10.758
▁stane	-10.758
▁arabské	-10.7584
▁vstupní	-10.7585
▁(25	-10.7589
▁češtině	-10.7592
-6	-10.7594
▁šk	-10.7597
hoř	-10.7598
týkal	-10.7598
▁udělal	-10.7598
▁1885	-10.7598
▁pták	-10.7599
▁arch	-10.76
100	-10.7601
3/	-10.7601
▁výstavbu	-10.7601
▁měsících	-10.7602
pot	-10.7605
▁fond	-10.7611
▁49	-10.7611
▁kůr	-10.7612
▁pomník	-10.7615
▁objeví	-10.7615
▁Svaté	-10.7618
eth	-10.7619
▁všechna	-10.762
líbil	-10.7622
Počátkem	-10.7623
▁hudba	-10.7623
▁pokles	-10.7624
▁trase	-10.7624
▁veden	-10.7626
▁celkový	-10.7627
▁komunistické	-10.7631
▁zveřejněn	-10.7632
kají	-10.7634
▁článků	-10.7635
▁hmyz	-10.7635
▁ben	-10.7635
▁využívají	-10.7636
inen	-10.7638
▁plaz	-10.7641
oli	-10.7641
▁Plod	-10.7642
ull	-10.7647
▁předmět	-10.7648
▁sestry	-10.765
▁sled	-10.7651
▁§	-10.7651
Qu	-10.7652
▁ihned	-10.7652
▁Anny	-10.7652
ish	-10.7652
▁posil	-10.7653
▁koní	-10.7656
lekt	-10.7657
▁znamenalo	-10.7657
pravován	-10.7661
▁grandslam	-10.7663
▁konfliktu	-10.7667
▁větví	-10.7667
▁Royal	-10.7667
▁raně	-10.7668
▁Gabriel	-10.7669
tsch	-10.7671
▁pověst	-10.7672
▁Korej	-10.7674
bír	-10.7674
▁známých	-10.7677
▁aj	-10.7678
dh	-10.7678
▁pomalu	-10.7679
bie	-10.768
rání	-10.768
▁slad	-10.768
▁pravděpodobnost	-10.768
▁Komunistické	-10.7681
▁prodloužení	-10.7682
▁střet	-10.7682
▁hojně	-10.7684
▁princ	-10.7684
▁samot	-10.7685
▁autorit	-10.7685
ose	-10.7686
▁výcvik	-10.7689
▁Cílem	-10.7689
▁Turk	-10.7689
▁normální	-10.7695
▁kartu	-10.7696
▁odboj	-10.7697
▁leg	-10.7698
He	-10.7701
▁nesmí	-10.7704
▁zvýšen	-10.7706
▁proběhlo	-10.7707
gra	-10.771
▁operní	-10.7711
▁vznikají	-10.7715
▁1873	-10.7716
▁rockové	-10.7717
▁zrušena	-10.7718
▁středověké	-10.7718
vah	-10.7719
▁podoba	-10.7722
▁socialistické	-10.7722
▁1899	-10.7724
3,	-10.773
▁politice	-10.7731
▁nesou	-10.7732
▁vhodný	-10.7733
rna	-10.7733
žád	-10.7734
álního	-10.7735
▁individuální	-10.7738
▁obchody	-10.7739
▁využit	-10.7742
▁výstavba	-10.7742
▁Sovětský	-10.7744
▁oceněn	-10.7745
mén	-10.7747
▁nomin	-10.7748
▁příkop	-10.775
nském	-10.7752
▁Mary	-10.7753
▁provdala	-10.7756
▁Koz	-10.7756
▁Dle	-10.776
▁srovnání	-10.7762
▁bohaté	-10.7763
▁tvrzení	-10.7763
tlačen	-10.7766
oph	-10.7766
▁Mí	-10.7767
ved	-10.7767
▁bílá	-10.7768
▁koná	-10.7768
▁otvor	-10.7768
štění	-10.7769
▁záhy	-10.777
červen	-10.7771
▁konalo	-10.7773
▁Led	-10.7774
cházející	-10.7775
▁Rou	-10.7777
álním	-10.7777
▁čtenář	-10.7779
▁těmito	-10.7779
tři	-10.7785
nz	-10.7787
▁bohatý	-10.7789
▁zón	-10.779
ė	-10.7791
rovnat	-10.7794
▁Dvořák	-10.7796
▁Jir	-10.7798
▁vzdělávací	-10.7799
ibor	-10.7799
▁nejmenší	-10.7802
etu	-10.7805
▁psycho	-10.7805
teč	-10.7806
▁autonomní	-10.7808
ody	-10.7809
▁papeže	-10.7809
▁Harry	-10.7809
▁kan	-10.7809
▁Kara	-10.7809
▁účinnost	-10.7814
wald	-10.7816
přes	-10.7817
▁mluví	-10.7818
▁rakousko	-10.7819
▁Benešov	-10.782
▁třikrát	-10.7824
▁Microsoft	-10.7826
▁kvalifikace	-10.7826
▁píše	-10.7827
▁objevily	-10.7828
▁moz	-10.7828
cur	-10.783
▁ministerstva	-10.7831
ovanými	-10.7832
hud	-10.7832
▁panel	-10.7835
zek	-10.7837
▁kolej	-10.7837
▁náčelník	-10.7837
▁znamenat	-10.7837
▁dokáže	-10.7837
idi	-10.7837
▁Hum	-10.7838
▁Smr	-10.7839
▁námět	-10.784
▁ženatý	-10.7849
enec	-10.7849
▁Glo	-10.785
▁určené	-10.7852
▁následn	-10.7853
dne	-10.7853
ánu	-10.7859
▁generální	-10.7861
▁opustit	-10.7866
▁nedaleké	-10.7867
plet	-10.7867
▁středisko	-10.787
▁přenesen	-10.787
▁řidič	-10.7872
ačních	-10.7873
▁pochod	-10.7873
IT	-10.7877
▁rezignoval	-10.7881
▁domácím	-10.7886
shire	-10.7887
▁Pražské	-10.7887
FC	-10.7889
enční	-10.7889
▁Prav	-10.7891
▁působ	-10.7892
▁pokoušel	-10.7893
▁zdrojem	-10.7897
▁utrpěl	-10.7899
▁rozvoji	-10.7904
▁narodila	-10.7905
▁vzniklé	-10.7906
ňov	-10.7906
▁pivovar	-10.7907
▁patri	-10.791
řic	-10.7914
tru	-10.7914
▁Angel	-10.7914
AC	-10.7916
▁kosmonaut	-10.7917
▁Hvězd	-10.7917
▁metru	-10.7917
▁stranou	-10.7917
okres	-10.7917
▁skok	-10.7919
ologii	-10.7919
▁Otakar	-10.792
izací	-10.7921
▁stupeň	-10.7923
▁bratři	-10.7926
▁novém	-10.7926
▁zlatých	-10.793
▁politického	-10.7931
“).	-10.7932
áty	-10.7933
▁pohlavní	-10.7933
):	-10.7934
▁výstavby	-10.7936
▁historický	-10.7936
cová	-10.7937
▁městu	-10.7938
▁dosažení	-10.7938
▁Korun	-10.7939
▁rodů	-10.7939
▁prosadil	-10.794
šim	-10.794
▁částech	-10.7942
▁automat	-10.7946
▁háj	-10.7946
▁pacient	-10.7946
▁Ježíš	-10.7948
▁polní	-10.7949
▁změnu	-10.795
psaný	-10.795
▁větších	-10.7953
▁dinosaur	-10.7954
átek	-10.7957
▁vojenský	-10.7957
▁zobrazení	-10.7958
▁vykonával	-10.7961
▁vyjádřil	-10.7967
▁městských	-10.7971
▁postižen	-10.7972
▁drog	-10.7972
▁bubeník	-10.7973
▁sloužit	-10.7973
▁mýt	-10.7974
▁trojúhelník	-10.7976
mond	-10.7979
▁závodů	-10.7979
▁ČSSR	-10.7982
▁patřící	-10.7982
▁Portugal	-10.7984
▁dětské	-10.7985
▁přítomnost	-10.7988
avské	-10.7989
bb	-10.799
▁délku	-10.7991
ót	-10.7992
▁přežil	-10.7993
▁fotografií	-10.7995
padal	-10.7996
lky	-10.7997
transform	-10.7999
▁koně	-10.8001
▁ohledu	-10.8004
▁rozpadu	-10.8005
és	-10.8005
▁okolních	-10.8007
▁uznání	-10.8008
anth	-10.8009
laci	-10.8009
kázat	-10.8009
hna	-10.8009
▁fungoval	-10.8012
▁turistické	-10.8013
▁zdoben	-10.8013
dané	-10.8015
▁stávající	-10.8016
ckých	-10.8021
▁německou	-10.8023
now	-10.8024
▁Němců	-10.8026
▁rodinou	-10.8026
▁letních	-10.8027
had	-10.803
út	-10.803
▁obnovení	-10.8033
▁žluté	-10.8033
kového	-10.8034
▁(26	-10.8034
jedno	-10.8035
▁dostatečně	-10.8038
▁Cre	-10.804
▁dobyt	-10.804
▁půdě	-10.8042
▁Kro	-10.8043
anov	-10.8045
▁ústavní	-10.8047
noc	-10.8048
andr	-10.8048
▁obyvatele	-10.8048
▁říční	-10.8049
▁demo	-10.8049
▁činností	-10.8051
šit	-10.8052
▁nacházel	-10.8052
▁Vyloučení	-10.8053
▁žádnou	-10.8053
▁Anti	-10.8054
▁rané	-10.8054
hodné	-10.8055
▁Pop	-10.8056
▁kompletní	-10.8056
▁zařadil	-10.8057
▁jasné	-10.8057
▁Mart	-10.8058
▁proč	-10.8058
▁barvu	-10.806
▁Španělska	-10.8062
▁níže	-10.8064
▁prošel	-10.8064
▁osvobození	-10.8066
ony	-10.8066
▁nacházela	-10.8068
valit	-10.8069
Or	-10.8069
▁zničil	-10.807
lub	-10.8071
▁nijak	-10.8072
▁Postupně	-10.8073
▁vlivu	-10.8075
luk	-10.8076
▁témže	-10.8077
▁Div	-10.8078
▁porod	-10.8078
▁pařížské	-10.808
▁předměty	-10.8081
věk	-10.8082
▁úrovně	-10.8083
▁povolen	-10.8083
▁mel	-10.8085
▁Bernard	-10.8085
▁exp	-10.8088
▁čínský	-10.809
ářů	-10.8091
▁lat	-10.8095
bour	-10.8095
▁přesun	-10.8096
▁případů	-10.8097
▁vládce	-10.8098
▁Ple	-10.81
čce	-10.8103
▁obklopen	-10.8104
▁struktury	-10.8107
▁radio	-10.8107
▁Černo	-10.8108
▁vyhlášení	-10.8109
▁56	-10.811
▁podpory	-10.8111
áň	-10.8111
▁severozápadní	-10.8114
▁oblíben	-10.8114
▁popraven	-10.8117
Sc	-10.8118
▁paliv	-10.8121
ovitě	-10.8122
anský	-10.8122
▁minimální	-10.8122
ló	-10.8122
▁Sever	-10.8123
No	-10.8123
važoval	-10.8125
▁obchodník	-10.8126
motor	-10.8126
▁modré	-10.8127
čoval	-10.8128
▁přidělen	-10.8128
▁Sun	-10.8128
▁́	-10.8131
▁nízký	-10.8132
▁německém	-10.8134
▁myšlen	-10.8135
žné	-10.8136
▁římskokatolický	-10.814
▁praktik	-10.814
▁povolání	-10.8142
▁osoba	-10.8144
▁výkonem	-10.8144
▁formát	-10.8145
▁57	-10.8145
▁2014.	-10.8146
▁špatné	-10.8147
▁nástrojů	-10.8147
maj	-10.8147
▁stadion	-10.8147
ňován	-10.8148
▁motorem	-10.8149
hnout	-10.815
▁vojáky	-10.815
hání	-10.815
▁používané	-10.8155
▁pomáhal	-10.8155
▁církví	-10.8155
▁názory	-10.8157
etické	-10.8158
▁Vod	-10.8158
▁Vrch	-10.816
stěn	-10.8162
něné	-10.8163
▁Tábor	-10.8165
▁železnice	-10.8165
▁moč	-10.8167
▁konference	-10.8168
▁požadavky	-10.8168
ped	-10.817
sovět	-10.817
stud	-10.8171
pracoval	-10.8173
▁zahrnoval	-10.8174
▁Šum	-10.8178
▁určitý	-10.8178
dri	-10.8179
▁politickou	-10.818
▁otcov	-10.8181
▁Staro	-10.8181
▁zákonem	-10.8183
▁Šv	-10.8185
▁časem	-10.8189
▁stáří	-10.8189
▁pískov	-10.8189
▁(27	-10.819
▁jihozápadní	-10.8191
jíždí	-10.8192
▁nejbližší	-10.8192
▁vymezen	-10.8198
▁předchůdce	-10.8198
▁magnet	-10.82
oma	-10.82
▁miliard	-10.8202
medi	-10.8203
▁materiálů	-10.8204
▁utkal	-10.8204
▁stín	-10.8205
▁krve	-10.8205
▁noc	-10.8206
▁rukopis	-10.8207
▁anglickém	-10.8207
▁Host	-10.8209
▁dobách	-10.8211
▁soustav	-10.8211
▁městská	-10.8212
▁Sab	-10.8213
▁Á	-10.8213
▁oltáře	-10.8214
▁reakci	-10.8215
▁Šp	-10.8216
▁ruského	-10.8218
rychlo	-10.8219
tová	-10.8221
▁povolení	-10.8221
čerpá	-10.8222
▁dohromady	-10.8222
▁médií	-10.8222
ito	-10.8222
lum	-10.8225
▁financí	-10.8225
▁zaměření	-10.8226
lost	-10.8227
▁Pel	-10.8228
▁top	-10.8229
▁Velmi	-10.823
▁Alex	-10.8232
▁redaktor	-10.8232
sob	-10.8234
▁cyklu	-10.8234
▁nýbrž	-10.8234
▁Philip	-10.8234
věřil	-10.8236
▁těžko	-10.8236
▁milost	-10.8237
▁uvězněn	-10.8237
idu	-10.8239
▁Vývoj	-10.8241
▁Českou	-10.8241
vykl	-10.8242
far	-10.8243
hodnot	-10.8243
ago	-10.8244
▁působila	-10.8245
▁samostatně	-10.825
▁Otto	-10.825
▁daň	-10.825
OR	-10.8251
enta	-10.8252
cke	-10.8252
▁skladatele	-10.8252
hran	-10.8253
▁Kanadě	-10.8253
dříve	-10.8254
▁nádrže	-10.8258
skij	-10.8269
▁Listy	-10.827
▁pouhých	-10.827
▁Hlav	-10.827
▁pracovala	-10.8271
▁54	-10.8272
bili	-10.8272
eus	-10.8274
▁vlasti	-10.8275
▁kytarista	-10.8276
/2)	-10.8277
▁dvaceti	-10.8277
čnost	-10.8279
▁pořád	-10.8279
▁mužské	-10.8281
vic	-10.8282
▁vstupu	-10.8283
▁Maj	-10.8287
▁nástupce	-10.829
▁tisíce	-10.829
▁natolik	-10.829
▁Ya	-10.8291
óza	-10.8292
▁gólů	-10.8295
běhl	-10.8296
tvor	-10.8298
▁poslanců	-10.8299
pid	-10.8299
rach	-10.8301
▁následujícího	-10.8301
▁brigád	-10.8302
▁kamarád	-10.8305
▁určený	-10.8305
▁řídil	-10.8305
▁Cra	-10.8306
álka	-10.8308
▁kov	-10.831
▁rekonstrukci	-10.8311
▁úmrtí	-10.8311
▁(24	-10.8315
▁záležitosti	-10.8318
▁Ok	-10.832
▁jedenáct	-10.8321
ń	-10.8323
▁Brad	-10.8323
vědomí	-10.8325
řídit	-10.8326
▁hlavu	-10.8326
▁Ap	-10.8329
▁rozdělena	-10.8329
počet	-10.8332
▁zastavil	-10.8333
uri	-10.8333
▁stavbou	-10.8337
▁aktivně	-10.8337
▁výstavy	-10.8338
▁výstavbě	-10.8341
▁obrazů	-10.8341
klon	-10.8343
-10	-10.8343
▁Svůj	-10.8348
▁pásu	-10.835
volil	-10.8352
▁souladu	-10.8354
▁dělení	-10.8357
▁proslavil	-10.8357
▁způsobu	-10.8361
30)	-10.8363
▁Eu	-10.8363
mod	-10.8365
▁rozkaz	-10.8366
▁Trans	-10.8366
▁torpéd	-10.8366
▁listu	-10.8367
▁denně	-10.8368
▁Slovo	-10.8372
▁(28	-10.8374
▁nazvané	-10.8376
saur	-10.8376
▁nádrž	-10.8376
hrád	-10.8377
but	-10.8377
ske	-10.8377
ativ	-10.8378
▁Celková	-10.8378
▁komunikaci	-10.8379
ební	-10.838
▁zachován	-10.8381
▁týkající	-10.8382
än	-10.8383
▁pozadí	-10.8385
▁nařízení	-10.8386
kům	-10.8386
▁přichází	-10.8389
▁Správ	-10.839
▁Moskva	-10.8391
▁Vznik	-10.8392
▁posledního	-10.8393
▁dokud	-10.8393
čat	-10.8394
▁evangeli	-10.8396
▁Andr	-10.8397
▁definován	-10.8397
▁Kříž	-10.8397
▁vlastnost	-10.84
▁pobýval	-10.84
▁fasád	-10.8403
▁Samo	-10.8405
▁geolog	-10.8405
▁víc	-10.8405
▁končetin	-10.8406
▁odpovídající	-10.8407
▁družstev	-10.8407
▁bronz	-10.8407
▁obrazu	-10.8408
▁oceán	-10.8409
▁Rok	-10.8412
▁Konstantin	-10.8412
pek	-10.8413
EN	-10.8414
pie	-10.8414
ckou	-10.8414
▁letectva	-10.8419
tíž	-10.8419
▁vlaky	-10.842
▁čtyřmi	-10.842
▁Existují	-10.8422
–6	-10.8423
anční	-10.8423
čísl	-10.8424
▁ČS	-10.8424
idlo	-10.8424
vané	-10.8426
snad	-10.8428
▁politiku	-10.8434
▁členkou	-10.8436
▁národních	-10.8437
▁Místní	-10.8437
křídl	-10.8438
ářství	-10.8438
▁Henri	-10.844
▁dirigent	-10.8441
áza	-10.8441
čních	-10.8442
▁Budějovice	-10.8445
▁kamenné	-10.8446
▁Bílé	-10.8447
▁skladba	-10.8451
▁hokejový	-10.8454
tik	-10.8456
▁blízký	-10.8459
gur	-10.846
cími	-10.8461
▁samé	-10.8463
▁EP	-10.8464
tos	-10.8466
zim	-10.8466
▁Antonína	-10.8467
louč	-10.8468
▁konzervativní	-10.8469
álu	-10.8469
▁dosahoval	-10.847
itá	-10.847
▁velení	-10.8471
ometr	-10.8472
▁vyučoval	-10.8472
▁udržel	-10.8476
atý	-10.8477
▁obsahu	-10.8478
▁trestu	-10.8484
hnut	-10.8484
▁Bělorus	-10.8485
▁Cup	-10.8485
▁hokej	-10.8485
▁scény	-10.8485
▁pojmenována	-10.8488
▁politický	-10.8489
▁slavnost	-10.8491
RS	-10.8493
▁hlás	-10.8493
▁Stud	-10.8495
hydr	-10.8496
▁apoštol	-10.8497
▁institucí	-10.8497
čte	-10.8498
▁53	-10.8499
▁střev	-10.85
▁čemuž	-10.85
▁patent	-10.8502
▁Janem	-10.8503
▁laboratoř	-10.8503
▁přehrad	-10.8503
▁Kniha	-10.8505
▁nedošlo	-10.8508
katol	-10.8509
▁jednat	-10.8511
▁kapacitou	-10.8512
▁sovětský	-10.8514
▁evropský	-10.8519
▁verš	-10.8522
▁velitele	-10.8523
▁odvod	-10.8524
▁předmětem	-10.8524
lich	-10.8524
▁oficiálním	-10.8526
znává	-10.8528
▁110	-10.8528
▁inf	-10.8534
tte	-10.8536
pína	-10.8536
ady	-10.8538
▁boha	-10.8539
▁UEFA	-10.854
▁důležitou	-10.854
▁šíření	-10.8542
ávat	-10.8543
▁Pic	-10.8543
▁guvernér	-10.8544
▁rozhled	-10.8545
kovým	-10.8546
▁prim	-10.8546
▁Jedna	-10.8546
▁nímž	-10.8548
!"	-10.8552
vers	-10.8553
▁stará	-10.8554
▁znal	-10.8555
▁zvýšil	-10.8556
▁tlaku	-10.8556
gam	-10.8557
▁dostali	-10.8558
cus	-10.8561
▁veřejného	-10.8562
▁pamětní	-10.8563
▁všemi	-10.8565
aux	-10.8565
▁zajistit	-10.8566
▁fakult	-10.8566
▁uzavření	-10.8569
▁1861	-10.8569
▁jinou	-10.8572
▁křídlo	-10.8576
▁Scott	-10.8577
IN	-10.8579
▁pražském	-10.858
ovaném	-10.858
nesen	-10.8586
▁kmeny	-10.8587
▁armádu	-10.8588
▁moravský	-10.8588
▁Fre	-10.8591
▁Alexandra	-10.8591
▁trav	-10.8591
▁nabídl	-10.8592
▁vrstvy	-10.8594
▁obsažen	-10.8597
▁robot	-10.8598
▁podřízen	-10.8599
hir	-10.8599
▁původem	-10.86
▁Petrohrad	-10.86
▁Příbram	-10.8601
▁anebo	-10.8607
ňské	-10.8608
▁sklon	-10.861
čkem	-10.861
venkov	-10.861
▁kolonie	-10.8617
▁univerzita	-10.8617
pre	-10.8618
▁snímku	-10.862
▁výprav	-10.8622
▁Ross	-10.8623
▁novel	-10.8624
är	-10.8625
istická	-10.8626
▁vedou	-10.8626
▁pravém	-10.8628
Te	-10.8628
kne	-10.8631
▁Ču	-10.8631
▁Christian	-10.8634
-15	-10.8634
▁kamenný	-10.8635
▁dobyl	-10.8635
ST	-10.8635
▁rizik	-10.8637
▁House	-10.8637
▁anglicky	-10.8637
▁sezónu	-10.8637
▁žili	-10.8638
▁rozhodne	-10.8638
awa	-10.864
▁hospod	-10.864
kování	-10.864
▁pit	-10.8641
izované	-10.8641
ico	-10.8642
tova	-10.8645
▁Indii	-10.8646
oper	-10.8647
▁Sim	-10.8648
▁nákup	-10.8649
▁zbývající	-10.8649
▁žluto	-10.866
▁chyt	-10.8661
▁charakteru	-10.8662
▁Autor	-10.8664
▁otázky	-10.8664
lant	-10.8664
▁spojující	-10.8664
▁stojící	-10.8664
▁připravil	-10.8665
▁Ren	-10.867
▁Existuje	-10.867
▁Alexander	-10.867
řád	-10.867
hodnou	-10.8672
▁hvězda	-10.8672
▁High	-10.8673
▁jedinců	-10.8673
öl	-10.8675
jov	-10.8676
▁barva	-10.8677
ováni	-10.8678
drob	-10.8678
▁Ačkoli	-10.8678
▁soli	-10.8679
▁Krista	-10.8679
▁pojmenování	-10.868
▁debut	-10.868
▁kin	-10.8681
ces	-10.8683
▁sloužící	-10.8686
▁obsazení	-10.8687
říš	-10.8687
▁dostává	-10.8688
▁potenciál	-10.8689
▁rozdělil	-10.869
▁angl	-10.8691
▁císařem	-10.8694
▁třídě	-10.8696
▁Kru	-10.8697
▁Fer	-10.8701
tav	-10.8706
▁principu	-10.8708
▁vypadl	-10.8709
▁DNA	-10.8712
▁lesů	-10.8713
▁kněží	-10.8717
čné	-10.8718
▁fakultu	-10.8718
álie	-10.8719
▁lesích	-10.872
▁Texas	-10.8722
▁jakým	-10.8722
inem	-10.8723
Zá	-10.8724
hýb	-10.8725
▁Sig	-10.8728
▁1871	-10.8729
trval	-10.873
▁vytvořila	-10.8733
NS	-10.8734
růstající	-10.8734
▁Severo	-10.8736
volební	-10.8739
▁−	-10.8739
▁spočívá	-10.874
▁Novák	-10.8741
nen	-10.8741
▁slavnostní	-10.8742
▁Joe	-10.8742
▁jeskyně	-10.8742
sedl	-10.8743
trakt	-10.8743
▁Zúčastnil	-10.8744
▁pokračovala	-10.8744
▁1889	-10.8744
▁Pen	-10.8747
▁tvořena	-10.8748
kre	-10.8748
▁postavený	-10.8749
▁podání	-10.875
▁výpravy	-10.8755
▁znaků	-10.8757
▁ráz	-10.8758
▁vyjádření	-10.8759
▁Egypt	-10.8759
▁Vladislav	-10.876
▁Černý	-10.8761
▁konaly	-10.8762
▁textů	-10.8765
▁státem	-10.8767
▁58	-10.8768
burgu	-10.877
▁úmysl	-10.8772
▁smlouva	-10.8772
▁svoje	-10.8773
▁premiéra	-10.8773
▁světový	-10.8776
▁izo	-10.8776
▁samozřejmě	-10.8782
▁Ostravě	-10.8785
▁vytvářejí	-10.8785
▁Bohuslav	-10.8786
▁pluku	-10.8786
▁ztracen	-10.8786
▁paměť	-10.8788
▁Havl	-10.8789
▁nemocnici	-10.879
▁obe	-10.8793
▁jazykem	-10.8794
▁nedostatek	-10.8795
▁těle	-10.8796
▁zvířata	-10.8796
▁Řek	-10.8797
▁dohody	-10.8797
inské	-10.8797
řízen	-10.8798
Ukrajin	-10.8798
▁plno	-10.8799
▁malo	-10.8801
▁pražský	-10.8801
žár	-10.8802
▁Ron	-10.8803
▁náprav	-10.8804
ňovat	-10.8804
▁úpatí	-10.8805
ive	-10.8809
▁Boj	-10.881
▁známým	-10.8811
ure	-10.8811
líb	-10.8813
▁Brun	-10.8813
▁úkolem	-10.8813
čný	-10.8814
gram	-10.8815
▁starého	-10.8815
▁pracovník	-10.882
▁1869	-10.8821
ála	-10.8823
▁zmiňován	-10.8824
▁Čechy	-10.8827
▁vyznání	-10.8828
▁monarchie	-10.8834
▁herce	-10.8835
▁usedl	-10.8837
▁ať	-10.884
ott	-10.8841
▁nejúspěšnější	-10.8843
▁desítek	-10.8843
Ru	-10.8846
▁Získal	-10.8847
▁živočichů	-10.8849
▁zániku	-10.8851
▁Leon	-10.8852
▁Form	-10.8853
▁zachování	-10.8853
▁muzeu	-10.8858
▁stanicí	-10.8859
▁produkci	-10.886
sdorf	-10.886
▁Hen	-10.8862
ús	-10.8863
▁nestačil	-10.8866
▁jmenuje	-10.8866
▁Ústav	-10.8868
▁poměru	-10.8869
▁výrazné	-10.887
▁Maďar	-10.887
▁tvořily	-10.887
▁prodloužen	-10.8871
▁značka	-10.8872
▁sbírka	-10.8873
▁hudebního	-10.8876
▁denní	-10.8878
▁gener	-10.8882
▁postupu	-10.8882
klas	-10.8882
▁smí	-10.8883
▁přírodních	-10.8883
▁2010.	-10.8884
ince	-10.8886
▁hráčem	-10.8888
▁manipul	-10.8889
poč	-10.8889
▁styk	-10.889
▁pilíř	-10.8891
pochyb	-10.8891
▁Pala	-10.8892
▁Koš	-10.8894
elnou	-10.8896
▁nádob	-10.8896
opol	-10.8898
owski	-10.8899
▁zdolal	-10.8899
▁Pocházel	-10.89
ložení	-10.89
ô	-10.89
▁prohlášen	-10.8902
ičkou	-10.8903
▁jiná	-10.8903
▁chybí	-10.8905
▁uvedené	-10.8906
krom	-10.8907
▁tras	-10.8907
▁prach	-10.8908
–15	-10.8909
▁použita	-10.8909
▁školách	-10.891
▁změna	-10.8912
▁(23	-10.8912
▁zastoupení	-10.8914
▁vedoucím	-10.8916
bas	-10.8918
▁1879	-10.8919
važuje	-10.892
PA	-10.8922
▁titulů	-10.8924
▁každou	-10.8925
▁popul	-10.8926
▁Balt	-10.8926
▁Hun	-10.8928
▁1893	-10.8929
plně	-10.893
▁samostatnou	-10.8931
▁podpořil	-10.8931
▁voják	-10.8931
▁královny	-10.8933
US	-10.8933
ough	-10.8933
▁(29	-10.8937
jdou	-10.8938
▁dojít	-10.8939
▁Druh	-10.8939
▁způsoby	-10.894
▁padesát	-10.8941
▁ruce	-10.8943
▁služba	-10.8944
▁tramvaj	-10.8945
▁bezpečnost	-10.8947
wood	-10.8948
▁ČSR	-10.8948
▁sol	-10.8949
▁usedlost	-10.8949
lement	-10.8949
jímá	-10.8951
▁nezávislé	-10.8951
ED	-10.8951
kladatel	-10.8952
bere	-10.8953
▁ulicí	-10.8955
▁(1.	-10.8956
▁vypukl	-10.8958
▁postu	-10.8958
▁Brzy	-10.896
▁Has	-10.8964
▁klášteře	-10.897
▁švédský	-10.897
▁1880	-10.8971
▁způsobuje	-10.8971
▁úspěchem	-10.8976
▁olej	-10.8977
▁rozhodující	-10.8977
▁násilí	-10.8977
▁maďarské	-10.8978
▁katastrof	-10.898
▁články	-10.8983
▁pevné	-10.8983
Za	-10.8984
▁zákony	-10.8985
▁And	-10.8988
▁Vratislav	-10.8988
▁Mistr	-10.899
▁Sen	-10.8991
▁zbořen	-10.8992
eckých	-10.8993
▁Mezitím	-10.8994
▁Šar	-10.8995
▁krátký	-10.8996
▁Jeruzalém	-10.8996
▁šedesátých	-10.8997
▁jezdec	-10.8998
▁historického	-10.9
▁zkoušky	-10.9
▁kapitol	-10.9
▁los	-10.9001
▁adapt	-10.9002
▁severovýchodní	-10.9004
▁Mé	-10.9005
nců	-10.9005
▁Současně	-10.9006
▁gal	-10.9007
▁užívá	-10.9008
▁sílu	-10.9009
▁rostou	-10.901
reg	-10.9011
▁dosahují	-10.9013
▁beton	-10.9014
značen	-10.9014
▁zahrnují	-10.9015
ega	-10.9016
▁míč	-10.9017
▁Švýcarsku	-10.9017
ality	-10.9018
▁dost	-10.902
tváře	-10.902
eného	-10.9023
▁prsten	-10.9024
▁příč	-10.9024
▁tradičně	-10.9026
▁Celý	-10.9027
▁zůstalo	-10.9027
▁scénář	-10.9027
šťast	-10.9029
jedna	-10.9029
▁jezdí	-10.9029
▁přítomnosti	-10.903
▁motivy	-10.9031
inka	-10.9033
▁2012.	-10.9033
▁indián	-10.9034
▁Jon	-10.9036
ira	-10.9036
▁spolupracovník	-10.9039
▁orgány	-10.904
stol	-10.9045
▁prováděl	-10.9048
▁Svat	-10.9051
▁křiv	-10.9051
▁Vznikl	-10.9057
▁Jos	-10.9058
čina	-10.906
▁různo	-10.9062
Par	-10.9062
▁kanadské	-10.9063
rozum	-10.9063
▁histor	-10.9063
▁předchozích	-10.9065
lů	-10.9065
▁tehdejšího	-10.9066
▁Sara	-10.907
▁opatřen	-10.9071
eon	-10.9072
▁místnosti	-10.9072
anů	-10.9072
▁katolíků	-10.9072
▁změněn	-10.9072
▁Sport	-10.9074
▁dluh	-10.9076
▁tělesa	-10.9079
▁mezitím	-10.908
DA	-10.908
SP	-10.9082
Kr	-10.9082
▁angličtiny	-10.9082
▁okraje	-10.9083
▁rozhodnuto	-10.9083
▁Top	-10.9084
▁kódu	-10.9084
▁předměstí	-10.9089
▁odstraněn	-10.9089
▁skutečné	-10.9096
lil	-10.9096
▁tajemník	-10.9096
bran	-10.9096
▁ohledně	-10.9099
▁Domin	-10.91
▁zanikla	-10.91
pov	-10.9101
▁Kul	-10.9102
phi	-10.9104
▁podruhé	-10.9106
▁účel	-10.9106
▁docházelo	-10.9106
druh	-10.9107
▁hrají	-10.9107
kraj	-10.9109
▁službě	-10.9109
ois	-10.9111
▁Walter	-10.9112
ág	-10.9113
▁Bělehrad	-10.9116
▁použity	-10.9116
▁chráněné	-10.9116
▁brány	-10.9116
▁umožňují	-10.9118
▁bitevní	-10.912
▁příbuzný	-10.912
▁scéně	-10.912
▁oblé	-10.9121
▁Lee	-10.9121
▁Ali	-10.9123
▁masiv	-10.9124
▁dosah	-10.9124
▁kyseliny	-10.9125
▁srbské	-10.9126
dio	-10.9126
▁zákonů	-10.9127
▁rezerv	-10.9128
smrt	-10.9129
▁(30	-10.9131
▁und	-10.9133
▁mrav	-10.9134
▁vidí	-10.9134
▁palubě	-10.9138
▁Rado	-10.9138
▁Der	-10.9139
▁Lod	-10.9139
▁šachov	-10.9139
▁180	-10.914
▁Luis	-10.9141
bis	-10.9142
▁Wilhelm	-10.9142
aný	-10.9143
▁Rob	-10.9143
▁ran	-10.9144
jen	-10.9146
▁Patřil	-10.9146
▁Elektr	-10.9148
▁Lukáš	-10.9153
▁souvisí	-10.9159
▁čehož	-10.9159
▁vrstev	-10.9159
žený	-10.9159
▁operací	-10.9162
▁manželem	-10.9162
▁doktorát	-10.9163
▁strop	-10.9164
▁větším	-10.9164
▁stanic	-10.9167
▁vlévá	-10.9167
draž	-10.9169
▁příběhu	-10.9171
▁Ště	-10.9173
▁starosta	-10.9175
▁výhled	-10.9177
ische	-10.918
▁Zikmund	-10.9182
▁společného	-10.9183
▁slavné	-10.9183
▁ohrožený	-10.9184
▁sjezd	-10.9186
▁architekta	-10.919
▁obranu	-10.9191
▁Marián	-10.9192
omb	-10.9192
enti	-10.9198
ars	-10.9199
rej	-10.9201
▁neúspěšně	-10.9202
▁rodné	-10.9205
▁vzácně	-10.9205
▁fil	-10.9208
▁pořadu	-10.9209
▁Brown	-10.921
▁vybudována	-10.9213
ňan	-10.9214
▁absolutní	-10.9216
▁nasazení	-10.9217
▁Pracoval	-10.9219
▁výnos	-10.922
▁zbroj	-10.922
▁myšlenky	-10.922
kovský	-10.9221
▁snížen	-10.9221
▁lístky	-10.9223
▁surovin	-10.9223
▁překonal	-10.9226
▁Eric	-10.9227
▁bronzové	-10.9227
▁zakladatele	-10.9227
rel	-10.9228
▁Růž	-10.9228
▁Fra	-10.9229
▁partyzán	-10.9229
▁navzájem	-10.9229
▁otci	-10.923
▁recenz	-10.923
▁pevný	-10.9231
▁dě	-10.9232
▁spuštěn	-10.9232
▁zaměstnání	-10.9232
ňák	-10.9234
▁chemické	-10.9234
▁západu	-10.9236
▁kořist	-10.9237
▁politická	-10.9237
▁Svatý	-10.9237
▁existující	-10.9238
▁nepod	-10.9239
▁desítky	-10.924
▁předpokládá	-10.924
avský	-10.9241
EL	-10.9242
▁výtvarné	-10.9244
▁výskytu	-10.9244
▁vysokým	-10.9246
▁obyčej	-10.9246
▁koncentrační	-10.9246
sun	-10.9246
▁est	-10.9247
▁cestující	-10.9252
▁Bay	-10.9257
▁Železn	-10.9258
ářský	-10.9264
▁označují	-10.9265
▁natáčení	-10.9267
▁významná	-10.9268
▁nedokázal	-10.9268
▁svobodný	-10.927
ánská	-10.9271
▁AC	-10.9271
▁demokracie	-10.9273
▁galerie	-10.9273
▁legend	-10.9274
▁zpráva	-10.9274
▁Nejvíce	-10.9277
▁tabule	-10.9278
▁nikoli	-10.9278
▁Gran	-10.928
▁znaku	-10.9281
tivně	-10.9282
▁nadšen	-10.9283
▁argument	-10.9287
alismus	-10.9289
▁vydali	-10.9289
▁památník	-10.929
▁Přemysl	-10.929
▁Gil	-10.9291
▁1892	-10.9292
▁kazatel	-10.93
rská	-10.9301
▁vyznamenání	-10.9303
krut	-10.9304
▁DVD	-10.9304
▁pozorovatel	-10.9305
▁Group	-10.9308
▁teplo	-10.9309
▁Nyní	-10.931
linu	-10.9311
AD	-10.9312
▁Benát	-10.9313
▁hlavou	-10.9314
▁Wil	-10.9321
íky	-10.9321
škol	-10.9321
▁těžce	-10.9321
ovití	-10.9326
Gr	-10.9328
hrával	-10.9329
urg	-10.9329
▁obviněn	-10.933
růstá	-10.9331
▁národa	-10.9331
▁130	-10.9333
▁konstrukci	-10.9334
▁Dět	-10.9336
▁Cam	-10.9336
▁květin	-10.9338
▁Chr	-10.9341
▁banky	-10.9346
▁Těšín	-10.9352
xe	-10.9355
německé	-10.9355
▁Zlatý	-10.9355
žď	-10.9356
▁vědomí	-10.9357
▁Hart	-10.9358
▁francouzských	-10.9363
spe	-10.9363
chin	-10.9365
pouští	-10.9367
▁ovoce	-10.9367
▁teolog	-10.9369
▁uvedeno	-10.9369
▁postavu	-10.937
▁skončilo	-10.9371
▁zodpovědn	-10.9372
▁lese	-10.9372
▁Andrej	-10.9373
fra	-10.9376
rim	-10.9376
▁výklad	-10.9376
▁tratí	-10.9376
▁Fort	-10.9379
▁světová	-10.9379
▁zastupitelstva	-10.9386
-8	-10.9388
▁Wolf	-10.9388
cent	-10.9388
▁Ferdinanda	-10.9389
hodný	-10.9391
oidní	-10.9393
▁minimálně	-10.9396
▁stěny	-10.9398
▁vzájemně	-10.9403
tta	-10.9404
▁letadlo	-10.9404
▁divo	-10.9407
▁pravý	-10.9407
▁Kře	-10.9408
▁maršál	-10.9409
▁jo	-10.941
eckou	-10.941
▁pozdějších	-10.9411
▁kabin	-10.9411
řan	-10.9411
200	-10.9412
▁ačkoli	-10.9413
▁kopce	-10.9413
▁vedly	-10.9413
▁sloučení	-10.9414
▁teče	-10.9419
▁Kyjev	-10.9422
▁kritiky	-10.9423
▁Mnichově	-10.9426
▁porážce	-10.9427
▁Pardubice	-10.9429
▁měsíční	-10.943
▁lokomotivy	-10.9434
čítá	-10.9435
éra	-10.9436
▁Af	-10.9436
cle	-10.9438
později	-10.9438
▁Mol	-10.9438
rální	-10.944
▁samotného	-10.9441
▁televizních	-10.9441
▁počáteční	-10.9444
▁Vše	-10.9445
▁autora	-10.9446
▁noviny	-10.9447
anem	-10.9447
▁přání	-10.9448
▁Dun	-10.9448
▁div	-10.9449
▁Kot	-10.9451
▁poštovní	-10.9451
▁stabilní	-10.9452
livost	-10.9454
▁zlepšení	-10.9454
▁Dam	-10.9454
▁Akademie	-10.9454
▁Sojuz	-10.9457
500	-10.9458
▁1883	-10.9465
▁asociace	-10.9468
▁nechá	-10.947
ovských	-10.9473
rén	-10.9477
ön	-10.9479
▁myšlení	-10.9479
▁třetího	-10.948
▁sídel	-10.948
mrtv	-10.9483
▁projektů	-10.9483
▁umělec	-10.9484
▁Používá	-10.9485
LA	-10.9487
▁trasy	-10.9488
▁hitparád	-10.9488
▁správě	-10.9489
▁učinil	-10.9489
▁zdědil	-10.9492
▁útoky	-10.9492
▁úzce	-10.9492
▁horské	-10.9492
▁propojen	-10.9494
▁linek	-10.9494
▁provozuje	-10.9495
háj	-10.9496
▁celostátní	-10.9496
▁erb	-10.9499
▁zasloužil	-10.95
/3)	-10.9501
angl	-10.9502
▁domorod	-10.9502
▁nástupu	-10.9509
denní	-10.9511
▁významně	-10.9512
▁prohlášení	-10.9512
hlas	-10.9517
▁cestovní	-10.9521
▁bytost	-10.9523
▁Olymp	-10.9524
▁doklad	-10.9525
vín	-10.9526
▁interval	-10.9526
▁neděli	-10.9527
▁1884	-10.9527
▁rektor	-10.9527
žka	-10.9529
▁držitel	-10.9529
▁zkrácen	-10.9533
▁Ukrajině	-10.9534
iční	-10.9536
▁stromu	-10.9536
gs	-10.9539
▁vybudoval	-10.9541
▁1878	-10.9542
▁Mah	-10.9544
▁Klášter	-10.9544
▁prá	-10.9544
▁ligu	-10.9544
▁konzum	-10.9544
▁armádní	-10.9546
▁úsilí	-10.9547
▁1872	-10.9548
▁vzoru	-10.955
▁přivedl	-10.955
▁1882	-10.9551
▁úzko	-10.9553
▁Alfred	-10.9554
▁závisí	-10.9554
onální	-10.9555
▁dala	-10.9555
▁osmnáct	-10.9555
▁směs	-10.9556
hru	-10.9557
▁Zpočátku	-10.9558
▁Sand	-10.9559
▁římský	-10.9561
▁zajištění	-10.9562
▁manžela	-10.9563
▁SP	-10.9563
▁samostatná	-10.9568
▁prodán	-10.957
NO	-10.957
▁moravské	-10.957
▁pum	-10.9572
▁varianty	-10.9574
▁fin	-10.9574
▁Stalin	-10.9575
not	-10.9575
▁Data	-10.9576
▁zbarvení	-10.9576
scen	-10.9578
▁Troj	-10.9578
▁vyžaduje	-10.9579
▁péči	-10.9579
histori	-10.9581
▁kat	-10.9582
▁poskytl	-10.9582
▁kdysi	-10.9583
cie	-10.9584
▁vlastností	-10.9587
▁stříbrné	-10.9589
▁hostování	-10.9591
sie	-10.9593
ø	-10.9595
▁USS	-10.9596
▁nejrůznější	-10.9596
▁Ama	-10.9597
▁sportu	-10.9597
▁tisku	-10.9597
▁sloves	-10.9601
▁konstant	-10.9601
jednocen	-10.9602
▁Španělsko	-10.9602
▁Hl	-10.9603
▁Švédsko	-10.9604
jó	-10.9608
▁minutě	-10.9612
▁Jizer	-10.9612
▁brána	-10.9616
▁Tou	-10.9617
▁Vlast	-10.9617
▁budovu	-10.9619
řín	-10.9623
▁olympijský	-10.9624
▁jazycích	-10.9627
▁čaroděj	-10.9627
▁městskou	-10.9629
▁literaturu	-10.9631
▁básně	-10.9631
▁filtr	-10.9631
▁pramenů	-10.9632
▁spory	-10.9632
▁zasedání	-10.9635
▁pobyt	-10.9636
▁Sant	-10.9636
spor	-10.9641
▁Dříve	-10.9642
▁koz	-10.9642
▁roztok	-10.9643
▁fu	-10.9643
isto	-10.9645
alizaci	-10.9647
▁bodem	-10.9647
▁Dopravní	-10.9652
▁dílu	-10.9653
▁Program	-10.9653
▁skutečný	-10.9656
iel	-10.9657
rth	-10.9657
▁válečných	-10.9659
▁ozdob	-10.966
burské	-10.9661
▁tituly	-10.9661
dd	-10.9665
▁ideolog	-10.9665
▁aplikací	-10.9666
▁češtiny	-10.9666
▁terénu	-10.9667
▁živé	-10.9669
▁úspěchy	-10.9672
3)	-10.9673
▁profesora	-10.9674
▁Muž	-10.9675
▁rozhovor	-10.9675
▁čistě	-10.9679
▁související	-10.968
▁Nobelov	-10.968
▁Následoval	-10.9681
kládat	-10.9682
▁pěstování	-10.9684
▁fe	-10.9684
▁předmětů	-10.9685
▁Kod	-10.9688
▁podnět	-10.9688
stihl	-10.9688
▁Tele	-10.969
▁Erik	-10.969
▁pevnin	-10.9691
▁odlišné	-10.9691
▁Jiho	-10.9692
▁psát	-10.9694
▁alternativní	-10.9695
▁objemu	-10.9695
▁France	-10.9697
▁nabídku	-10.9698
vez	-10.9701
▁korunní	-10.9702
▁taj	-10.9703
▁opakovaně	-10.9705
▁růstu	-10.9707
▁nacistické	-10.9709
▁rozmezí	-10.9712
▁vládnoucí	-10.9712
padne	-10.9714
▁silnější	-10.9715
▁díly	-10.9719
váže	-10.972
▁dostupné	-10.972
▁software	-10.9721
▁South	-10.9722
▁vévody	-10.9722
▁es	-10.9724
▁Sky	-10.9724
šín	-10.9724
▁polovina	-10.9726
▁poznání	-10.973
směr	-10.9731
loží	-10.9731
▁1894	-10.9731
čkou	-10.9734
▁respekt	-10.9735
Rue	-10.9735
stadt	-10.9735
mberk	-10.9736
▁ochraně	-10.9738
▁Belgie	-10.974
▁svato	-10.974
▁jasně	-10.9742
▁neměla	-10.9743
▁unikátní	-10.9744
letěl	-10.9744
aki	-10.9744
▁vesmír	-10.9746
▁příslušné	-10.9751
▁uživatelů	-10.9751
▁používány	-10.9753
výhra	-10.9756
▁Cast	-10.9757
▁3000	-10.9757
▁komplexu	-10.9757
▁požáru	-10.9758
▁zbraň	-10.9758
▁umělecký	-10.9759
▁opraven	-10.9761
jon	-10.9761
sche	-10.9762
▁ostrovech	-10.9763
▁kaš	-10.9764
lop	-10.9764
▁zůstaly	-10.9765
ming	-10.9765
▁plány	-10.9767
▁majitelem	-10.9769
▁konzul	-10.977
▁odvětví	-10.9772
▁trpěl	-10.9772
▁opeře	-10.9774
▁jihovýchod	-10.9775
▁postaveno	-10.9776
▁zóny	-10.9779
▁Mikuláše	-10.9779
OP	-10.978
▁zahrada	-10.9782
▁vybudování	-10.9782
▁kněž	-10.9783
▁Budova	-10.9783
▁2011.	-10.9783
ric	-10.9785
▁šesté	-10.9787
▁devadesátých	-10.9788
▁přišli	-10.979
▁občanství	-10.979
▁dráze	-10.9792
itelnost	-10.9792
▁bombardér	-10.9793
držitel	-10.9794
▁Londýna	-10.9794
▁PC	-10.9796
▁Kaple	-10.9796
▁Wor	-10.9799
▁160	-10.98
film	-10.9802
▁fyzikální	-10.9802
▁1:0	-10.9803
jský	-10.9804
tner	-10.9804
▁Stanice	-10.9805
▁domén	-10.9807
átní	-10.9809
▁originální	-10.9809
▁85	-10.9814
áren	-10.9816
itní	-10.9816
ON	-10.9821
▁neuro	-10.9821
▁Bank	-10.9823
líz	-10.9823
▁prvek	-10.9823
▁oprávněn	-10.9823
▁programy	-10.9825
▁pokrok	-10.9826
ňat	-10.9828
▁slavný	-10.983
▁Tým	-10.9831
▁Cat	-10.9832
▁německým	-10.9833
iga	-10.9834
ofil	-10.9835
lize	-10.9836
▁četné	-10.9839
▁2013.	-10.9845
▁léčiv	-10.9847
&	-10.9847
olf	-10.9847
▁vytváření	-10.9847
▁Důležit	-10.9848
▁severozápad	-10.9849
▁prodeje	-10.9849
▁přímý	-10.9849
▁přibyl	-10.985
▁Halič	-10.985
▁běh	-10.9851
▁ráno	-10.9852
/5	-10.9853
hart	-10.9855
▁Cro	-10.9857
▁výběru	-10.9859
pán	-10.986
▁ženu	-10.9862
říz	-10.9867
▁přihlásil	-10.9867
cc	-10.9868
▁federální	-10.9868
▁startu	-10.9869
▁Heinrich	-10.9872
▁pap	-10.9873
▁ústup	-10.9873
▁velením	-10.9873
▁Druhé	-10.9874
americké	-10.9875
▁zástav	-10.9878
▁královna	-10.9878
▁čtver	-10.9878
▁obdržela	-10.9879
kán	-10.9882
▁play	-10.9883
▁kmenů	-10.9885
▁sud	-10.9886
▁plic	-10.9887
▁orgánů	-10.9887
▁Pres	-10.9888
▁Palestin	-10.9889
▁Jones	-10.9891
col	-10.9891
▁dílech	-10.9893
▁harmoni	-10.9893
▁Matt	-10.9894
▁jezdil	-10.9895
střelil	-10.9896
▁2008.	-10.9896
▁druž	-10.9896
▁Milán	-10.9897
▁hledání	-10.9897
ól	-10.9898
▁včel	-10.9898
▁nějakou	-10.9898
mag	-10.9898
▁misi	-10.99
▁určitou	-10.99
nička	-10.99
▁Sur	-10.9901
▁lem	-10.9902
▁kanon	-10.9908
▁fiktivní	-10.9908
ivo	-10.9908
ČSL	-10.9909
▁Republik	-10.9911
▁Bet	-10.9913
dlem	-10.9913
▁Kolín	-10.9914
dál	-10.9915
▁náležel	-10.9915
▁Žďár	-10.9915
idel	-10.9919
▁takových	-10.9919
▁Turnaj	-10.9923
▁Celá	-10.9925
▁spektr	-10.9928
▁1868	-10.993
▁1888	-10.9931
▁Chomutov	-10.9933
▁vzácný	-10.9937
▁Muzeum	-10.994
▁příslušnost	-10.9944
▁podepsán	-10.9944
zejména	-10.9945
▁Avivu	-10.9946
▁staršího	-10.9947
▁dresu	-10.9948
ogram	-10.9951
bývají	-10.9951
▁Nes	-10.9952
▁Začal	-10.9952
míř	-10.9953
cas	-10.9954
▁Labe	-10.9955
▁šestnáct	-10.9955
▁hnědé	-10.9956
▁nutno	-10.9956
▁zkušební	-10.9957
▁Každá	-10.9958
▁Fel	-10.996
▁strach	-10.996
▁zastávka	-10.9962
iální	-10.9963
klop	-10.9966
▁identit	-10.997
▁expozice	-10.997
▁chlor	-10.9971
▁rozsah	-10.9976
▁rašelin	-10.9977
▁Velkou	-10.9977
▁svazích	-10.9981
▁dutin	-10.9983
ratislav	-10.9985
▁patřily	-10.9986
▁správa	-10.9987
mark	-10.9988
▁úder	-10.9991
▁pramení	-10.9991
▁kořeny	-10.9991
šské	-10.9993
▁IP	-10.9993
▁Center	-11
▁internetu	-11
sing	-11
▁úvah	-11.0002
▁stezka	-11.0002
▁rody	-11.0003
▁ochran	-11.0004
▁gotické	-11.0005
▁Cheb	-11.0008
▁Sydney	-11.0013
▁zbarven	-11.0019
▁děje	-11.0019
▁angažmá	-11.002
▁podstatně	-11.0021
▁Založen	-11.0023
▁považovat	-11.0024
▁Nev	-11.0024
▁Egypta	-11.0024
▁úvodní	-11.0026
▁Vladimir	-11.0027
▁Městské	-11.0028
▁malíře	-11.0028
▁pozdně	-11.003
▁agentur	-11.003
▁tolik	-11.0031
▁přístavu	-11.0033
▁italského	-11.0033
▁Třída	-11.0033
▁softwar	-11.0036
▁řeckého	-11.0037
▁pozván	-11.0037
▁ráže	-11.0038
▁Karpat	-11.0038
hnal	-11.0039
▁finančních	-11.0039
▁tabulka	-11.0039
▁posun	-11.004
čního	-11.0041
▁vodík	-11.0042
tlak	-11.0047
▁publikován	-11.0049
▁personál	-11.005
▁Maďarsku	-11.0051
▁obrovské	-11.0053
východ	-11.0054
▁květenství	-11.0055
▁motocykl	-11.006
▁ulic	-11.0062
▁Čern	-11.0062
taj	-11.0063
▁patřilo	-11.0063
▁patře	-11.0064
▁Beroun	-11.0065
▁srst	-11.0067
▁účinky	-11.0068
▁Boha	-11.0068
▁místnost	-11.0068
▁Jakuba	-11.0068
▁znakem	-11.0069
link	-11.0069
▁umělce	-11.007
▁cyklus	-11.007
▁Patr	-11.0071
▁miliónů	-11.0071
▁odmítá	-11.0072
▁povinnost	-11.0073
▁osmdesátých	-11.0074
2000	-11.0077
▁polského	-11.0079
▁×	-11.0079
▁kvality	-11.0079
▁Píseň	-11.008
šu	-11.008
▁lokality	-11.0081
▁Mladá	-11.0083
▁víry	-11.0086
▁lásky	-11.0086
▁jazz	-11.0086
▁Jur	-11.0086
▁alkohol	-11.0087
▁obyvateli	-11.0091
vok	-11.0092
▁olympiádě	-11.0093
▁Kin	-11.0095
▁turistický	-11.0095
▁hradě	-11.01
▁Květ	-11.0101
kulární	-11.0102
▁sídliště	-11.0104
▁linii	-11.0105
adlo	-11.0107
▁všeobecné	-11.0108
▁Lub	-11.0108
▁geograf	-11.0109
▁vyvolá	-11.011
▁závodech	-11.0111
▁membrán	-11.0112
▁77	-11.0112
▁Nikolaj	-11.0116
▁královského	-11.0116
▁AS	-11.0117
▁parlamentní	-11.0119
▁varianta	-11.0119
▁žáků	-11.0119
pisuje	-11.0121
▁lokalitě	-11.0121
ingen	-11.0122
▁vězněn	-11.0122
▁Dalšími	-11.0123
▁odlišný	-11.0125
▁malého	-11.0127
inus	-11.0129
▁posádka	-11.013
▁past	-11.0133
▁sur	-11.0133
▁Las	-11.0136
_4	-11.0137
▁Knesetu	-11.0137
ovském	-11.0144
▁poddruh	-11.0144
▁rychlý	-11.0145
▁svědčí	-11.0145
oba	-11.0146
▁přestěhovala	-11.0147
šle	-11.0148
▁Írán	-11.0148
tér	-11.0149
▁Horn	-11.0152
uše	-11.0154
▁System	-11.0156
▁starověké	-11.0156
▁nezávislosti	-11.0158
▁Kaz	-11.0158
▁levém	-11.0158
▁Marek	-11.0158
lici	-11.0159
▁gra	-11.016
áže	-11.016
▁odmítal	-11.0164
▁Znám	-11.0164
▁zastavení	-11.0164
tec	-11.0165
▁pochyb	-11.0166
▁sporu	-11.0169
očekáva	-11.0169
▁pozná	-11.017
▁nutnost	-11.0171
▁turecké	-11.0171
▁lep	-11.0171
▁vlny	-11.0172
▁Award	-11.0173
▁starostou	-11.0173
inský	-11.0175
▁deník	-11.0176
omet	-11.0177
▁ples	-11.0179
▁síla	-11.018
škov	-11.0181
brat	-11.0185
▁lékařské	-11.0186
oslav	-11.0187
áka	-11.0188
▁formálně	-11.0189
▁Prokop	-11.019
střelen	-11.0192
▁Člen	-11.0192
▁následek	-11.0193
▁duše	-11.0194
▁skládal	-11.0194
▁Jaromír	-11.0196
▁únor	-11.0197
▁evangelické	-11.0198
▁modely	-11.0199
ačního	-11.0199
-7	-11.0201
erie	-11.0201
▁Young	-11.0201
.“"	-11.0202
bre	-11.0203
▁univerzitu	-11.0203
▁komplexní	-11.0204
▁Et	-11.0208
▁vydával	-11.021
▁umí	-11.0211
▁Antoni	-11.0212
▁skrze	-11.0212
▁minerál	-11.0213
▁polovinu	-11.0215
▁holub	-11.0218
fort	-11.0219
▁rodinu	-11.0219
▁látka	-11.0221
▁značný	-11.0223
▁cílů	-11.0223
▁Soutěž	-11.0224
ery	-11.0225
▁základem	-11.0225
▁nárůst	-11.0226
▁cestujících	-11.0226
▁probíhající	-11.0227
▁nevz	-11.0233
rozliš	-11.0233
▁zvyšuje	-11.0237
▁rozloha	-11.0237
ód	-11.0239
džu	-11.0239
wen	-11.0243
▁volen	-11.0243
▁United	-11.0245
▁podpoře	-11.0245
▁mysli	-11.025
▁Ryb	-11.0252
▁vypuknutí	-11.0252
▁instalován	-11.0252
▁40.	-11.0253
▁baskytar	-11.0253
SC	-11.0254
desát	-11.0256
▁Rudé	-11.0259
▁lehké	-11.026
▁snímek	-11.026
▁osobních	-11.026
▁1:1	-11.0262
ors	-11.0263
▁obecná	-11.0265
▁humor	-11.0266
▁výšku	-11.0268
ínské	-11.0268
▁góly	-11.0269
▁závodní	-11.027
text	-11.0271
▁energii	-11.0273
▁dvouhry	-11.0275
stupoval	-11.0278
▁2015.	-11.0278
▁Stone	-11.028
▁UNESCO	-11.0282
▁major	-11.0282
bod	-11.0284
▁koš	-11.0285
▁uvedení	-11.0285
▁výt	-11.0286
▁extra	-11.0288
▁Pardubic	-11.0289
▁Výrob	-11.029
▁okamžiku	-11.0291
▁59	-11.0292
▁sedmdesátých	-11.0292
▁ekolog	-11.0293
pper	-11.0294
▁rozhodli	-11.0294
▁knižní	-11.0295
▁Alt	-11.0296
▁SR	-11.0297
▁Mid	-11.0298
lár	-11.0299
▁nálezy	-11.03
▁kabel	-11.0303
▁nohy	-11.0304
▁Lom	-11.0304
společen	-11.0305
▁židovských	-11.0305
▁Závod	-11.0307
▁štafet	-11.0308
▁kužel	-11.0309
von	-11.0312
▁Nejlepší	-11.0313
▁ovládl	-11.0313
daná	-11.0313
▁tele	-11.0314
rion	-11.0315
▁140	-11.0316
▁3,5	-11.0316
▁zakoupil	-11.0318
▁tehdejším	-11.0318
▁Polit	-11.0319
▁stáhl	-11.0319
▁Jednou	-11.0319
▁místy	-11.032
▁Poly	-11.0325
▁Sul	-11.0325
▁plody	-11.0326
▁probojoval	-11.0328
pís	-11.0329
auer	-11.0331
▁slovy	-11.0332
▁zastaven	-11.0333
▁řetěz	-11.0334
▁vévoda	-11.0335
zýva	-11.0335
▁bor	-11.0339
▁Eva	-11.0341
▁autoři	-11.0343
átky	-11.0343
▁soused	-11.0343
▁sekce	-11.0344
▁1886	-11.0344
▁List	-11.0344
▁Street	-11.0345
sílá	-11.0345
thi	-11.0345
▁mozku	-11.0345
▁výjimečně	-11.0346
▁jarní	-11.0347
▁přidán	-11.0348
▁komiks	-11.035
▁požadoval	-11.035
nera	-11.0353
▁Premiér	-11.0353
▁trenérem	-11.0354
▁zachránil	-11.036
ness	-11.036
▁hudebním	-11.036
▁atentát	-11.0361
šev	-11.0361
▁Čas	-11.0362
▁Theodor	-11.0362
▁lodní	-11.0363
▁Černé	-11.0363
▁zápasech	-11.0364
▁1866	-11.0365
▁paliva	-11.0366
▁jenom	-11.0368
▁útoků	-11.0371
▁patřili	-11.0373
▁operaci	-11.0373
▁Okres	-11.0374
pustí	-11.0375
▁proběhl	-11.0375
▁Hud	-11.0376
ffe	-11.0376
▁kosmické	-11.0378
▁vzděla	-11.0378
▁katedrál	-11.0378
▁odborných	-11.0378
▁filmových	-11.038
▁namísto	-11.0381
▁odstranění	-11.0383
▁Živ	-11.0384
Fr	-11.0385
padající	-11.0385
ovaní	-11.0386
▁vážně	-11.0386
▁specifik	-11.0388
▁rekreační	-11.0391
pet	-11.0392
▁studiích	-11.0394
▁kanadský	-11.0395
▁jejímu	-11.0396
▁Tha	-11.0397
▁zprávu	-11.0397
▁slavnostně	-11.0398
▁tvorba	-11.0399
▁One	-11.0403
štinu	-11.0404
▁nízko	-11.0406
▁sklo	-11.0409
▁výškou	-11.041
▁dohled	-11.0411
káže	-11.0412
▁prameny	-11.0412
▁zpíval	-11.0414
komunik	-11.0414
▁kanceláře	-11.0414
etta	-11.0415
▁Fir	-11.0416
acht	-11.0417
▁Maur	-11.0417
▁Chrudim	-11.0418
erová	-11.0418
▁Hory	-11.0419
▁Vrchol	-11.0422
▁dostupný	-11.0422
▁Wall	-11.0423
▁sjednocení	-11.0425
▁vědeckých	-11.0426
▁zničení	-11.0426
▁Juan	-11.0427
▁hokeje	-11.0428
▁otevřeno	-11.0429
zování	-11.0432
▁zabývající	-11.0433
evič	-11.0437
▁kůže	-11.0438
▁severovýchodě	-11.0438
▁dlouhých	-11.0439
chaj	-11.0439
americký	-11.0443
▁stejným	-11.0444
▁Lze	-11.0446
▁přesunut	-11.0446
▁vítězem	-11.0449
▁kamene	-11.045
▁krátkou	-11.045
▁Postup	-11.0451
▁Pekingu	-11.0452
▁hyper	-11.0454
▁libret	-11.0456
▁předán	-11.0456
▁žila	-11.0456
▁něž	-11.0458
▁Knih	-11.0459
▁rozp	-11.0463
▁rub	-11.0463
uff	-11.0464
▁zákoník	-11.0464
▁epizodě	-11.0466
ickému	-11.047
Enterprise	-11.0471
NA	-11.0471
▁Strana	-11.0472
▁Chris	-11.0474
▁Kost	-11.0474
▁Ovšem	-11.0475
tag	-11.0476
enského	-11.0476
▁místopředsed	-11.0478
▁ad	-11.0479
▁2006.	-11.0479
▁programů	-11.0481
▁komorní	-11.0482
▁kombinaci	-11.0482
▁66	-11.0483
ačním	-11.0484
OM	-11.0484
▁plochu	-11.0484
▁jihovýchodě	-11.0484
▁okupace	-11.0486
ssen	-11.0486
▁příkladem	-11.0487
▁Ran	-11.0487
▁potřebné	-11.0488
▁1881	-11.049
▁každým	-11.0491
box	-11.0493
▁bodu	-11.0493
enda	-11.0495
▁nechtěl	-11.0498
náct	-11.0499
▁1887	-11.0499
▁majitele	-11.0501
▁baron	-11.0502
▁jít	-11.0505
▁námořnictvo	-11.0505
alita	-11.0508
▁severovýchod	-11.0515
▁Gla	-11.0516
▁představitelů	-11.0517
▁Bak	-11.0519
▁euro	-11.052
▁třicetileté	-11.0521
▁sedmnáct	-11.0525
▁Západ	-11.0525
ovek	-11.0528
ňující	-11.0532
▁Nova	-11.0534
▁Jaroslava	-11.0534
žené	-11.0535
witz	-11.0536
▁účastníků	-11.0537
▁aero	-11.0538
▁Gui	-11.0539
▁Plan	-11.0541
▁univerzitní	-11.0542
▁Fle	-11.0543
právní	-11.0543
▁kibuc	-11.0543
▁Ně	-11.0544
▁láv	-11.0545
▁ustanoven	-11.0545
▁Wel	-11.0546
▁Ala	-11.0547
▁párů	-11.0547
▁jedince	-11.0548
pustit	-11.0548
▁kalendáře	-11.0548
▁ministerstvo	-11.0551
řič	-11.0551
rozené	-11.0552
měň	-11.0553
▁severozápadě	-11.0553
čené	-11.0554
ózy	-11.0555
▁Sergej	-11.0555
▁družstvo	-11.0555
▁třináct	-11.0557
▁zaútočil	-11.0559
▁hraniční	-11.0561
volání	-11.0562
▁synové	-11.0563
▁Fil	-11.0565
▁křídle	-11.0566
▁Kry	-11.0566
▁Phil	-11.057
▁Jihlava	-11.057
▁abeced	-11.057
▁hrozn	-11.0571
někdy	-11.0574
▁oděv	-11.0575
stel	-11.0575
▁protivník	-11.0576
▁pahorkatin	-11.0578
tlum	-11.0579
rácen	-11.0581
▁široce	-11.0582
▁Roll	-11.0582
▁2009.	-11.0582
▁pořádá	-11.0582
▁pri	-11.0583
▁Stráž	-11.0585
sazení	-11.0586
▁klubem	-11.0586
▁nit	-11.0588
otoč	-11.0588
▁Neapol	-11.0589
▁turistická	-11.059
tedy	-11.0591
enka	-11.0594
▁Hradiště	-11.0596
▁nejdelší	-11.0597
▁Michaela	-11.0604
▁kilometry	-11.0605
▁teorií	-11.0605
gio	-11.0605
▁pěstován	-11.0605
▁řídí	-11.0605
▁autobusové	-11.0606
▁znamení	-11.0606
▁Nan	-11.0607
Mal	-11.0607
▁Slu	-11.0607
▁Sir	-11.0608
▁lehký	-11.0609
▁dokumentární	-11.0612
▁Uherské	-11.0613
git	-11.0614
▁půd	-11.0617
volat	-11.062
▁politicky	-11.0621
▁vyrůstají	-11.0623
aktivní	-11.0625
Ph	-11.0625
ical	-11.0626
▁karty	-11.0626
▁hum	-11.0628
▁Davida	-11.0628
▁Mike	-11.0629
▁závěrečné	-11.0629
▁Tomáše	-11.0629
plex	-11.0632
▁Brazílii	-11.0632
▁Nejznámější	-11.0632
▁Sázavou	-11.0632
▁Výraz	-11.0632
▁76	-11.0634
▁Cur	-11.0635
▁Poháru	-11.0635
▁řídící	-11.0636
▁Papež	-11.0636
▁sultán	-11.0636
▁moderních	-11.0637
dnešní	-11.0637
▁držení	-11.0639
▁Malý	-11.0639
▁klasifikace	-11.064
▁sociolog	-11.0642
prost	-11.0643
▁šlechty	-11.0644
▁známa	-11.0644
▁králů	-11.0645
▁Japonska	-11.0645
▁Rady	-11.0645
▁vydat	-11.0645
ssel	-11.0646
▁šampionát	-11.0646
▁hledal	-11.0647
▁šat	-11.0649
trvá	-11.0649
▁převeden	-11.0649
tti	-11.0653
rky	-11.0655
ense	-11.0657
▁nazývané	-11.0657
▁jaký	-11.0658
enská	-11.0658
▁učitele	-11.0659
▁chemický	-11.066
istickou	-11.0661
▁přístupu	-11.0662
▁Andre	-11.0663
IV	-11.0664
AL	-11.0664
▁Wood	-11.0665
▁skaut	-11.0666
▁pozemky	-11.0671
▁slohu	-11.0672
▁obchodních	-11.0672
isch	-11.0673
▁podob	-11.0673
-16	-11.0675
▁úst	-11.0676
▁obrovský	-11.0677
▁State	-11.0678
▁červená	-11.068
▁klesá	-11.0681
▁obsadila	-11.0682
▁čtvrť	-11.0682
▁častěji	-11.0682
▁bojovník	-11.0684
▁císařství	-11.0689
▁vyhlášena	-11.069
▁radikální	-11.069
▁tyč	-11.0691
jských	-11.0694
ç	-11.0694
enburg	-11.0694
▁některá	-11.0694
RT	-11.0695
▁povrchem	-11.07
▁kontrakt	-11.07
▁vytvořena	-11.0701
▁naší	-11.0701
▁firmu	-11.0702
▁převzala	-11.0702
▁Dunaj	-11.0704
▁nizozemské	-11.0706
▁štábu	-11.0708
▁Uher	-11.0708
▁nižších	-11.0709
▁kultura	-11.071
▁satelit	-11.0711
▁řecko	-11.0712
▁Sz	-11.0712
▁aktivist	-11.0713
▁určení	-11.0713
poslední	-11.0714
žal	-11.0714
▁dominantní	-11.0715
▁řeku	-11.0715
▁rovnice	-11.0719
▁plný	-11.0722
▁pokusy	-11.0728
▁dějinách	-11.0728
▁nazývají	-11.073
nitro	-11.0732
AF	-11.0735
▁White	-11.0737
▁mluvčí	-11.0737
▁patnáct	-11.0738
▁Kalifornie	-11.0741
▁pásmo	-11.0741
řel	-11.0743
▁obnovena	-11.0744
▁studio	-11.0745
Cl	-11.0746
▁vyšetřování	-11.0746
▁klubů	-11.0746
▁čím	-11.0747
▁věži	-11.0747
▁bitva	-11.0747
▁potravy	-11.0749
▁městy	-11.0751
▁statek	-11.0752
▁provedena	-11.0754
▁výrobky	-11.0755
▁900	-11.0756
▁2:1	-11.0756
▁jara	-11.0757
▁Sav	-11.0758
▁Comp	-11.0759
angu	-11.0759
▁základy	-11.076
stát	-11.076
trin	-11.0763
▁nejnižší	-11.0764
▁zřídil	-11.0765
vázán	-11.0767
Str	-11.0769
▁mezinárodního	-11.077
▁vydavatel	-11.077
▁balet	-11.0771
těl	-11.0772
▁terorist	-11.0774
▁mořské	-11.0775
▁Lípa	-11.0776
▁marketing	-11.0776
král	-11.0777
▁fal	-11.0778
▁anděl	-11.0779
assi	-11.0783
▁Opera	-11.0785
▁výměře	-11.0788
▁Johan	-11.0788
▁kronik	-11.0788
▁funkčního	-11.0788
fek	-11.0788
onem	-11.0788
▁podaří	-11.0791
▁Japonsko	-11.0791
▁železnic	-11.0792
▁změnila	-11.0792
▁volebního	-11.0793
mir	-11.0794
▁družstva	-11.0796
Con	-11.0801
▁přínos	-11.0801
▁rozpuštěn	-11.0802
▁časopise	-11.0802
víra	-11.0802
▁skoro	-11.0803
erson	-11.0805
▁Mají	-11.0806
▁druhem	-11.0807
▁soudce	-11.0808
▁pracující	-11.0808
stavit	-11.0811
▁vzrostl	-11.0814
iki	-11.0815
▁odporu	-11.0815
Sch	-11.0816
▁horním	-11.0816
▁kapalin	-11.0816
▁mezinárodním	-11.0817
větr	-11.0817
ložené	-11.0817
▁lodyh	-11.082
▁katalog	-11.082
ectví	-11.0821
▁věnován	-11.0824
▁gotický	-11.0824
▁klášterní	-11.0824
▁síti	-11.0826
▁experimentální	-11.0827
▁Lis	-11.0827
▁kulturu	-11.0827
▁ruských	-11.0827
▁sediment	-11.0828
▁Vesnice	-11.0828
hry	-11.0828
také	-11.0828
▁provozoval	-11.083
francouzsky	-11.0831
▁dobytí	-11.0834
▁jihozápadě	-11.0836
▁užíval	-11.0837
▁prestižní	-11.0838
▁tabul	-11.0841
▁různá	-11.0843
▁Maz	-11.0844
▁zlatý	-11.0847
▁Company	-11.0848
stane	-11.0849
▁dlouhodobé	-11.0851
ujícího	-11.0851
▁vazby	-11.0851
▁baz	-11.0855
▁osobně	-11.0856
▁psy	-11.0858
▁Kněž	-11.0859
▁zachycen	-11.0859
▁mořem	-11.0862
▁institutu	-11.0862
▁Free	-11.0864
▁poskytují	-11.0867
▁Pur	-11.0868
▁stránkách	-11.0871
▁restaurace	-11.0871
▁1849	-11.0871
▁možný	-11.0874
▁Příkladem	-11.0874
▁absolvování	-11.0875
▁podpis	-11.0875
lera	-11.0876
▁primární	-11.0876
▁velel	-11.0877
rif	-11.0877
▁rozpadl	-11.0884
▁neznámé	-11.0884
▁Post	-11.0884
ozo	-11.0885
povídá	-11.0885
▁radar	-11.0887
▁opravdu	-11.089
▁nalézá	-11.0892
▁setká	-11.0894
▁Boy	-11.0895
▁poháněn	-11.0895
▁Franc	-11.0897
▁Bitva	-11.0898
▁žláz	-11.0899
▁zmiňuje	-11.0899
▁Kroměříž	-11.0904
▁projevuje	-11.0905
▁Pierre	-11.0908
zie	-11.0908
▁staletí	-11.0908
▁ustanovení	-11.0909
▁snaze	-11.0912
▁Tis	-11.0914
▁Délka	-11.0915
▁výrob	-11.0917
IP	-11.0917
▁těmto	-11.0918
▁Ťi	-11.0919
▁jihozápad	-11.0919
▁fondu	-11.092
▁pozůstatky	-11.0923
▁Ostatní	-11.0923
Pol	-11.0923
▁rybníka	-11.0924
pát	-11.0924
▁ostře	-11.0924
▁Bert	-11.0926
platil	-11.0927
▁deníku	-11.0927
šetřen	-11.0928
uru	-11.0929
cre	-11.093
▁stovky	-11.0931
▁znalosti	-11.0937
▁úřadů	-11.0938
▁nález	-11.0939
▁koalice	-11.0939
▁reakcí	-11.0939
▁důležitým	-11.094
▁připravoval	-11.0942
▁Systém	-11.0943
▁mužstva	-11.0943
rock	-11.0944
▁sester	-11.0944
▁Roberta	-11.0946
▁Giovanni	-11.0947
▁medailí	-11.0947
▁stránce	-11.0947
▁Bir	-11.0947
▁slunce	-11.0947
▁Královské	-11.0947
▁svátek	-11.0947
elných	-11.0947
▁přechází	-11.0947
Červen	-11.0949
pé	-11.095
▁Hot	-11.095
▁Dvor	-11.0953
▁určena	-11.0953
kál	-11.0953
▁sídelní	-11.0953
syp	-11.0954
▁otrok	-11.0955
▁energ	-11.0958
▁zajišťoval	-11.0959
▁lyžař	-11.0959
plán	-11.096
dále	-11.0964
žíval	-11.0965
▁paní	-11.0967
▁bloku	-11.0967
▁svobodu	-11.0967
▁trochu	-11.0967
▁vyobrazen	-11.0968
UT	-11.0969
▁římskokatolické	-11.0971
kovité	-11.0971
▁Barr	-11.0973
▁využívat	-11.0975
▁studenty	-11.0975
▁dočasně	-11.0975
▁působit	-11.0978
enstein	-11.098
▁rakety	-11.098
▁filosofie	-11.098
▁Prá	-11.0981
▁Univerzitě	-11.0983
▁vyslal	-11.0985
▁římského	-11.0985
▁úrovní	-11.0991
▁hlava	-11.0991
rah	-11.0992
▁Nar	-11.0992
▁Všichni	-11.0995
▁videoklip	-11.0999
▁zabít	-11.0999
▁Aš	-11.0999
▁dostaly	-11.0999
▁nepřítele	-11.1003
▁Příjmení	-11.1003
▁židovský	-11.1003
▁člena	-11.1005
▁zřídka	-11.1007
▁podpora	-11.1007
iller	-11.1008
▁textilní	-11.1008
▁Mich	-11.1011
▁Rýn	-11.1012
▁kovář	-11.1013
▁žít	-11.1013
▁72	-11.1013
bytek	-11.1016
▁rozum	-11.1016
▁not	-11.1018
▁neuspěl	-11.102
▁Sparta	-11.1021
▁Song	-11.1024
▁vrátí	-11.1025
▁výtvarných	-11.1026
▁Obvykle	-11.1027
▁jaderné	-11.1027
▁smrk	-11.1029
▁62	-11.1029
▁schodiště	-11.1031
▁napadl	-11.1032
▁box	-11.1033
sal	-11.1034
▁Feder	-11.1035
▁zahrnut	-11.1035
▁1874	-11.1036
▁odrůd	-11.1037
čany	-11.1037
▁naposledy	-11.1039
▁VII	-11.1039
▁dvorní	-11.104
▁obývají	-11.1044
▁počítá	-11.1045
▁Arthur	-11.1047
▁Autorem	-11.1049
band	-11.105
mořské	-11.1055
▁stíhač	-11.1055
▁cer	-11.1056
▁hokejové	-11.1059
ěji	-11.1059
▁poloze	-11.1059
▁středních	-11.106
▁1860	-11.1062
▁Kalifornii	-11.1063
▁obsahem	-11.1063
▁umělci	-11.1065
▁Krás	-11.1067
▁televizním	-11.1069
átů	-11.1069
▁zákazník	-11.107
▁hluboké	-11.1071
▁Vlastní	-11.1072
▁ukrajinské	-11.1074
hád	-11.1074
▁hranicích	-11.1074
▁Billboard	-11.1075
▁Tímto	-11.1077
▁soupeře	-11.1078
▁atletice	-11.1078
▁Pru	-11.1079
para	-11.1079
▁křídel	-11.1079
▁datum	-11.108
▁dostatek	-11.108
▁nájezd	-11.1082
▁Marcel	-11.1083
▁státním	-11.1083
▁angažoval	-11.1083
stával	-11.1086
▁devatenáct	-11.1087
▁zastávky	-11.1087
▁písk	-11.109
▁Beneš	-11.1091
▁Brazílie	-11.1091
▁republiku	-11.1092
znal	-11.1095
▁Tře	-11.1096
▁osvětlení	-11.1098
▁režíroval	-11.11
▁ostatky	-11.11
▁Armén	-11.11
▁Ö	-11.11
▁Vele	-11.1101
▁American	-11.1104
▁neznámý	-11.1105
lja	-11.1106
▁Budapešti	-11.1108
▁350	-11.1108
lyn	-11.1108
čar	-11.1108
▁použitím	-11.1109
▁stanoviště	-11.111
▁interiér	-11.1112
▁vytvořili	-11.1116
▁zčásti	-11.1116
▁malby	-11.1117
▁lineární	-11.112
igh	-11.1122
▁Švédsku	-11.1122
▁Průměrný	-11.1122
▁Kim	-11.1123
▁snaha	-11.1126
▁lib	-11.1128
▁Nejčastěji	-11.1128
sus	-11.1132
▁Deb	-11.1136
▁draft	-11.1136
▁reformy	-11.1137
▁pravidelný	-11.1138
▁oznámila	-11.1139
▁Ara	-11.1141
▁mužský	-11.1142
▁Podob	-11.1144
▁sólové	-11.1145
▁Stál	-11.1148
▁souhvězdí	-11.1148
▁Současn	-11.1149
▁Chlum	-11.1151
▁zmíněné	-11.1152
▁teologie	-11.1153
▁začínají	-11.1157
▁bul	-11.1157
▁tvrdil	-11.1158
▁Dy	-11.1159
▁zprovozněn	-11.1161
▁Cri	-11.1161
itan	-11.1162
nsko	-11.1162
rib	-11.1162
▁sedmé	-11.1162
▁švýcarské	-11.1163
▁koruny	-11.1163
Canton	-11.1166
ózní	-11.1167
back	-11.1167
▁pánů	-11.1167
▁gard	-11.1169
▁invazi	-11.1171
▁zahájila	-11.1172
▁Stockholm	-11.1173
▁pátý	-11.1173
▁hokeji	-11.1174
▁Kryštof	-11.1177
▁císařské	-11.1179
▁stopy	-11.118
čková	-11.118
buz	-11.118
▁zahradní	-11.118
▁sign	-11.1182
▁Příběh	-11.1183
▁Zeman	-11.1184
nášel	-11.1185
▁pí	-11.1188
kryl	-11.1193
učení	-11.1194
mužstvu	-11.1195
▁zásluhy	-11.1195
▁řeholní	-11.1197
čák	-11.12
ňský	-11.12
▁hard	-11.1201
▁tajné	-11.1202
▁organismu	-11.1202
▁125	-11.1202
▁částice	-11.1203
roč	-11.1204
ander	-11.1206
▁Johnson	-11.1206
▁novější	-11.1206
▁čtení	-11.1207
▁ponor	-11.1208
straš	-11.1209
▁postaveny	-11.121
bří	-11.1211
▁úloh	-11.1215
dina	-11.1216
▁uzlů	-11.1218
/6	-11.1219
▁Kanada	-11.1219
▁nazývaný	-11.122
▁Stein	-11.122
sberg	-11.122
▁Dál	-11.1222
▁navazující	-11.1225
stoupí	-11.1225
▁Zlaté	-11.1228
▁politika	-11.1228
▁příslušníků	-11.1228
▁Institut	-11.1229
▁lékařství	-11.123
▁dvoře	-11.1231
▁živnost	-11.1232
▁dopravě	-11.1235
▁Jackson	-11.1237
▁Fred	-11.1238
letého	-11.124
▁průběh	-11.124
▁Jupiter	-11.1242
▁údolím	-11.1245
▁Kanady	-11.1247
▁Gall	-11.1248
▁Dor	-11.125
dvoj	-11.1251
▁Hráč	-11.1252
dění	-11.1253
TV	-11.1259
▁srdeční	-11.1259
státní	-11.1259
roční	-11.1262
▁kvalifikaci	-11.1263
▁svrchní	-11.1263
▁zabránit	-11.1263
▁Obdob	-11.1268
právně	-11.1269
▁zvítězila	-11.1271
▁výsledku	-11.1271
átory	-11.1272
ethyl	-11.1274
▁památku	-11.1275
▁nejstarších	-11.1279
▁nástupcem	-11.1279
▁materiály	-11.1279
▁celkovou	-11.128
▁fotografii	-11.1281
▁Kateřina	-11.1283
▁úplné	-11.1284
▁Matěj	-11.1284
▁provést	-11.1284
▁Old	-11.1287
ello	-11.1288
▁dnešním	-11.1289
ičku	-11.129
ážní	-11.129
▁Železniční	-11.1292
▁okolností	-11.1293
▁mlado	-11.1293
▁sloužily	-11.1295
▁minul	-11.1295
▁mnohdy	-11.1296
▁veličin	-11.1298
▁Tyr	-11.1298
▁Okresní	-11.1298
▁správné	-11.13
kolej	-11.1302
▁souborů	-11.1303
▁rozlišení	-11.1305
▁Mladé	-11.1305
▁civil	-11.1305
▁objektiv	-11.1305
▁dřev	-11.1306
▁povinnosti	-11.131
▁oken	-11.1313
ME	-11.1315
▁vědec	-11.1317
daný	-11.1317
▁pražských	-11.1318
ctví	-11.1319
▁daný	-11.1321
▁Poděbrad	-11.1321
anga	-11.1322
▁1863	-11.1325
▁základny	-11.1325
▁konferenci	-11.1325
vald	-11.1326
▁procesů	-11.1329
▁vojvodství	-11.1329
▁jabl	-11.1331
▁vrcholem	-11.1333
puštění	-11.1333
RNA	-11.1333
▁zanechal	-11.1334
▁bydlel	-11.1334
ics	-11.1335
dár	-11.1337
▁Benedikt	-11.1338
▁lidského	-11.1341
▁Prostějov	-11.1342
▁situací	-11.1342
nel	-11.1342
▁souprav	-11.1343
bury	-11.1344
kazoval	-11.1344
▁hlasování	-11.1346
▁diplom	-11.1346
kovy	-11.1347
ěné	-11.1348
▁názoru	-11.1348
▁Lá	-11.1349
▁postavou	-11.1349
▁továrny	-11.135
dler	-11.135
▁rituál	-11.1351
tas	-11.1351
▁našel	-11.1352
vik	-11.1352
mírně	-11.1353
▁Malá	-11.1353
▁vrstva	-11.1357
▁zajištěn	-11.1358
▁vypráví	-11.1358
▁nápoj	-11.136
▁vězni	-11.1361
▁Hradce	-11.1361
▁Ny	-11.1362
▁soustředěn	-11.1363
▁hypotéz	-11.1363
▁radnice	-11.1367
▁doposud	-11.1371
▁hledat	-11.1371
▁Samuel	-11.1372
rážka	-11.1372
▁1875	-11.1372
▁2:0	-11.1374
aud	-11.1374
▁vzrůst	-11.1375
▁technik	-11.1375
▁složky	-11.1378
▁elektronické	-11.1378
▁schválil	-11.1379
▁následník	-11.138
▁paláci	-11.1381
▁Lim	-11.1382
▁zástupců	-11.1386
▁tmavě	-11.1393
▁fyzické	-11.1393
drží	-11.1393
▁výtvarn	-11.1394
▁68	-11.1395
▁intenzivní	-11.1396
mail	-11.1396
▁Tito	-11.1397
▁Háj	-11.1399
▁vnuk	-11.14
▁ukázalo	-11.14
měrně	-11.1401
▁Vítkov	-11.1402
▁čtrnáct	-11.1403
Uherska	-11.1405
▁ohledem	-11.1405
▁kanálu	-11.1406
▁podobná	-11.1406
republik	-11.1407
ezi	-11.141
▁Plán	-11.141
▁Šim	-11.1411
▁Jung	-11.1412
říž	-11.1412
▁Děčín	-11.1413
▁lehce	-11.1413
lovou	-11.1414
▁Absolvoval	-11.1417
reform	-11.1417
▁tropické	-11.1418
▁mírné	-11.1419
▁zřetel	-11.142
plout	-11.142
▁vojenská	-11.1421
▁rozdělit	-11.1421
▁zrušil	-11.1425
▁Maxmilián	-11.1425
▁přešla	-11.1426
▁Východo	-11.1427
▁pevně	-11.1427
tyč	-11.1428
▁placen	-11.1428
opat	-11.1429
▁kož	-11.1429
schop	-11.143
Com	-11.1433
glo	-11.1433
IM	-11.1433
▁Ly	-11.1438
▁nebyli	-11.1438
Kar	-11.144
▁komunity	-11.1443
▁ukončila	-11.1443
▁vlaků	-11.1445
▁Festival	-11.1446
▁obnovil	-11.1446
▁Hoř	-11.1447
agan	-11.1448
▁klade	-11.1448
▁firmě	-11.145
bahn	-11.1451
▁kapitána	-11.1451
sever	-11.1452
▁Nos	-11.1453
▁zprvu	-11.1455
vládl	-11.1457
▁Sad	-11.1457
iček	-11.1458
▁Dis	-11.1459
urs	-11.146
▁krevní	-11.146
▁Ful	-11.146
▁Východ	-11.146
▁trvala	-11.146
▁Schw	-11.1461
cid	-11.1461
▁pláž	-11.1463
▁Real	-11.1464
▁rolník	-11.1465
▁chirurg	-11.1467
▁dění	-11.1467
▁exilu	-11.1468
▁skryt	-11.147
▁závodník	-11.147
ovacím	-11.1475
▁výrazný	-11.1475
▁kameny	-11.1475
▁převezen	-11.1476
▁Lud	-11.1476
▁Nez	-11.1478
▁budování	-11.1479
▁skupinách	-11.1479
▁zájmy	-11.148
▁Archi	-11.1482
▁River	-11.1482
▁God	-11.1482
OL	-11.1484
▁61	-11.1484
latin	-11.1485
▁kontaktu	-11.1486
▁projekty	-11.1486
český	-11.1487
▁Klaus	-11.1488
▁sportovců	-11.1489
▁trupu	-11.149
▁Spe	-11.149
ned	-11.1491
koř	-11.1491
▁vítězů	-11.1494
klam	-11.1497
▁spojena	-11.1497
▁kouzel	-11.1502
▁přenosu	-11.1502
▁keř	-11.1502
▁komunistický	-11.1503
▁nejstarším	-11.1504
▁Provoz	-11.1504
▁papežem	-11.1506
▁realizován	-11.151
▁táboře	-11.1514
▁jednotlivými	-11.1514
▁Model	-11.1515
▁nezávislý	-11.1516
išt	-11.1516
▁koncepce	-11.1518
átorem	-11.152
ardi	-11.152
▁všechno	-11.1522
▁Dur	-11.1522
▁památkov	-11.1523
▁svobodné	-11.1525
hořel	-11.1525
▁využívána	-11.1526
SR	-11.1528
▁Palm	-11.1529
▁maximálně	-11.1531
▁vrh	-11.1533
nským	-11.1533
▁živí	-11.1533
▁podal	-11.1534
▁památkou	-11.1535
▁Ford	-11.1536
adel	-11.1537
▁Karlem	-11.1538
▁vyjadřuje	-11.1539
▁zajišťují	-11.1539
▁Švýcarsko	-11.1539
▁parametr	-11.154
▁setkat	-11.154
▁významů	-11.1541
▁Vyskytuje	-11.1543
▁učitelem	-11.1543
▁západo	-11.1543
▁Viléma	-11.1545
▁Ústřední	-11.1547
letí	-11.1548
▁volebním	-11.1548
▁Nick	-11.155
▁zúčastnilo	-11.1551
aktiv	-11.1551
▁americkou	-11.1552
▁mládežnický	-11.1552
chel	-11.1552
▁Francouzské	-11.1555
▁Maďarsko	-11.1555
▁krajan	-11.1557
▁folk	-11.1558
▁sbírek	-11.156
▁Chorvat	-11.156
kord	-11.156
▁regent	-11.1561
▁nimiž	-11.1561
kazují	-11.1561
▁padesátých	-11.1561
stvem	-11.1563
islav	-11.1563
▁oddíly	-11.1565
▁gram	-11.1565
ařil	-11.1566
▁bolest	-11.1566
▁okresního	-11.1567
▁štěstí	-11.1569
▁Konstantinopol	-11.1573
▁poradce	-11.1574
▁nařídil	-11.1574
▁hotov	-11.1577
vádějí	-11.158
▁Hav	-11.1585
▁Brian	-11.1587
Man	-11.1588
▁Pont	-11.1588
▁považováno	-11.1589
▁odstartoval	-11.159
▁Morava	-11.1593
▁hluboký	-11.1594
▁celkového	-11.1595
hodil	-11.1597
▁silou	-11.1599
▁Hir	-11.1603
SM	-11.1604
měněn	-11.1605
▁Davis	-11.1607
▁jízdy	-11.1608
léz	-11.1609
▁váží	-11.1609
▁vzdálené	-11.161
▁Drážďan	-11.1611
anských	-11.1615
▁slovník	-11.1616
▁budoucnosti	-11.1616
ovku	-11.1616
ping	-11.1618
▁Výsledkem	-11.1624
▁reprezentací	-11.1624
▁maxim	-11.1625
▁zaujal	-11.1625
▁prožil	-11.1626
cestoval	-11.1626
▁chráněných	-11.1627
▁celým	-11.1628
▁přípravě	-11.1631
▁květen	-11.1631
▁postupem	-11.1632
▁následuje	-11.1633
▁debutové	-11.1633
▁ochrana	-11.1634
inter	-11.1635
▁zleva	-11.1636
▁Long	-11.1638
▁symbolem	-11.164
▁gymnázia	-11.1641
▁zkoumání	-11.1642
peře	-11.1642
▁Bož	-11.1642
Svobod	-11.1642
▁Bohumil	-11.1643
▁statku	-11.1644
▁gay	-11.1644
ivně	-11.1646
▁Jednotlivé	-11.1647
iff	-11.1648
house	-11.1649
▁Chile	-11.1651
▁Ukrajiny	-11.1655
▁ME	-11.1655
▁tabulky	-11.1656
▁Spartak	-11.1658
▁umožňoval	-11.1658
▁Bub	-11.1659
▁praxe	-11.166
▁Petrov	-11.1663
obo	-11.1664
▁lince	-11.1665
▁velkými	-11.1666
▁zakládající	-11.1672
▁počítačové	-11.1673
▁desku	-11.1674
▁přijel	-11.1675
▁dětmi	-11.1676
oll	-11.1676
▁Hlin	-11.1676
▁okresů	-11.1677
▁nedostal	-11.1677
▁částic	-11.1677
▁Františk	-11.1678
▁rozšířena	-11.1678
▁přepad	-11.1679
▁technika	-11.1679
▁vyslán	-11.1681
▁magazín	-11.1684
krývá	-11.1685
▁strukturu	-11.1686
▁Maxim	-11.1686
▁předchozího	-11.1686
▁Carol	-11.1687
▁naproti	-11.1688
▁jediného	-11.1688
▁1876	-11.1688
▁publika	-11.1691
dry	-11.1693
▁vyřadil	-11.1693
▁Lok	-11.1694
▁modrá	-11.1694
▁vyrobeno	-11.1694
▁pracovních	-11.1695
▁spojován	-11.1696
▁úprava	-11.1696
žná	-11.1698
▁Shi	-11.1698
raj	-11.1698
▁přípravy	-11.1699
▁Mess	-11.17
▁vstoupila	-11.1701
▁simul	-11.1702
▁CO	-11.1703
novou	-11.1705
cro	-11.1705
▁herní	-11.1706
▁expedice	-11.1706
▁patnácti	-11.1709
▁obléhání	-11.171
▁zahrnující	-11.1711
▁Gru	-11.1712
▁Mk	-11.1713
skupin	-11.1714
▁najdeme	-11.1714
▁britská	-11.1714
▁enzym	-11.1714
enko	-11.1716
▁koncertů	-11.1719
Pe	-11.1719
▁Košice	-11.1722
▁vybudovat	-11.1723
▁nahrazena	-11.1723
klo	-11.1725
▁čili	-11.1726
▁pomáhá	-11.1727
▁absolvent	-11.1727
▁jedinci	-11.1728
nášejí	-11.1729
▁operátor	-11.173
▁Sbor	-11.173
▁probíhaly	-11.1732
▁Vrb	-11.1732
▁tvrdý	-11.1734
družen	-11.1735
▁duchu	-11.1737
▁Us	-11.1737
▁propuštění	-11.1739
▁existovala	-11.174
alistické	-11.1742
kultur	-11.1743
▁konají	-11.1744
▁ústavy	-11.1744
dorf	-11.1745
▁art	-11.1747
▁Virgin	-11.1749
▁umístěné	-11.175
▁dnešních	-11.175
ištích	-11.1751
▁Vysočina	-11.1753
▁sametové	-11.1753
▁specifický	-11.1753
mořský	-11.1756
▁ochotn	-11.1761
▁angličtině	-11.1762
▁kombinace	-11.1762
▁typem	-11.1765
▁index	-11.1766
▁neroz	-11.1768
▁skladbu	-11.1768
▁blíže	-11.1769
▁reforma	-11.177
▁Lotyš	-11.1771
▁Peru	-11.1775
▁oblečení	-11.1775
▁nato	-11.1776
▁2018	-11.1776
zit	-11.1777
▁zisku	-11.1777
▁Parlament	-11.1779
▁BBC	-11.1779
▁nynější	-11.178
účast	-11.178
▁hospodářský	-11.178
eckém	-11.178
▁institut	-11.1781
▁zelená	-11.1785
▁orl	-11.1785
▁bur	-11.1789
▁Trnav	-11.179
endorf	-11.179
▁nacházelo	-11.1791
▁moderního	-11.1791
▁Isabel	-11.1792
▁Pap	-11.1794
▁nazval	-11.1794
▁skot	-11.1794
▁známého	-11.1795
▁bratry	-11.1795
▁maso	-11.1795
▁teras	-11.1796
▁63	-11.18
▁dveře	-11.1801
▁ruční	-11.1803
▁spojených	-11.1805
rovn	-11.1806
▁dokumentů	-11.1806
▁Přerov	-11.1807
městské	-11.1808
nner	-11.1808
▁sekretář	-11.181
SV	-11.181
▁zahrála	-11.1811
▁udává	-11.1811
▁uvádějí	-11.1813
iáš	-11.1813
▁kapitál	-11.1814
etický	-11.1814
▁svah	-11.1815
▁předních	-11.1816
▁Vítězem	-11.1817
▁kilometru	-11.1818
▁exemplář	-11.1818
▁sponzor	-11.1818
▁Slavia	-11.1819
váděl	-11.1819
▁roman	-11.1821
▁Bod	-11.1822
▁ligové	-11.1823
▁týdne	-11.1823
syn	-11.1826
▁uvedeny	-11.1826
▁daného	-11.1826
▁množstvím	-11.1827
▁oběti	-11.183
▁statistik	-11.183
▁East	-11.183
žívají	-11.183
▁patro	-11.1831
▁Újezd	-11.1832
▁rozhovoru	-11.1833
stvu	-11.1834
▁dětský	-11.1837
▁věnovala	-11.1839
“),	-11.184
▁špatně	-11.1841
▁pád	-11.1841
▁uživatele	-11.1841
▁okr	-11.1843
▁uměleckých	-11.1844
▁segment	-11.1845
▁indické	-11.1845
▁považují	-11.1845
▁černá	-11.1845
znamená	-11.1847
CO	-11.1849
▁Cupu	-11.185
▁středním	-11.185
▁následky	-11.1853
bylo	-11.1853
▁čela	-11.1854
▁spravuje	-11.1854
▁trpí	-11.1857
▁agresi	-11.1859
pend	-11.1859
▁eur	-11.186
▁pojmenoval	-11.1862
▁podporou	-11.1862
sexuál	-11.1863
krit	-11.1865
▁mramor	-11.1866
▁Sovět	-11.1868
PO	-11.1869
▁daně	-11.1869
▁modro	-11.1873
–5	-11.1873
bes	-11.1874
▁bohatství	-11.1875
zbroj	-11.1876
čkách	-11.1877
▁horských	-11.1878
▁Mr	-11.1879
▁souostroví	-11.1879
EG	-11.188
▁senior	-11.1881
▁umělé	-11.1882
▁předešl	-11.1884
▁Krym	-11.1885
▁Filipa	-11.1885
▁Kla	-11.1886
▁předal	-11.1889
▁ideální	-11.189
rica	-11.1891
ciální	-11.1891
▁Potom	-11.1891
▁politickým	-11.1892
▁pahorkatina	-11.1893
▁kalendář	-11.1896
jú	-11.1897
okrouhl	-11.1897
▁NATO	-11.1897
▁mód	-11.19
▁Marií	-11.19
▁Starý	-11.1901
▁místopředsedou	-11.1903
▁nejvyššího	-11.1903
vádění	-11.1903
▁strýc	-11.1903
▁dž	-11.1903
▁plemeno	-11.1904
Ob	-11.1904
▁Jim	-11.1905
▁Nejvýznamnější	-11.1906
rál	-11.1907
etti	-11.1908
hrává	-11.1909
▁některými	-11.191
▁expres	-11.191
▁vážné	-11.1911
▁hrd	-11.1914
ов	-11.1914
▁chápán	-11.1915
▁Gó	-11.1915
toria	-11.1918
▁inspiroval	-11.1919
▁přistání	-11.1919
▁zahradě	-11.192
▁Spoj	-11.1923
▁francouzském	-11.1923
▁nedostatku	-11.1923
▁komisař	-11.1923
▁řekou	-11.1924
▁But	-11.1924
▁Bukov	-11.1924
▁Rot	-11.1925
▁automobilů	-11.1926
▁hráli	-11.1928
▁odejít	-11.1928
řízení	-11.1929
končil	-11.1929
▁obuv	-11.193
▁pseudo	-11.1932
▁příslušníci	-11.1932
▁nizozemský	-11.1932
▁ukončena	-11.1933
▁běl	-11.1934
▁povinn	-11.1936
▁žijících	-11.1936
▁jinde	-11.1937
▁trend	-11.1937
▁Ober	-11.1938
▁Boston	-11.1939
▁period	-11.194
▁vyplývá	-11.194
▁Paris	-11.1941
▁Letoun	-11.1942
fel	-11.1944
▁žlutý	-11.1944
▁náhle	-11.1945
▁Odtud	-11.1946
▁vodopád	-11.1946
▁porovnání	-11.1946
▁homosexuální	-11.1949
▁plukovník	-11.195
▁rozměry	-11.1954
▁otevřený	-11.1954
▁zvětšen	-11.1956
▁Slezska	-11.1959
▁jestli	-11.1959
▁barevný	-11.1961
▁populací	-11.1962
▁Pia	-11.1962
Pod	-11.1962
▁náboženských	-11.1962
▁Wen	-11.1964
TP	-11.1965
část	-11.1966
dice	-11.1971
eux	-11.1972
▁příčinou	-11.1973
fašist	-11.1974
▁určitých	-11.1975
ečka	-11.1975
▁generálního	-11.1975
▁rostl	-11.1977
▁setkává	-11.1978
▁Cale	-11.1979
▁char	-11.1979
vas	-11.1979
▁Wei	-11.198
▁Pir	-11.198
▁Def	-11.1981
▁medvěd	-11.1983
bok	-11.1983
něm	-11.1984
▁družic	-11.1985
▁sbírku	-11.1985
rh	-11.1986
jská	-11.1986
▁Roh	-11.1988
▁Emanuel	-11.199
▁mateřské	-11.199
▁Obsahuje	-11.199
▁zkratka	-11.1991
vill	-11.1993
▁vědecký	-11.1995
vir	-11.1998
▁střediska	-11.1999
CC	-11.2001
▁Děj	-11.2003
▁pout	-11.2004
▁Boris	-11.2005
▁Cena	-11.2005
pravil	-11.2009
▁barevné	-11.2012
▁Řecku	-11.2012
▁účt	-11.2012
plňuje	-11.2013
▁přítelem	-11.2013
▁taková	-11.2013
▁milion	-11.2014
▁dozví	-11.2014
▁čeká	-11.2015
▁drak	-11.2015
▁službách	-11.2016
gger	-11.2019
▁grafické	-11.202
▁badatel	-11.2021
▁téže	-11.2022
▁Lhot	-11.2023
▁dobou	-11.2025
▁Česka	-11.2025
▁uspořádan	-11.2025
▁vytvářet	-11.2025
▁Německem	-11.2027
▁poloostrova	-11.2027
▁třicet	-11.2031
Sp	-11.2034
▁krypt	-11.2034
▁znamenal	-11.2035
▁Britské	-11.2036
▁kulturního	-11.2036
MP	-11.2038
▁souhrn	-11.2039
▁soutěžích	-11.2043
▁zprava	-11.2043
▁podniků	-11.2044
▁osvobozen	-11.2045
▁parazit	-11.2046
▁Fan	-11.2048
ffer	-11.2048
▁smíšené	-11.2048
▁produkoval	-11.2048
more	-11.2049
▁žák	-11.2053
▁koncerty	-11.2054
▁stavěl	-11.2055
▁pořízen	-11.2056
▁Prešov	-11.2059
▁charakteristik	-11.206
ovkou	-11.206
▁údaj	-11.2061
DP	-11.2063
▁moderátor	-11.2065
▁spjat	-11.2067
rovnal	-11.2069
▁rozdíly	-11.207
▁flor	-11.2071
▁jist	-11.2072
▁synů	-11.2074
▁souřadnic	-11.2074
▁obrátil	-11.2074
▁Aero	-11.2075
▁Loď	-11.2077
▁řemesln	-11.2079
▁pokusu	-11.208
dají	-11.2084
SO	-11.2084
týká	-11.2084
/4	-11.2085
▁odrůdy	-11.2085
▁konzervatoři	-11.209
▁tet	-11.2091
▁Ministerstvo	-11.2094
▁věnovan	-11.2094
▁Pad	-11.2095
▁Města	-11.2095
▁Jeff	-11.2096
baj	-11.2096
▁zbytku	-11.2097
▁trénink	-11.2097
▁ona	-11.2097
▁odehrála	-11.2097
▁fyziky	-11.2098
▁písmeno	-11.2099
▁říšské	-11.2102
▁kilometr	-11.2102
▁varhany	-11.2103
▁divokou	-11.2103
lini	-11.2104
▁napaden	-11.2104
▁dramatik	-11.2104
▁0,5	-11.2105
▁hladiny	-11.2107
tak	-11.2108
átoři	-11.211
▁legendární	-11.2112
▁Bach	-11.2113
▁britských	-11.2113
dír	-11.2116
▁Jin	-11.2118
▁Internet	-11.2118
▁akademické	-11.2119
▁Diváků	-11.212
▁likvid	-11.2121
▁jižních	-11.2122
▁střetnutí	-11.2125
▁vycházející	-11.2126
▁vyrábět	-11.2128
▁definice	-11.2133
uchy	-11.2134
▁bab	-11.2135
▁kub	-11.2135
▁londýnské	-11.2136
▁terminál	-11.2137
▁kvalifikační	-11.2137
▁přízemí	-11.2137
tmav	-11.2141
▁ptáci	-11.2142
▁riziko	-11.2144
▁časté	-11.2145
▁ženský	-11.2146
▁Ludwig	-11.2146
▁poezie	-11.2146
▁Imp	-11.2147
▁Nastoupil	-11.215
▁výbuch	-11.2151
kař	-11.2152
▁staví	-11.2154
▁Sedm	-11.2154
▁Arnošt	-11.2155
Hor	-11.2155
▁dialekt	-11.2156
kvalifik	-11.2156
▁Net	-11.2157
▁rozměr	-11.2158
▁podnikání	-11.2158
▁ISO	-11.2158
▁Valdštejn	-11.216
▁Díl	-11.216
▁vešker	-11.2161
▁vlna	-11.2161
▁výrobků	-11.2163
ström	-11.2163
▁zástupcem	-11.2164
▁spoje	-11.2164
▁zůstat	-11.2165
▁snahy	-11.2167
▁západního	-11.2167
▁hodinách	-11.2168
čků	-11.2169
▁daroval	-11.217
boh	-11.2172
▁Chart	-11.2172
▁NASA	-11.2173
▁polohy	-11.2176
▁koryt	-11.2178
▁Lvov	-11.2178
louží	-11.2179
▁Frankfurt	-11.2182
▁Vinohrad	-11.2182
lání	-11.2183
▁zbožím	-11.2184
▁západních	-11.2188
▁neexistuje	-11.2191
▁1864	-11.2192
▁malým	-11.2193
▁pohyboval	-11.2193
▁záp	-11.2194
▁vidění	-11.2197
▁řekne	-11.2198
ngel	-11.2199
▁příběhy	-11.22
▁označována	-11.2201
▁Aleš	-11.2201
▁Miss	-11.2205
▁mobil	-11.2206
kdy	-11.2206
▁rozpad	-11.2206
▁vědom	-11.2206
▁Klement	-11.2211
▁podnikl	-11.2213
▁řešit	-11.2214
funk	-11.2215
▁Plav	-11.2215
▁Prochází	-11.2215
▁pravomoc	-11.2216
▁změnit	-11.2218
▁odděluje	-11.2219
invest	-11.2219
▁ligových	-11.2222
přístup	-11.2222
▁východního	-11.2223
▁císaři	-11.2223
▁zakázán	-11.2224
ppe	-11.2225
▁Finsko	-11.2231
▁komunikační	-11.2232
▁Radio	-11.2232
▁Soud	-11.2232
▁starosty	-11.2236
izují	-11.2236
▁záběr	-11.2237
▁Ústavní	-11.2237
▁Beau	-11.2237
▁necelých	-11.2238
▁95	-11.2239
▁přechodu	-11.224
▁vybojovala	-11.224
▁nevlastní	-11.2241
▁Stre	-11.2242
▁větev	-11.2242
▁vzájemný	-11.2243
onské	-11.2245
▁interiéru	-11.2246
střih	-11.225
Í	-11.225
▁někdo	-11.225
bírají	-11.2252
▁konstruktér	-11.2252
▁čtyřhry	-11.2252
▁základnu	-11.2252
▁detektiv	-11.2255
▁Zámek	-11.2255
resp	-11.2256
▁nasazený	-11.2256
▁trvalo	-11.2257
žíva	-11.2258
▁Otec	-11.2258
▁křížové	-11.2259
▁zpívá	-11.226
zdvih	-11.2261
▁studenti	-11.2262
▁Lor	-11.2263
▁(1/0),	-11.2264
vig	-11.2264
▁Brand	-11.2266
▁uspořádal	-11.2268
▁tisíciletí	-11.2268
výraz	-11.2269
▁šroub	-11.2269
-12	-11.2269
▁Oliv	-11.2271
▁mrtvých	-11.2272
▁různě	-11.2278
▁myslí	-11.2282
▁označoval	-11.2282
▁hotelu	-11.2283
▁Chrám	-11.2283
zur	-11.2284
▁svěřen	-11.2285
▁hypo	-11.2287
▁ostatním	-11.2287
dow	-11.2289
▁jistý	-11.229
španěl	-11.2291
▁knížat	-11.2291
...)	-11.2291
sloužil	-11.2291
zpíval	-11.2292
▁Mak	-11.2293
▁uváděl	-11.2294
ínský	-11.2294
▁Lake	-11.2296
pořád	-11.2297
▁zmizel	-11.2297
▁analog	-11.2297
▁Výbor	-11.2297
▁Fal	-11.2297
▁automaticky	-11.2298
▁Voda	-11.2298
▁nálet	-11.2298
▁Ever	-11.23
avská	-11.23
syntet	-11.2302
▁oddílu	-11.2303
povídají	-11.2305
▁1877	-11.2305
▁turbín	-11.2306
myšlen	-11.2307
▁hloubky	-11.2311
▁maďarský	-11.2311
▁Marin	-11.2311
▁Jas	-11.2311
▁lyr	-11.2312
RI	-11.2316
last	-11.2317
počítá	-11.2318
hvězd	-11.2319
▁techn	-11.2322
▁Svaz	-11.2325
tického	-11.2327
ated	-11.2327
gun	-11.2328
▁liberální	-11.233
▁Nord	-11.233
▁vyslan	-11.2332
natá	-11.2335
žan	-11.2335
▁sestrou	-11.2337
▁pásma	-11.2337
▁média	-11.2342
▁byť	-11.2342
▁normalizace	-11.2342
▁Děl	-11.2343
▁chlapec	-11.2347
táhnout	-11.2349
▁produkty	-11.235
album	-11.235
▁Čtyři	-11.2351
▁67	-11.2352
ndi	-11.2355
▁Game	-11.2359
▁juniorské	-11.2359
první	-11.236
zkoumá	-11.236
▁Lys	-11.2365
▁neví	-11.2368
▁Balkán	-11.2368
▁Kirk	-11.2369
krývají	-11.2371
▁bažin	-11.2371
▁filozofie	-11.2374
▁jednotné	-11.2376
illy	-11.2378
▁zemětřesení	-11.2378
▁karet	-11.2379
▁narozenin	-11.238
▁Silnice	-11.2383
▁důvodem	-11.2383
▁zkušenost	-11.2384
0%	-11.2386
▁Klim	-11.2386
izovaná	-11.2387
▁přátelství	-11.2387
▁ohni	-11.2388
▁cihel	-11.2388
▁sebevraždu	-11.2388
▁bojové	-11.2389
▁těžký	-11.2395
▁filmová	-11.2397
▁soukromých	-11.2397
▁vyrůstal	-11.2397
▁používala	-11.2399
▁José	-11.2399
▁převzat	-11.2402
▁legendy	-11.2403
jar	-11.2405
▁Mount	-11.2405
▁takového	-11.2406
▁Pyr	-11.2406
▁vyznačen	-11.2416
▁kluby	-11.2418
osaurus	-11.2418
▁příští	-11.2419
▁Lidé	-11.2419
▁kritizoval	-11.242
▁Přírodní	-11.242
maz	-11.242
▁Orlicí	-11.2421
▁Leg	-11.2426
▁dopravce	-11.2426
▁XVI	-11.2427
▁Stor	-11.2428
▁1862	-11.2429
▁současného	-11.2429
▁Úřad	-11.2429
▁středověký	-11.2429
▁dolním	-11.2433
▁vikariát	-11.2434
▁zaměřuje	-11.2434
chozí	-11.2434
rian	-11.2436
▁mraz	-11.2437
řecky	-11.2437
lag	-11.2437
▁Rose	-11.2438
jížděl	-11.2439
▁postavené	-11.2439
▁listopad	-11.244
▁svahy	-11.2443
▁vlákn	-11.2443
▁men	-11.2444
▁statistické	-11.2444
čnosti	-11.2445
▁intenzivně	-11.2448
▁elektrárny	-11.2448
▁Ernst	-11.2448
▁čekal	-11.2448
▁Kras	-11.2448
▁čep	-11.2449
▁uhlík	-11.2453
mezi	-11.2453
▁vedené	-11.2454
více	-11.2456
▁Takto	-11.2456
▁narušen	-11.2457
▁františkán	-11.2457
на	-11.246
▁seminář	-11.246
▁přináší	-11.2462
▁poukaz	-11.2463
▁odborník	-11.2463
▁cév	-11.2464
▁týdny	-11.2466
▁svěcení	-11.2467
▁modl	-11.2468
▁Bot	-11.2469
dale	-11.247
▁daném	-11.2471
▁považovány	-11.2471
▁komedie	-11.2471
▁čaj	-11.2473
ikální	-11.2473
▁zeměpis	-11.2474
▁lip	-11.2475
▁Rab	-11.2475
▁rozhodčí	-11.2476
▁podporovat	-11.2476
▁používána	-11.2479
–7	-11.2479
▁prozatím	-11.248
▁Up	-11.248
rap	-11.2481
▁případy	-11.2481
vrhl	-11.2483
▁slovanské	-11.2484
▁vyráběný	-11.2487
▁šlechtický	-11.2489
▁kontextu	-11.249
▁autobusy	-11.249
▁úzké	-11.249
▁semena	-11.2491
▁Rudolfa	-11.2491
▁zánět	-11.2495
eller	-11.25
▁rodném	-11.2501
rick	-11.2501
klin	-11.2501
▁Stří	-11.2503
▁globální	-11.2504
▁jednotlivců	-11.2504
▁Akademii	-11.2504
▁reaktor	-11.2509
▁Mír	-11.2509
šovice	-11.2515
▁záznamy	-11.2516
▁Ott	-11.2516
▁nádvoří	-11.2518
▁Bri	-11.2519
▁Křiž	-11.2519
gia	-11.2519
▁Gon	-11.252
trace	-11.252
▁myst	-11.2521
▁Sid	-11.2521
▁Egyptě	-11.2522
▁ocitl	-11.2527
▁venkovských	-11.2527
▁chtěli	-11.2527
▁provozovatel	-11.2527
▁trup	-11.2529
▁vynález	-11.2529
▁kdyby	-11.2529
▁tvořil	-11.2531
▁poslanecké	-11.2532
▁duševní	-11.2532
▁procesy	-11.2534
▁nesla	-11.2535
▁bývalých	-11.2536
▁přerušen	-11.2538
▁kloub	-11.2539
onne	-11.2543
▁zněl	-11.2543
▁vína	-11.2544
anech	-11.255
▁značnou	-11.2551
▁snížil	-11.2551
▁severního	-11.2551
▁viru	-11.2552
tica	-11.2553
▁public	-11.2554
▁předchozím	-11.2554
plynul	-11.2555
▁příchodu	-11.2555
▁slávy	-11.2556
▁brus	-11.2556
▁Skot	-11.2557
prázdn	-11.2561
které	-11.2562
árie	-11.2563
▁přesídlil	-11.2565
▁Had	-11.2565
krab	-11.2565
▁Ježíše	-11.2567
▁orchestru	-11.2569
▁potřebuje	-11.2569
▁Hug	-11.257
▁Mala	-11.2574
▁Oficiální	-11.2574
â	-11.2574
▁Thi	-11.2575
▁mladého	-11.2576
▁čtvrtém	-11.2577
▁jídel	-11.2579
▁vyrostl	-11.2579
cord	-11.258
efekt	-11.2581
▁Sibiř	-11.2584
pálil	-11.2584
▁zobrazen	-11.2586
▁Piet	-11.2586
onia	-11.2586
▁měnit	-11.2586
▁soustředil	-11.2588
duch	-11.259
▁Eng	-11.2592
ivnější	-11.2592
▁zavěšen	-11.2594
▁Gaz	-11.2595
▁Pouze	-11.2597
▁jižního	-11.2597
vaná	-11.2597
▁opyl	-11.26
▁che	-11.26
▁Rub	-11.2601
▁dalekohled	-11.2604
▁kontinent	-11.2605
▁požadavků	-11.2607
▁císařský	-11.2608
učen	-11.2608
▁dělník	-11.2608
▁chrání	-11.261
▁zasahuje	-11.2612
▁domácích	-11.2612
▁mince	-11.2612
trh	-11.2614
toto	-11.2614
▁Západo	-11.2615
vrš	-11.2616
▁struktura	-11.2616
▁vytvoří	-11.2616
▁vlastenec	-11.2617
egypt	-11.2618
▁příbuzné	-11.2619
uška	-11.2621
▁emigroval	-11.2621
hlavní	-11.2621
▁stáčí	-11.2631
▁Smetan	-11.2631
▁organizační	-11.2631
▁soustava	-11.2632
▁malém	-11.2634
▁esej	-11.2635
En	-11.2635
▁Gun	-11.2636
▁Steve	-11.2636
▁celých	-11.2637
▁archeologický	-11.2638
úd	-11.2641
▁načež	-11.2641
▁stád	-11.2642
▁planin	-11.2643
▁Cr	-11.2644
▁CHKO	-11.2645
▁přistál	-11.2645
▁obvinění	-11.2645
▁kras	-11.2645
▁masivní	-11.265
▁umírá	-11.2651
▁vápn	-11.2651
▁odraz	-11.2652
▁dát	-11.2654
▁Mexiku	-11.2654
▁doprovázel	-11.2655
ball	-11.2656
▁Clark	-11.2658
▁sleduje	-11.2658
▁kontrast	-11.2658
▁OS	-11.2661
rog	-11.2661
▁spravedlnosti	-11.2661
istka	-11.2662
▁Tony	-11.2665
▁spolupracuje	-11.2668
▁editor	-11.2668
▁tramvaje	-11.2669
▁fotbalová	-11.2672
▁Terez	-11.2673
▁veřejný	-11.2674
oskop	-11.2674
▁Praž	-11.2674
inec	-11.2679
▁hub	-11.268
▁prefektur	-11.2681
▁cestoval	-11.2682
▁rak	-11.2683
▁specifické	-11.2683
▁Dominik	-11.2683
▁hmoty	-11.2683
▁Norman	-11.2684
▁říkal	-11.2684
tional	-11.2686
stoupení	-11.2687
▁Pil	-11.2687
▁stříbro	-11.2687
▁Linux	-11.2687
▁hřbitova	-11.2688
▁remíz	-11.2688
▁ruská	-11.269
▁nalezl	-11.2691
▁úlohu	-11.2691
▁členění	-11.2692
zub	-11.2692
▁Představ	-11.2696
lock	-11.2701
▁čtyřicet	-11.2701
▁přírodověd	-11.2702
▁odchod	-11.2704
▁žlut	-11.2705
▁Ministerstva	-11.2705
vlečen	-11.2706
▁Publi	-11.2706
▁zalesněn	-11.2709
▁obcemi	-11.2709
▁nalezeny	-11.2712
▁přišlo	-11.2715
illi	-11.2716
▁slovenského	-11.2716
▁formátu	-11.2717
▁pochován	-11.2719
▁Nejsvětější	-11.2721
▁zdravotnictví	-11.2721
▁těm	-11.2722
▁Dějiny	-11.2722
▁hrálo	-11.2723
▁Band	-11.2723
▁Lab	-11.2724
▁oko	-11.2724
▁analýzy	-11.2724
▁posloupnost	-11.2726
Á	-11.2726
▁ultra	-11.2726
▁žánru	-11.2727
▁kytaru	-11.2728
oranž	-11.2728
▁uvolněn	-11.2729
▁juniorů	-11.273
▁vznikající	-11.2731
▁Svoboda	-11.2732
bíhá	-11.2732
El	-11.2733
erova	-11.2735
▁rozvinut	-11.2735
▁81	-11.2739
▁Klo	-11.2739
▁zlata	-11.274
▁Největším	-11.2741
▁bos	-11.2741
▁těsné	-11.2741
▁časopisů	-11.2742
▁typicky	-11.2743
▁serveru	-11.2743
▁neúspěch	-11.2745
▁dceři	-11.2745
▁vyzbrojen	-11.2745
▁frontě	-11.2748
orum	-11.2751
▁dvojici	-11.2751
▁ohrožení	-11.2752
▁opevněn	-11.2755
▁Řecka	-11.2755
bern	-11.2755
*	-11.2756
▁His	-11.2757
▁99	-11.2759
▁vévodství	-11.2759
▁mnozí	-11.2759
Počet	-11.2762
▁zjistit	-11.2764
▁známy	-11.2765
▁Vasil	-11.2768
rij	-11.2768
▁Wagner	-11.2769
▁Městě	-11.2769
CD	-11.2772
▁umístěný	-11.2773
▁Římané	-11.2774
▁usiloval	-11.2774
▁Hoře	-11.2776
▁soukromý	-11.2778
▁vedena	-11.2779
▁scénáře	-11.278
▁slovenských	-11.2782
DE	-11.2783
▁oblíbené	-11.2784
▁řeči	-11.2785
zdušn	-11.2785
trus	-11.2787
▁dívky	-11.2788
▁Jacques	-11.2789
▁1865	-11.2789
▁jiní	-11.2789
▁tvrdé	-11.279
▁homo	-11.279
▁narazil	-11.2792
▁iont	-11.2792
▁komponent	-11.2793
▁najde	-11.2794
vázal	-11.2797
▁Space	-11.2797
▁ztratila	-11.2797
▁Australian	-11.2798
▁Thé	-11.2798
▁rozhlasu	-11.28
▁Lil	-11.2801
▁Navzdory	-11.2802
▁Moskvy	-11.2802
▁vytvořené	-11.2803
tvořil	-11.2803
▁letecký	-11.2804
▁návštěvníků	-11.2804
▁muzikál	-11.2804
▁Gö	-11.2804
▁přístroje	-11.2805
▁užití	-11.2807
berger	-11.2807
▁tzn	-11.2808
istického	-11.2808
▁nastupoval	-11.2811
kult	-11.2811
▁všeobecně	-11.2812
▁Fischer	-11.2812
▁škody	-11.2813
▁hornat	-11.2813
▁kolonií	-11.2817
wick	-11.2817
▁pohraniční	-11.2818
▁zelený	-11.2823
ovskou	-11.2826
▁chtějí	-11.2826
▁letectvo	-11.2826
▁jednoduše	-11.2826
▁sklep	-11.2827
▁Měsíc	-11.2829
▁ziskem	-11.283
Vý	-11.283
▁vyjadř	-11.2833
▁snažili	-11.2834
▁snižuje	-11.2836
▁umožňující	-11.2837
kow	-11.2837
▁senát	-11.2839
▁úspěchů	-11.284
trhl	-11.2841
▁nejvýznamnějším	-11.2841
▁vysokoškolský	-11.2841
▁éry	-11.2842
▁červ	-11.2844
▁publikací	-11.2844
▁produktů	-11.2846
▁tvůrce	-11.2846
▁prodalo	-11.2847
▁udržet	-11.285
▁archeologické	-11.2851
▁živočich	-11.2856
▁radu	-11.286
ečku	-11.2861
▁Šest	-11.2864
▁pokročil	-11.2865
enzi	-11.2866
hausen	-11.2867
polis	-11.2867
▁jazykové	-11.2869
▁výrok	-11.2871
istor	-11.2871
▁vrcholy	-11.2872
▁biskupství	-11.2873
šperk	-11.2874
▁určuje	-11.2875
▁snímky	-11.2876
ego	-11.2876
▁středního	-11.2877
▁Cru	-11.2881
▁krátko	-11.2885
▁svatý	-11.2886
▁Athén	-11.2887
▁květů	-11.2887
bývat	-11.2887
▁5000	-11.2888
▁červeno	-11.2888
▁půdu	-11.2888
▁nemohou	-11.2889
▁Cyril	-11.2889
zvuk	-11.2891
▁varhan	-11.2891
▁Urban	-11.2892
▁stupňů	-11.2894
▁pohybují	-11.2894
▁Rh	-11.2896
oxid	-11.2899
▁přijde	-11.2899
▁nevýhod	-11.2899
▁Austral	-11.2903
▁zničena	-11.2904
▁Que	-11.2904
▁přemístěn	-11.2909
lg	-11.2909
▁spojeny	-11.291
▁Live	-11.2911
▁SC	-11.2911
▁Kurt	-11.2912
▁společenských	-11.2912
▁hrozí	-11.2914
▁vzniknout	-11.2916
tamin	-11.2916
▁vodo	-11.2916
▁národnostní	-11.2916
▁sehrál	-11.2919
▁Queen	-11.2919
▁dokumenty	-11.292
▁Victor	-11.2922
▁Avi	-11.2922
▁objevili	-11.2923
▁ohraničen	-11.2923
▁Krumlov	-11.2923
▁Mysl	-11.2924
▁nejlepšího	-11.2924
▁zapsal	-11.2927
▁Strom	-11.293
▁záliv	-11.2932
▁VIII	-11.2932
▁odkazuje	-11.2934
▁obří	-11.2937
▁Trenčín	-11.2938
▁Tatra	-11.2941
▁pomocný	-11.2942
▁Hil	-11.2942
▁zobrazuje	-11.2943
▁připomínající	-11.2945
nell	-11.2945
▁schopný	-11.2945
▁říci	-11.2949
roc	-11.2951
▁tabulce	-11.2952
▁styku	-11.2952
▁mechanik	-11.2953
ácké	-11.2954
▁dělal	-11.2956
exist	-11.2956
▁obydlen	-11.2957
▁prošla	-11.2957
▁palub	-11.2958
▁suché	-11.2958
▁Day	-11.2959
▁tvrze	-11.2961
▁celkovém	-11.2961
▁počítačů	-11.2961
▁Ferr	-11.2961
EM	-11.2961
vln	-11.2961
▁silným	-11.2961
▁výhře	-11.2962
▁Andrew	-11.2963
▁mužstvo	-11.2964
▁Lhota	-11.2965
manžel	-11.2965
jád	-11.2966
nuté	-11.2967
▁šéfredaktor	-11.2967
▁luk	-11.2968
▁šifr	-11.2969
šování	-11.297
▁komunikací	-11.2972
chůd	-11.2973
▁proběhly	-11.2973
▁Cher	-11.2974
▁umístila	-11.2975
▁Objevil	-11.2976
▁čisté	-11.2976
▁dozvěděl	-11.2977
▁pracovníků	-11.2979
může	-11.2979
▁Starého	-11.298
▁kosti	-11.298
town	-11.2982
▁generálním	-11.2982
▁známou	-11.2982
▁zúčastnila	-11.2985
▁Wol	-11.2987
▁magnetické	-11.2992
▁sportovních	-11.2993
▁Vznikla	-11.2996
▁pozic	-11.2998
▁Litoměřic	-11.2999
▁víkend	-11.3001
▁vyhořel	-11.3002
árnu	-11.3002
abilita	-11.3002
komun	-11.3003
cast	-11.3007
▁André	-11.3008
▁nádor	-11.3008
▁vojenským	-11.3008
▁soubory	-11.3009
jazyčn	-11.3011
▁umožněn	-11.3011
fol	-11.3012
onos	-11.3013
▁ruku	-11.3014
▁kanóny	-11.3014
Pan	-11.3014
▁Cent	-11.3016
▁vysílal	-11.3017
metrické	-11.3017
▁Měsíce	-11.3019
▁wa	-11.3019
rám	-11.3021
▁silnou	-11.3021
OV	-11.3021
▁rakouského	-11.3022
Th	-11.3023
iniho	-11.3024
▁investic	-11.3026
▁vydávání	-11.3027
▁Belgii	-11.3027
▁jednotkami	-11.3028
▁rozšířila	-11.3029
▁plánů	-11.303
CE	-11.3031
▁bojovat	-11.3032
▁žádal	-11.3032
měna	-11.3032
▁střely	-11.3032
▁příčce	-11.3033
taci	-11.3034
▁nejspíše	-11.3035
▁mocnost	-11.3037
▁členství	-11.3037
▁měnil	-11.3038
▁rabín	-11.3038
tvrz	-11.3039
▁střediskem	-11.3041
▁vítězné	-11.3041
▁Stanley	-11.3042
▁největšího	-11.3043
cor	-11.3043
▁dělá	-11.3045
▁sestoupil	-11.3046
▁přijala	-11.3049
▁průzkumu	-11.3049
▁export	-11.305
▁přejmenoval	-11.305
pekul	-11.3051
▁jihozápadním	-11.3051
covité	-11.3051
▁zničit	-11.3056
▁pirát	-11.3057
▁různým	-11.3057
▁hustě	-11.3058
▁koleje	-11.3058
▁Hugo	-11.3058
▁fan	-11.3059
▁Gh	-11.306
▁turistů	-11.306
▁zabránil	-11.3061
▁sjezdu	-11.3062
německý	-11.3062
▁průliv	-11.3063
▁mrtvé	-11.3063
▁klan	-11.3064
▁vysílán	-11.3065
▁rozvíjel	-11.3065
▁vrah	-11.3067
▁tamtéž	-11.3069
▁zmínky	-11.3071
▁lidská	-11.3071
▁pyr	-11.3072
▁telefonní	-11.3072
▁kouř	-11.3073
▁Pochází	-11.3073
▁Termín	-11.3073
▁osazen	-11.3074
ovacího	-11.3075
ragon	-11.3075
pak	-11.3076
▁ukazují	-11.3079
▁svatých	-11.308
▁olomoucké	-11.308
▁funkcionář	-11.308
▁cvičení	-11.308
čou	-11.308
▁průchod	-11.3084
▁čeleď	-11.3084
▁Google	-11.3085
▁Masters	-11.3085
▁Wald	-11.3089
▁příslušný	-11.309
▁reprezentuje	-11.309
▁Napsal	-11.3091
dělí	-11.3091
žije	-11.3093
padají	-11.3094
inského	-11.3094
▁Ost	-11.3095
For	-11.3096
▁ozbrojen	-11.3097
▁Filozofické	-11.3097
▁Strany	-11.3098
žít	-11.3099
▁rodiči	-11.3101
▁maďar	-11.3102
▁brání	-11.3106
sser	-11.3107
▁Web	-11.3107
▁konstrukcí	-11.311
▁omezené	-11.311
trof	-11.3111
▁drobných	-11.3114
▁spisovatelů	-11.3114
▁oběť	-11.3116
mistr	-11.3116
▁Arg	-11.3116
▁Oscara	-11.3117
pomenut	-11.3117
▁pluk	-11.3118
způsob	-11.3119
▁sestaven	-11.312
▁přinesla	-11.312
▁Jacob	-11.3123
▁důl	-11.3123
▁změnou	-11.3126
▁Text	-11.3127
▁nejsilnější	-11.313
▁vědci	-11.313
▁Awards	-11.3134
▁uznal	-11.3134
▁zveřejnil	-11.3135
▁předpokládal	-11.3135
▁nejslavnější	-11.3135
▁hlavě	-11.3137
▁Ústavu	-11.3138
▁výstavě	-11.3138
park	-11.3139
▁chodil	-11.3139
▁plech	-11.3139
řeč	-11.314
▁sporů	-11.3141
▁vybavena	-11.3141
▁Mit	-11.3144
▁naučil	-11.3144
▁egyptské	-11.3144
▁ledvin	-11.3146
▁platil	-11.3147
▁trvalé	-11.3147
ulf	-11.3149
▁bratří	-11.315
▁komentář	-11.315
▁Barcelon	-11.3152
▁Line	-11.3152
▁porosty	-11.3152
▁uvedla	-11.3153
▁Singl	-11.3154
board	-11.3157
▁hodnotě	-11.3157
měrné	-11.3158
▁Začátkem	-11.316
DR	-11.316
▁Celkově	-11.316
▁MP	-11.3161
▁konzervatoř	-11.3162
▁Pojem	-11.3162
▁Hub	-11.3165
praven	-11.3167
▁konzol	-11.3167
▁Beck	-11.3168
▁Wild	-11.3168
▁Např	-11.3168
▁zachránit	-11.3169
▁branek	-11.317
▁vyrobil	-11.317
▁Obecně	-11.317
stupují	-11.3171
▁Zápas	-11.3172
▁Baj	-11.3173
hib	-11.3174
▁bohů	-11.3176
▁stavů	-11.3177
run	-11.3177
▁3:0	-11.3178
_5	-11.3178
▁zasažen	-11.318
chránil	-11.3181
▁obnovit	-11.3182
place	-11.3185
ásek	-11.3185
▁dohodl	-11.3186
▁začít	-11.3187
▁miliardy	-11.3187
▁konání	-11.3189
▁širokou	-11.3192
▁dalšímu	-11.3192
▁Mis	-11.3193
▁klasický	-11.3193
▁dílny	-11.3193
▁letišti	-11.3199
▁zřícenin	-11.3199
▁zásluh	-11.32
▁půdorys	-11.32
▁inspirován	-11.3205
▁důchodu	-11.3205
▁kategorií	-11.3207
▁prales	-11.3207
icus	-11.3208
▁Heřman	-11.321
▁dvacátého	-11.3211
▁připojena	-11.3212
▁punk	-11.3213
▁vyvíjel	-11.3215
▁Věr	-11.3215
▁bohyně	-11.3215
problemati	-11.3219
▁Lewis	-11.322
▁Augusta	-11.322
▁Oblastní	-11.3222
▁suchý	-11.3224
onie	-11.3224
▁monitor	-11.3225
▁Pramení	-11.3225
▁triumf	-11.3227
▁Tibet	-11.3227
▁Javor	-11.3228
▁složené	-11.323
▁Svato	-11.323
píše	-11.3231
▁souhlasil	-11.3232
▁Mgr	-11.3232
▁teplotě	-11.3234
▁hranicí	-11.3235
▁blesk	-11.3236
pás	-11.3236
RE	-11.3242
▁zázemí	-11.3245
▁odmítnut	-11.3246
sburg	-11.3246
▁Biskup	-11.3246
▁kapele	-11.3247
▁zakladatelem	-11.3248
▁polární	-11.3249
▁modelů	-11.325
▁Leonard	-11.3252
▁doktora	-11.3252
dža	-11.3252
▁rozporu	-11.3255
▁čtrnácti	-11.3256
▁forem	-11.3258
▁stříbrný	-11.326
▁přítele	-11.3264
▁odstoupil	-11.3264
▁Bron	-11.3264
▁studiem	-11.3264
SI	-11.3264
▁hluboko	-11.3265
▁pozemků	-11.3265
▁Hudební	-11.3265
láh	-11.3265
▁hasič	-11.3265
organ	-11.3266
▁celková	-11.3267
▁Championship	-11.327
▁příchodem	-11.327
▁Augustin	-11.327
▁Ath	-11.327
▁publikace	-11.3273
áčka	-11.3274
▁kontinentální	-11.3274
▁východních	-11.3275
▁ruka	-11.3275
▁tajemníkem	-11.3278
▁Firma	-11.3278
▁podvod	-11.3278
▁lys	-11.328
▁naplněn	-11.3281
▁senátu	-11.3281
▁dominant	-11.3284
▁Polák	-11.3284
uld	-11.3285
▁vnitrozemí	-11.3285
▁široká	-11.3285
▁Matyáš	-11.3285
▁herectví	-11.3286
▁tito	-11.3289
▁úvěr	-11.329
▁Alžběta	-11.329
▁stoupá	-11.3293
▁dělostřeleck	-11.3295
▁témata	-11.3295
▁jednotkou	-11.3297
▁rozklad	-11.3297
▁Maďarska	-11.3298
▁krev	-11.3299
▁manželku	-11.3299
▁povídky	-11.33
▁oběhu	-11.33
▁plastik	-11.3302
▁Prince	-11.3303
▁Svazu	-11.3305
▁potíže	-11.3305
▁obdiv	-11.3307
▁nacházely	-11.3309
▁bicí	-11.331
▁Teplice	-11.3311
▁Gan	-11.3311
národní	-11.3313
ografii	-11.3313
▁udržoval	-11.3316
anského	-11.3317
▁Frei	-11.3319
▁litoměřické	-11.332
▁úkoly	-11.3321
▁82	-11.3322
▁časové	-11.3323
▁dokumentu	-11.3323
▁hledá	-11.3324
▁francouzskou	-11.3324
▁přednášel	-11.3325
▁Křesťan	-11.3325
▁Raj	-11.3326
▁rozděleno	-11.3326
RC	-11.3327
staví	-11.3327
tions	-11.3327
▁pozorovat	-11.333
▁próz	-11.333
▁správně	-11.333
▁fotbalovou	-11.333
▁závor	-11.3331
▁jmenování	-11.3333
▁Žižkov	-11.3333
▁Nepomuckého	-11.3335
▁rajón	-11.3336
▁australské	-11.334
▁územně	-11.3341
▁užíván	-11.3343
▁sovětských	-11.3345
▁odvozeno	-11.3346
▁Většinou	-11.3346
▁botanick	-11.3346
▁popř	-11.3347
▁vyšly	-11.3348
▁vybaveny	-11.3351
▁umístěno	-11.3351
▁Budějovicích	-11.3352
▁následovala	-11.3353
▁Týn	-11.3355
▁prokázal	-11.3355
▁raději	-11.3356
▁přijata	-11.3358
▁Barbar	-11.3359
▁Hned	-11.336
▁ohlas	-11.3361
▁Trojice	-11.3361
▁obdélník	-11.3361
horn	-11.3368
range	-11.3369
erman	-11.3372
GB	-11.3373
▁Prezident	-11.3376
▁dával	-11.3376
gni	-11.3378
▁facto	-11.338
▁Lokomotiv	-11.3381
▁olympijskou	-11.3381
východní	-11.3382
moravské	-11.3383
šťan	-11.3384
▁případné	-11.3387
▁junior	-11.3389
▁vozem	-11.3389
▁Objev	-11.3389
▁Camp	-11.3391
▁fragment	-11.3391
▁zjištěn	-11.3393
▁Bul	-11.3393
▁kostelů	-11.3394
▁evropském	-11.3396
▁obličej	-11.3397
▁psychiatr	-11.3397
▁Kavkaz	-11.3397
▁buddhist	-11.3397
▁podobných	-11.3397
▁Wilson	-11.3399
▁Dušan	-11.3399
▁současných	-11.3399
▁třiceti	-11.34
▁provádět	-11.3401
▁neutrální	-11.3402
▁Mongolsk	-11.3402
▁KDU	-11.3407
▁operu	-11.341
▁navzdory	-11.3412
TO	-11.3412
▁prudce	-11.3412
▁vánoční	-11.3412
▁šestnácti	-11.3413
▁Thor	-11.3414
plác	-11.3415
▁mešit	-11.3418
ografické	-11.3419
▁nároky	-11.342
▁porazila	-11.3421
▁Věd	-11.3421
▁fotoaparát	-11.3422
▁buk	-11.3422
měš	-11.3422
jímal	-11.3424
▁bojích	-11.3425
lička	-11.3425
▁nahradit	-11.3426
▁zamířil	-11.3427
▁Historic	-11.343
▁Stroj	-11.343
▁vyhlášeno	-11.3431
bírat	-11.3432
▁ostro	-11.3433
▁vrácen	-11.3433
▁akční	-11.3438
▁úzký	-11.3438
▁Steven	-11.344
▁osobním	-11.344
▁alternativ	-11.3442
▁fen	-11.3442
▁hostin	-11.3442
▁knížecí	-11.3442
▁Premier	-11.3443
▁otázka	-11.3443
▁katedrály	-11.3443
▁stránek	-11.3445
▁protektorát	-11.3448
▁Manchester	-11.3448
▁odboje	-11.3448
▁čestné	-11.345
těj	-11.345
▁volném	-11.3451
▁odešla	-11.3453
▁polských	-11.3453
▁krátkém	-11.3455
▁tvořící	-11.3457
tari	-11.3458
▁záznamů	-11.3459
nechá	-11.346
▁motýl	-11.3463
▁pronikl	-11.3465
▁návrhy	-11.3466
▁náhradní	-11.3469
▁vláken	-11.3469
▁Region	-11.3469
▁vzestup	-11.347
▁přesvědčení	-11.3471
▁agentury	-11.3475
▁69	-11.3476
▁záložní	-11.3477
▁Dav	-11.3477
▁srážek	-11.3479
▁dotaz	-11.3479
▁End	-11.3483
▁dekor	-11.3485
▁systémech	-11.3489
▁kovů	-11.349
▁lékaře	-11.3491
▁sídlící	-11.3491
▁domácího	-11.3491
▁Bejt	-11.3494
▁lázeň	-11.3494
PL	-11.3494
▁terén	-11.3496
▁Skládá	-11.3498
▁Alfons	-11.3499
▁Modr	-11.3501
▁zasedl	-11.3503
▁zvony	-11.3503
▁tvořila	-11.3503
▁Vodní	-11.3505
Cha	-11.3509
▁Pin	-11.3511
▁Klatov	-11.3512
▁nosič	-11.3513
▁povolán	-11.3514
▁Stefan	-11.3515
▁dospělé	-11.3516
▁samostatných	-11.3517
▁zoolog	-11.3517
▁housle	-11.352
▁republikán	-11.3522
ujeme	-11.3524
▁značk	-11.3524
vier	-11.3524
nář	-11.3525
▁Leh	-11.3525
▁latinského	-11.3525
▁Bůh	-11.3526
▁šíp	-11.3526
org	-11.3528
▁odpovídal	-11.3531
▁Švýcar	-11.3531
▁účelům	-11.3531
▁vypracoval	-11.3532
▁Terezie	-11.3536
▁Švýcarska	-11.3537
▁liberál	-11.354
▁československá	-11.354
▁raketoplánu	-11.3542
▁signálu	-11.3543
propag	-11.3544
▁atmosféry	-11.3546
ovnou	-11.3546
▁stejnojmenného	-11.3547
▁amatér	-11.3548
▁Sokolov	-11.3552
▁trvání	-11.3553
▁odpovědnost	-11.3555
▁Dvě	-11.3556
▁vysvětlení	-11.3556
▁Starší	-11.3556
▁Divadlo	-11.3556
▁déle	-11.3556
▁sledovat	-11.3557
▁Hab	-11.3561
–2	-11.3561
▁patrné	-11.3561
▁granát	-11.3561
▁finálové	-11.3566
▁taxon	-11.3567
▁ekonomiky	-11.3568
hrát	-11.3569
fir	-11.3571
▁kultuře	-11.3572
▁člověkem	-11.3572
▁Valentin	-11.3572
▁dostával	-11.3575
▁170	-11.3575
▁zmíněný	-11.3577
▁ekonomický	-11.3579
▁číslic	-11.3579
▁Toma	-11.3581
▁zažil	-11.3581
haus	-11.3582
▁důležitá	-11.3582
▁rozsáhlá	-11.3582
▁nahrávání	-11.3582
▁panovníka	-11.3583
▁severozápadním	-11.3584
▁dlouholetý	-11.3584
dus	-11.3586
▁Kladno	-11.3587
▁probošt	-11.3587
▁zbaven	-11.3587
véd	-11.3588
▁přirozeně	-11.3588
▁Větší	-11.3589
▁AV	-11.3589
▁Vnitřní	-11.3592
▁tvůrčí	-11.3592
▁Manuel	-11.3594
▁uloženy	-11.3596
▁zastupoval	-11.3597
▁opačné	-11.3598
▁Svitav	-11.3598
▁Dům	-11.3599
▁bazén	-11.3599
▁vývojem	-11.3599
test	-11.3601
▁takovém	-11.3602
onfigur	-11.3603
▁ovládal	-11.3604
kev	-11.3605
▁silnicí	-11.3605
▁důležitý	-11.3606
▁zápor	-11.3607
▁potenciální	-11.3608
▁vikář	-11.3609
▁Cenu	-11.3611
chrom	-11.3611
▁pořádal	-11.3612
▁uskupení	-11.3613
▁úvodním	-11.3617
▁metry	-11.3619
▁zjednodušen	-11.3621
▁jednoznačně	-11.3624
▁majetkem	-11.3624
▁Oxford	-11.3624
▁ohrožen	-11.3624
▁muselo	-11.3625
▁Červené	-11.3626
kluz	-11.3627
▁farním	-11.3628
▁publiku	-11.3629
▁propadl	-11.3631
▁prosazoval	-11.3633
▁vstříc	-11.3635
hraje	-11.3643
▁církevních	-11.3643
harmon	-11.3645
nest	-11.3647
▁spojit	-11.3648
France	-11.3651
▁desce	-11.366
▁příměří	-11.366
–14	-11.3661
agon	-11.3662
▁Ignác	-11.3664
▁rozšířené	-11.3666
▁desek	-11.3666
▁Map	-11.3667
▁Gau	-11.3669
▁ateliér	-11.367
▁zaměstnance	-11.3671
▁poměrem	-11.3671
▁žalob	-11.3673
▁drát	-11.3674
voje	-11.3674
▁uznán	-11.3675
▁Douglas	-11.3676
▁provizorní	-11.3676
-0	-11.3677
▁135	-11.368
▁kladen	-11.368
▁nájem	-11.3681
▁intelektuál	-11.3681
skočil	-11.3682
▁živil	-11.3682
▁tre	-11.3683
▁zavedena	-11.3683
▁mluvící	-11.3684
▁výlet	-11.3685
▁schopností	-11.3685
nutý	-11.3685
▁Seriál	-11.3687
▁sňatku	-11.3687
▁novými	-11.3687
-9	-11.3688
▁běžných	-11.3688
▁vykonává	-11.3688
▁sokol	-11.3689
▁Hockey	-11.3692
▁dosti	-11.3692
▁Time	-11.3696
štejna	-11.3697
▁byzantské	-11.3697
▁lásku	-11.3697
▁Těž	-11.37
▁podílí	-11.37
▁Villa	-11.3701
▁sňatek	-11.3702
▁Taylor	-11.3702
▁astronaut	-11.3708
éhož	-11.3708
▁šedo	-11.3712
stad	-11.3712
▁ovládání	-11.3713
▁věřící	-11.3714
▁with	-11.3714
▁François	-11.3719
▁bránil	-11.3722
▁kaplan	-11.3722
▁stálé	-11.3723
▁Math	-11.3723
▁šupin	-11.3723
▁ikon	-11.3724
rent	-11.3724
▁krajských	-11.3725
▁schopné	-11.3725
▁změnám	-11.3725
její	-11.3727
▁Japonsk	-11.3728
▁životopis	-11.3728
ologická	-11.3729
▁matematiky	-11.3731
▁pól	-11.3732
▁fla	-11.3732
stávající	-11.3733
bíhají	-11.3733
▁Plody	-11.3733
▁1859	-11.3734
▁železné	-11.3735
stor	-11.3737
▁Ted	-11.3738
boha	-11.3738
▁Stephen	-11.3739
zet	-11.3742
III	-11.3743
▁poznal	-11.3743
▁skály	-11.3743
ťan	-11.3746
ivosti	-11.3747
dig	-11.3748
Sta	-11.3748
▁Velkého	-11.3749
▁rytířů	-11.3749
▁nezná	-11.3754
▁pověsti	-11.3754
▁Iráku	-11.3755
ijský	-11.3756
▁Jeruzaléma	-11.3756
ánka	-11.3756
▁zaměřil	-11.3757
▁lovu	-11.3759
▁cisterciá	-11.376
▁infekce	-11.376
▁endo	-11.3761
▁vysílač	-11.3761
▁udělena	-11.3762
▁Konrád	-11.3763
▁jihovýchodním	-11.3765
▁Krkonoš	-11.3766
▁Town	-11.3766
kó	-11.3772
▁kategoriích	-11.3774
fan	-11.3775
▁statky	-11.3775
▁oznámeno	-11.3779
▁režii	-11.3782
ičtější	-11.3782
▁uvedených	-11.3782
▁vypadá	-11.3784
▁výtvarník	-11.3785
specific	-11.3787
▁Vět	-11.3787
▁vydalo	-11.3788
▁sousedství	-11.379
▁lokalita	-11.379
▁obtížné	-11.3792
▁jednoty	-11.3793
▁modrý	-11.3794
▁Bed	-11.3794
▁silnic	-11.3795
▁Big	-11.3796
▁ventil	-11.3797
▁potkal	-11.3797
▁gest	-11.3797
▁Štefan	-11.3797
▁mošav	-11.3797
▁povídek	-11.3797
▁dramaturg	-11.3798
▁učebnic	-11.3801
ovitou	-11.3801
Cor	-11.3802
▁zvlášť	-11.3803
▁PČR	-11.3803
▁opatství	-11.3803
▁uspořádán	-11.3803
▁realizaci	-11.3804
▁administrátor	-11.3805
▁jedenácti	-11.3807
▁debat	-11.3808
▁fází	-11.3809
tehdy	-11.3809
▁doprovázen	-11.3811
▁rohu	-11.3813
▁mimořádný	-11.3813
▁nákladů	-11.3816
▁bombardování	-11.3819
▁evropského	-11.382
▁docent	-11.3821
▁obory	-11.3822
▁Hrub	-11.3823
▁Ass	-11.3823
▁používaly	-11.3823
▁Středozemního	-11.3824
▁General	-11.3824
Har	-11.3824
▁propojení	-11.3827
ка	-11.3828
▁odborný	-11.3829
▁konkurenční	-11.3829
▁soutoku	-11.3829
▁Kong	-11.3831
▁mála	-11.3832
▁Pán	-11.3833
▁Kate	-11.3833
oxy	-11.3834
▁posluchač	-11.3835
▁trvající	-11.3837
▁občanský	-11.3838
▁nějž	-11.3839
▁náhradník	-11.3839
chovává	-11.384
▁Vídeňské	-11.384
▁Intel	-11.3842
wie	-11.3843
▁fyziolog	-11.3845
▁jemuž	-11.3848
▁krajského	-11.385
▁kopií	-11.3852
▁zkráceně	-11.3853
▁Eugen	-11.3854
’-	-11.3855
▁továrna	-11.3856
▁umožnilo	-11.3857
▁značkou	-11.3861
▁zhotov	-11.3863
▁internetové	-11.3864
jímají	-11.3864
ocyt	-11.3864
▁Království	-11.3866
▁posunul	-11.3866
▁podlah	-11.3867
▁schopna	-11.3867
▁Roch	-11.3868
▁kruhu	-11.3868
▁plnění	-11.3868
▁Merc	-11.3869
▁postavili	-11.3869
▁Standard	-11.3877
▁Chod	-11.3878
▁plot	-11.3878
▁Vyš	-11.388
obec	-11.3882
▁Link	-11.3883
▁chuť	-11.3883
▁Hell	-11.3883
▁Soul	-11.3884
pic	-11.3885
▁techniku	-11.3887
▁vystupují	-11.3887
▁technických	-11.3889
▁1800	-11.3889
▁rodák	-11.3889
▁těžkých	-11.389
▁pouhý	-11.3891
▁Karlov	-11.3892
▁ovládá	-11.3893
▁vlhkost	-11.3894
▁hřišti	-11.3894
▁hliník	-11.3894
▁kulat	-11.3895
▁ledního	-11.3898
▁těleso	-11.3898
▁zobák	-11.3899
▁efektivní	-11.3901
takt	-11.3904
▁mapy	-11.3904
▁průkopník	-11.3904
▁jímž	-11.3905
▁vznikaly	-11.3907
kes	-11.3908
▁ozbrojených	-11.3912
stoj	-11.3914
▁zajímavý	-11.3915
▁divadelních	-11.3915
▁náboženský	-11.3916
▁postihl	-11.3917
▁řadách	-11.3918
USA	-11.3918
▁dají	-11.392
▁módní	-11.392
▁definuje	-11.392
▁připravuje	-11.3921
▁obsahovat	-11.3921
▁vlast	-11.3921
▁Děd	-11.3923
▁Fox	-11.3925
▁zpátky	-11.3926
sign	-11.3929
▁přeměněn	-11.3929
▁podezření	-11.3931
▁hvězdokup	-11.3931
▁reagoval	-11.3931
▁center	-11.3934
▁Pět	-11.3934
▁přerušení	-11.3935
itelná	-11.3935
▁šanci	-11.3936
▁Coll	-11.3936
▁prvkem	-11.3937
▁mediální	-11.3938
▁hraní	-11.3941
▁užitečn	-11.3942
▁Vir	-11.3942
▁Čtvrt	-11.3942
▁přípravu	-11.3945
▁primátor	-11.3946
▁účelu	-11.3948
▁dusík	-11.3948
[...]
