<unk>	0
<s>	0
</s>	0
,	-3.14738
.	-3.28077
-	-3.91966
▁der	-3.9708
▁und	-4.09936
▁die	-4.11039
ͤ	-4.22038
en	-4.32943
s	-4.43559
e	-4.47836
▁	-4.51791
/	-4.55083
▁in	-4.61905
▁zu	-4.89316
▁den	-4.90913
n	-4.9507
▁von	-5.12327
▁des	-5.19799
▁das	-5.28007
▁mit	-5.30478
▁ist	-5.41322
▁dem	-5.44264
▁sich	-5.4434
▁ein	-5.45181
▁nicht	-5.46077
▁auf	-5.50545
;	-5.58288
▁er	-5.58343
▁an	-5.62922
t	-5.63234
▁so	-5.63353
er	-5.63558
▁sie	-5.70287
r	-5.76015
▁auch	-5.81726
▁Die	-5.83528
▁als	-5.84103
▁daß	-5.85652
▁im	-5.85696
▁eine	-5.86566
:	-5.87963
▁(	-5.88977
▁es	-5.9514
▁aus	-5.96746
▁durch	-5.97827
es	-6.05232
▁nach	-6.07476
▁werden	-6.09653
▁.	-6.13488
)	-6.15111
▁—	-6.15531
▁man	-6.17781
▁wie	-6.1789
▁für	-6.18405
▁oder	-6.19769
▁aber	-6.25303
▁wird	-6.25528
▁bei	-6.25985
▁ich	-6.31464
m	-6.36107
▁nur	-6.42735
▁sind	-6.42833
▁„	-6.43911
▁ge	-6.44609
▁noch	-6.46566
▁vor	-6.49887
▁ver	-6.51907
▁war	-6.52943
▁hat	-6.54281
▁be	-6.54779
▁u	-6.55927
▁einer	-6.56961
▁Der	-6.61239
▁um	-6.61773
d	-6.66764
▁über	-6.69116
▁zur	-6.71653
▁einen	-6.71711
▁einem	-6.75449
▁welche	-6.75946
▁am	-6.8107
▁wenn	-6.8117
▁zum	-6.81201
▁unter	-6.81547
▁vnd	-6.85841
▁haben	-6.85946
▁da	-6.86655
te	-6.87211
den	-6.87222
▁bis	-6.88502
▁wir	-6.90918
▁sein	-6.91347
▁diese	-6.91679
ung	-6.93665
a	-6.9435
▁dieser	-6.94797
ten	-6.95124
▁Das	-6.96598
de	-6.97038
▁Ver	-7.00254
▁Er	-7.01508
!	-7.03717
▁gegen	-7.04871
¬	-7.05679
▁mehr	-7.06403
i	-7.07733
ber	-7.08015
▁a	-7.08359
▁kann	-7.10017
l	-7.10474
▁Es	-7.11436
?	-7.12596
▁Be	-7.12676
▁was	-7.13336
ge	-7.13549
▁Ein	-7.15005
▁fu	-7.15113
▁1	-7.15597
▁A	-7.15705
▁wurde	-7.17067
o	-7.18165
▁ab	-7.18505
▁Ge	-7.19912
▁ihm	-7.1995
st	-7.20069
▁selbst	-7.20363
g	-7.22506
▁sehr	-7.22842
▁doch	-7.22858
▁seine	-7.23016
▁alle	-7.23151
▁vom	-7.23376
▁2	-7.23539
▁S	-7.23665
▁In	-7.26042
▁An	-7.26114
h	-7.26654
▁ihr	-7.27106
▁Zeit	-7.30037
▁dann	-7.30877
▁Sie	-7.31387
▁hatte	-7.3317
▁bey	-7.33492
▁mir	-7.34186
▁schon	-7.35449
▁eines	-7.36182
▁uns	-7.38572
sten	-7.39064
u	-7.39103
▁wieder	-7.39231
▁ihre	-7.39319
▁nun	-7.40887
▁seiner	-7.41442
▁sondern	-7.42343
▁wo	-7.42497
▁also	-7.42703
▁B	-7.44153
▁viel	-7.44519
▁ohne	-7.45322
▁4	-7.46225
gen	-7.46584
et	-7.47408
“	-7.47553
▁k	-7.48489
▁I	-7.48834
em	-7.49796
▁ko	-7.49871
▁ihn	-7.49921
re	-7.50086
ste	-7.50343
▁hier	-7.51803
▁de	-7.53535
▁du	-7.53546
▁mich	-7.54056
b	-7.55058
ck	-7.552
k	-7.55382
▁muß	-7.5594
▁So	-7.56153
▁O	-7.56264
▁6	-7.564
▁seyn	-7.56452
’	-7.58108
▁Aus	-7.59159
▁dieses	-7.60443
▁weil	-7.60898
▁d	-7.61386
▁5	-7.6241
▁un	-7.62764
▁dass	-7.64122
us	-7.64149
▁Und	-7.6416
be	-7.65183
▁wohl	-7.65533
▁ihrer	-7.69146
f	-7.69336
▁2.	-7.6984
▁v	-7.7022
▁Vor	-7.70305
▁soll	-7.70371
▁3	-7.70406
▁Ab	-7.7055
'	-7.71023
▁=	-7.71045
▁gleich	-7.71064
▁Ko	-7.71399
in	-7.71815
▁1.	-7.71971
2	-7.71973
▁diesem	-7.72052
▁worden	-7.7213
▁M	-7.72879
▁m	-7.73001
▁Auf	-7.74122
▁ha	-7.74645
▁waren	-7.74715
▁ganz	-7.75169
ß	-7.76132
▁denn	-7.76764
▁H	-7.7725
▁diesen	-7.78181
der	-7.79147
▁auff	-7.79236
▁Da	-7.79954
ssen	-7.80045
▁seinen	-7.8012
▁andern	-7.80166
lich	-7.80403
▁zwei	-7.81145
▁E	-7.81528
▁ob	-7.82186
▁wurden	-7.82241
▁habe	-7.82487
▁Von	-7.82597
▁allen	-7.82847
▁immer	-7.84306
um	-7.84503
▁keine	-7.85652
▁K	-7.8623
▁können	-7.87179
ch	-7.87389
▁ent	-7.88343
▁wu	-7.88374
▁lassen	-7.88794
▁Art	-7.89082
▁gar	-7.89168
z	-7.89327
ter	-7.89975
▁zwischen	-7.90004
▁Man	-7.90177
chen	-7.90602
▁Wasser	-7.91759
ne	-7.91824
▁wa	-7.92872
▁la	-7.93196
▁welcher	-7.93404
▁Zu	-7.93684
▁8	-7.9452
1	-7.9456
▁3.	-7.94752
▁C	-7.95427
▁seinem	-7.95619
▁andere	-7.95624
la	-7.95755
▁daher	-7.95982
c	-7.96028
▁gen	-7.96404
▁eben	-7.96411
▁s	-7.96945
▁o	-7.97172
ren	-7.97347
is	-7.97435
▁b	-7.98095
▁Nach	-7.98643
▁ihnen	-7.98789
▁aller	-7.98879
▁solche	-7.99282
▁Mann	-7.99627
▁ihren	-7.9988
▁Mit	-8.00045
▁mu	-8.00739
▁machen	-8.01247
▁10	-8.0171
▁dessen	-8.01805
▁Artillerie	-8.02086
▁Armee	-8.02318
▁Welt	-8.02335
ma	-8.02627
▁0	-8.03136
ischen	-8.03282
▁Nr	-8.03787
le	-8.04607
▁ja	-8.04631
▁sei	-8.04822
ver	-8.04981
▁Wie	-8.05027
▁Menschen	-8.05531
).	-8.05635
—	-8.06386
▁etwas	-8.06446
y	-8.0711
▁Bei	-8.07234
5	-8.07322
▁nichts	-8.07374
▁damit	-8.07413
▁welches	-8.08182
▁V	-8.08285
▁II	-8.08485
▁hin	-8.08977
▁Diese	-8.09555
nnen	-8.09867
▁alles	-8.10139
▁Ma	-8.10261
▁allein	-8.10271
▁Jahre	-8.10274
▁P	-8.10394
▁L	-8.10764
nde	-8.10881
se	-8.11124
▁7	-8.1121
▁ersten	-8.11802
▁kein	-8.11969
an	-8.12041
▁will	-8.1209
▁erst	-8.12707
▁mo	-8.12772
▁ho	-8.12823
▁Hand	-8.13224
▁beim	-8.13532
he	-8.13591
na	-8.13913
▁Un	-8.14221
.)	-8.14648
▁je	-8.14728
▁Unter	-8.14917
▁mein	-8.15441
ta	-8.161
3	-8.16745
▁G	-8.16891
▁Feuer	-8.16921
▁zwar	-8.17284
▁Wenn	-8.17301
▁kommen	-8.17364
▁her	-8.17919
▁Ha	-8.18049
▁bald	-8.18617
▁Kriegs	-8.18677
▁weit	-8.19181
▁Haupt	-8.19194
▁kan	-8.19693
▁Im	-8.20024
▁Ich	-8.20561
igen	-8.20681
▁z	-8.20858
▁c	-8.20905
sse	-8.211
▁während	-8.21743
▁Fig	-8.21939
▁4.	-8.22057
li	-8.22092
▁ten	-8.22365
p	-8.22434
ungen	-8.22757
▁wenig	-8.22888
▁sey	-8.23152
▁D	-8.23732
heit	-8.2395
▁La	-8.25015
▁Am	-8.25148
▁9	-8.25391
),	-8.25913
▁beiden	-8.26035
▁Um	-8.27061
▁gut	-8.27164
▁W	-8.27236
▁Gott	-8.27729
nden	-8.27813
▁Luft	-8.27887
▁Truppen	-8.27897
A	-8.27958
▁Aber	-8.28238
sch	-8.28555
▁Natur	-8.28743
▁Infanterie	-8.2886
ra	-8.29276
zu	-8.29544
▁Fu	-8.29709
▁§.	-8.29968
▁großen	-8.3025
▁Leben	-8.30262
amp	-8.30305
▁Du	-8.30666
▁zusammen	-8.30708
▁J	-8.31159
▁Re	-8.31214
▁»	-8.31502
S	-8.31514
▁12	-8.31602
E	-8.31742
▁geben	-8.31846
▁Weise	-8.31993
▁gewesen	-8.32473
▁p	-8.33141
▁derselben	-8.33146
ka	-8.3346
v	-8.33668
▁Land	-8.33805
▁Uber	-8.33887
▁zurück	-8.34299
▁konnte	-8.34381
cken	-8.34522
▁Grund	-8.34827
▁drei	-8.34965
▁15	-8.35135
ische	-8.36209
tte	-8.36695
nen	-8.3681
▁wol	-8.37633
▁denen	-8.37667
▁Ho	-8.3787
▁meine	-8.38035
▁Theil	-8.3813
▁R	-8.38424
▁wegen	-8.38482
▁Als	-8.38724
w	-8.38755
▁Seite	-8.38839
▁lange	-8.39147
▁einige	-8.39819
ig	-8.40162
x	-8.41004
0	-8.41005
▁Ka	-8.41047
▁werde	-8.41141
ben	-8.41294
▁jetzt	-8.41439
▁recht	-8.4157
▁Jch	-8.42054
▁Eine	-8.42304
▁jedoch	-8.42323
▁fast	-8.42724
▁sehen	-8.4321
▁Auch	-8.43382
▁etwa	-8.43896
▁leicht	-8.44014
al	-8.44294
▁Wir	-8.44555
▁sollen	-8.44828
▁Ende	-8.44867
▁Was	-8.45131
▁Wien	-8.45282
▁Korps	-8.4544
▁&	-8.46756
▁weiter	-8.46906
▁jeder	-8.47357
schen	-8.47504
nd	-8.47552
8	-8.47664
th	-8.4805
▁gemacht	-8.48178
▁Mittel	-8.48224
rde	-8.48839
▁Sa	-8.49259
▁finden	-8.49283
ster	-8.49351
▁Feld	-8.49406
▁F	-8.49488
▁nen	-8.49579
mm	-8.49644
▁oft	-8.5015
▁Herr	-8.50676
▁5.	-8.50896
▁hatten	-8.51391
▁besonders	-8.51566
lt	-8.51609
▁fort	-8.5184
▁T	-8.52178
▁Jn	-8.52285
▁ihrem	-8.52813
▁wollen	-8.53312
lo	-8.53667
lichen	-8.5383
▁davon	-8.53954
4	-8.54059
▁ganze	-8.54076
▁Ro	-8.54306
▁20	-8.54358
▁neue	-8.54387
▁solchen	-8.54459
▁Ba	-8.54763
▁einander	-8.54864
no	-8.55113
▁wer	-8.55404
▁große	-8.55406
▁Durch	-8.55507
▁auß	-8.55949
9	-8.56071
▁müssen	-8.56295
ur	-8.56414
▁lich	-8.56662
▁Su	-8.56827
▁Buch	-8.56874
▁na	-8.57091
▁Tage	-8.57107
it	-8.57139
▁re	-8.57244
ha	-8.57253
▁dadurch	-8.57266
▁vier	-8.57397
▁Jahr	-8.57411
▁Form	-8.57748
▁h	-8.58062
▁Stadt	-8.58461
▁Augen	-8.59555
rt	-8.59677
tz	-8.59699
▁kam	-8.59788
▁erhalten	-8.59953
▁wann	-8.59984
▁jene	-8.60051
▁bereits	-8.60245
▁III	-8.6043
▁halten	-8.60455
▁Bo	-8.612
▁Denn	-8.61224
▁anderen	-8.61378
▁wäre	-8.61414
ner	-8.6152
B	-8.6179
▁welchen	-8.61949
▁sollte	-8.62207
▁endlich	-8.62493
O	-8.62569
cke	-8.62863
▁sonst	-8.63094
▁N	-8.63116
chte	-8.63327
da	-8.63416
her	-8.63478
▁scho	-8.63928
);	-8.64441
hr	-8.64465
hren	-8.646
▁l	-8.64624
▁darauf	-8.6467
.“	-8.64711
▁erste	-8.6487
▁6.	-8.64993
ern	-8.65215
6	-8.65306
▁stehen	-8.65358
▁macht	-8.65684
▁Seiten	-8.65716
▁vnnd	-8.65948
wa	-8.65983
▁Lage	-8.66263
▁indem	-8.66525
▁Bau	-8.66626
▁Kraft	-8.66877
▁Z	-8.66962
▁Nacht	-8.67027
▁seines	-8.67155
sa	-8.67189
▁dir	-8.67488
ro	-8.6756
▁lang	-8.67594
▁neuen	-8.67798
▁weiß	-8.67812
▁ganzen	-8.67891
▁deß	-8.67909
▁ma	-8.67913
▁hinter	-8.6816
▁Ra	-8.682
▁8.	-8.68514
to	-8.68596
▁sagen	-8.68643
▁50	-8.68704
▁Bu	-8.68751
mann	-8.68809
liche	-8.68833
▁Kampf	-8.68864
▁Eisen	-8.69249
tten	-8.6966
gt	-8.69929
▁Ja	-8.70095
▁16	-8.70119
▁wider	-8.70368
▁Teil	-8.70689
▁nehmen	-8.70705
▁einmal	-8.70789
▁30	-8.70976
▁dich	-8.70992
K	-8.71025
▁weniger	-8.71437
▁seit	-8.71487
▁Liebe	-8.71492
▁Für	-8.71499
che	-8.71523
▁ter	-8.71864
ein	-8.71978
▁deutschen	-8.72252
▁würde	-8.7273
▁alten	-8.72746
▁dort	-8.72757
▁thun	-8.73004
▁f	-8.73058
ige	-8.73271
▁fa	-8.73398
▁i	-8.7412
ho	-8.74307
glich	-8.74613
me	-8.74708
ab	-8.75041
I	-8.75525
▁Le	-8.75596
▁Tag	-8.75678
▁Fall	-8.75721
ll	-8.7573
▁Recht	-8.75737
▁sen	-8.75842
▁pro	-8.76011
▁voll	-8.76345
mal	-8.76567
el	-8.76588
do	-8.76639
ar	-8.76674
▁dazu	-8.76799
▁ange	-8.77102
bar	-8.77449
un	-8.77601
▁U	-8.77736
▁Berlin	-8.77737
▁Wort	-8.77771
▁gehen	-8.77896
▁St	-8.78021
▁sowie	-8.78185
▁Ent	-8.78192
▁ben	-8.78297
▁Lebens	-8.78665
▁Hu	-8.79023
▁hoch	-8.79092
▁solcher	-8.79256
▁See	-8.79277
▁bringen	-8.79437
▁Go	-8.79779
▁Boden	-8.79814
▁gegeben	-8.79904
▁Ober	-8.80054
sta	-8.80116
▁Den	-8.80221
▁Kunst	-8.80512
▁De	-8.80785
7	-8.80951
°	-8.80956
▁Wirkung	-8.80996
cht	-8.81184
sche	-8.81344
▁Sta	-8.81427
ga	-8.81456
▁1)	-8.8158
▁kommt	-8.81608
▁n	-8.81666
▁schen	-8.81695
▁Arbeit	-8.81738
▁Na	-8.81865
di	-8.81911
▁e	-8.81914
▁Stellung	-8.81978
▁Ku	-8.82164
▁men	-8.82173
▁t	-8.82229
▁Krieg	-8.82236
▁liegt	-8.82378
▁sagte	-8.82566
▁Wo	-8.82659
▁oben	-8.82725
▁Geist	-8.82798
ko	-8.82826
▁Stelle	-8.82842
▁18	-8.82916
▁g	-8.82976
▁nie	-8.82991
▁besser	-8.83016
▁7.	-8.83303
▁bleiben	-8.8333
▁abge	-8.83489
▁Sohn	-8.83693
▁chen	-8.8375
▁+	-8.83847
▁–	-8.84037
llen	-8.84116
▁welchem	-8.84153
▁no	-8.84233
▁fest	-8.84237
ret	-8.84316
▁statt	-8.84467
▁solches	-8.84738
▁17	-8.84916
▁Wer	-8.84924
lichkeit	-8.84935
▁Licht	-8.85124
▁Vater	-8.85149
▁GOtt	-8.85324
▁einzelnen	-8.85428
▁Ziel	-8.85472
▁viele	-8.85515
▁su	-8.85632
▁Daß	-8.85697
▁Dr	-8.8589
«	-8.85978
P	-8.85999
j	-8.86078
▁ne	-8.8623
▁Batterie	-8.86328
▁Hier	-8.86433
isch	-8.86448
F	-8.86731
tzen	-8.8688
fa	-8.86988
▁14	-8.87043
▁gro	-8.87062
▁mag	-8.87211
▁Zahl	-8.87387
▁stand	-8.8753
si	-8.87606
T	-8.87775
at	-8.87791
ti	-8.87913
ku	-8.87941
▁Mo	-8.87962
▁letzten	-8.88148
ler	-8.88185
▁bin	-8.88282
▁wissen	-8.8835
R	-8.88509
on	-8.88528
▁Feind	-8.88575
▁zer	-8.888
▁Fa	-8.89093
ff	-8.89205
▁11	-8.89507
▁ließ	-8.89524
▁Ueber	-8.8959
▁100	-8.89736
▁Ru	-8.89849
▁Wa	-8.89918
▁ru	-8.90009
fu	-8.90049
iren	-8.90112
▁euch	-8.90121
▁ei	-8.90178
▁General	-8.90352
▁gebracht	-8.90352
▁heraus	-8.90433
▁Militär	-8.90563
▁w	-8.90571
▁kleinen	-8.91014
▁möglich	-8.91098
▁steht	-8.91148
gel	-8.9144
▁findet	-8.91579
▁Mu	-8.916
▁Mensch	-8.91855
▁jener	-8.92112
▁Frage	-8.92157
ce	-8.92202
▁Mutter	-8.92269
▁Jahren	-8.9236
land	-8.92483
G	-8.9251
▁geht	-8.92583
▁Po	-8.92591
▁sagt	-8.92807
tt	-8.92823
▁Angriff	-8.9291
go	-8.92911
nig	-8.93131
▁se	-8.93152
lein	-8.9333
▁Geschütz	-8.93437
é	-8.93539
▁hervor	-8.93739
▁Stu	-8.93751
▁kleine	-8.94417
▁Linie	-8.95059
▁weg	-8.95192
▁anders	-8.95277
▁Sch	-8.95434
ger	-8.95532
au	-8.95827
▁Waffen	-8.95832
▁keinen	-8.96062
▁ku	-8.96427
tra	-8.96558
▁dar	-8.96592
▁di	-8.96593
▁dieselbe	-8.96996
▁Verwendung	-8.97003
▁Erde	-8.97114
tter	-8.97186
▁Weg	-8.97231
stu	-8.97543
▁zugleich	-8.9778
▁40	-8.97888
▁13	-8.98153
▁genommen	-8.9822
hn	-8.9858
▁gibt	-8.98594
▁jede	-8.98644
lle	-8.98748
mo	-8.98943
▁kaum	-8.98991
igkeit	-8.99024
berg	-8.9907
ba	-8.99224
am	-8.99308
▁August	-8.99443
▁IV	-8.99507
æ	-8.99557
▁meiner	-8.99638
▁Gottes	-8.9988
▁ward	-9.00066
ru	-9.002
▁eigenen	-9.00257
hl	-9.00321
▁einge	-9.00665
"	-9.00841
▁9.	-9.01037
or	-9.0116
▁60	-9.01174
enden	-9.01182
ci	-9.01257
▁10.	-9.0148
C	-9.0154
▁Gegen	-9.01568
▁wollte	-9.01731
▁gab	-9.01792
▁vielleicht	-9.01937
000	-9.01995
▁schwer	-9.0205
D	-9.02264
stand	-9.02409
nne	-9.02427
gehen	-9.02761
]	-9.02808
▁le	-9.0286
ni	-9.02964
▁Co	-9.0309
▁Ju	-9.03201
des	-9.0325
▁Se	-9.03258
▁groß	-9.0329
▁Front	-9.03469
▁Reichs	-9.03538
▁te	-9.03689
bau	-9.03716
hen	-9.03783
▁ausge	-9.03827
▁geho	-9.04007
▁scha	-9.04036
▁Fuß	-9.04104
▁Blut	-9.04164
▁Höhe	-9.04293
▁allgemeinen	-9.04392
▁besteht	-9.04474
▁ferner	-9.04607
▁hätte	-9.04626
H	-9.04747
▁Bewegung	-9.04887
mer	-9.04926
ation	-9.0496
▁nieder	-9.0498
▁Holz	-9.04987
▁Pferde	-9.05116
▁Richtung	-9.05153
▁Herrn	-9.05305
ri	-9.05465
bel	-9.05529
▁zeigt	-9.05566
▁neben	-9.05593
▁Geld	-9.05685
stellung	-9.05694
▁Haus	-9.06188
▁mußte	-9.06235
nder	-9.06401
os	-9.06438
▁Ca	-9.0645
ja	-9.06493
▁gute	-9.06731
▁stets	-9.06839
▁Neu	-9.06867
▁Sache	-9.06962
ßt	-9.07022
▁Geschütze	-9.07057
fe	-9.07081
▁gerade	-9.07124
▁Seele	-9.0717
▁Kavallerie	-9.0717
▁Bild	-9.07208
▁ID	-9.07291
ul	-9.07334
▁unsere	-9.07372
▁Dieser	-9.07452
len	-9.07591
▁Kinder	-9.08058
▁Con	-9.08152
▁Himmel	-9.08187
▁Ga	-9.08195
hret	-9.08399
▁dahin	-9.08445
▁liegen	-9.08583
▁später	-9.08777
▁verschiedenen	-9.08812
▁Druck	-9.08878
▁Kra	-9.08973
▁bleibt	-9.09143
▁scheint	-9.09218
ze	-9.09243
ia	-9.0951
▁bo	-9.09539
▁ra	-9.09679
schaft	-9.09845
▁Doch	-9.10071
▁Pa	-9.10104
▁Staats	-9.10152
▁Wesen	-9.10204
so	-9.10239
legen	-9.10369
▁Leute	-9.10464
▁Geschichte	-9.10678
▁ren	-9.10718
▁Mai	-9.10855
▁desselben	-9.10954
▁ta	-9.10977
ion	-9.11099
▁25	-9.11405
▁Gu	-9.11478
▁Kriege	-9.11532
▁Versuche	-9.11624
▁darf	-9.11625
▁allem	-9.11924
▁darin	-9.12262
il	-9.12424
▁gehalten	-9.12428
hrt	-9.12562
▁sta	-9.12564
▁guten	-9.12679
recht	-9.12705
▁gegenüber	-9.12711
▁Raum	-9.12758
▁12.	-9.12874
▁11.	-9.12881
▁Werk	-9.12957
▁Scho	-9.13003
ckt	-9.13082
▁Namen	-9.1322
ungs	-9.13278
“,	-9.13442
▁Nun	-9.13619
▁per	-9.13626
cher	-9.13944
▁Mitte	-9.14114
men	-9.14117
▁Batterien	-9.14243
ierung	-9.14285
▁zwey	-9.14287
▁unserer	-9.14322
ende	-9.14377
im	-9.14435
▁jedem	-9.14538
▁Kaiser	-9.14538
▁Juli	-9.14662
▁Lo	-9.14703
▁Bedeutung	-9.14811
▁Rechts	-9.15026
ca	-9.15109
irt	-9.1513
▁meinen	-9.15153
▁Ta	-9.15237
stein	-9.1526
▁bestimmt	-9.15723
ieren	-9.15742
U	-9.15764
▁stark	-9.16033
▁vielen	-9.16197
▁Berg	-9.16206
▁bisher	-9.16359
ie	-9.16378
aus	-9.16447
▁Frau	-9.16472
▁weder	-9.16481
▁Dienst	-9.1652
iert	-9.1653
50	-9.16704
▁ging	-9.16806
und	-9.16903
bi	-9.17046
▁Ne	-9.17107
▁sa	-9.17213
dem	-9.17301
▁Anwendung	-9.17493
ke	-9.17613
▁Herz	-9.17727
▁grossen	-9.17855
▁24	-9.17875
▁bekannt	-9.17953
▁grosse	-9.17988
▁Zur	-9.17995
▁Frankreich	-9.18013
man	-9.18032
▁Deutschland	-9.18054
▁Verbindung	-9.18092
tze	-9.18116
▁Wu	-9.18182
ir	-9.18322
▁X	-9.18446
wu	-9.1847
▁geschehen	-9.18923
ich	-9.19051
kommen	-9.19086
▁Stein	-9.19198
▁Her	-9.1922
▁Ar	-9.19225
▁bloß	-9.19254
▁Gegner	-9.19379
▁deutsche	-9.19619
▁ihres	-9.19638
▁‒	-9.19891
wesen	-9.19939
▁cm	-9.19991
▁entweder	-9.20087
chten	-9.20097
▁Nicht	-9.20374
▁sah	-9.20627
▁Flügel	-9.20702
ng	-9.20891
▁biß	-9.20924
keit	-9.20957
▁früher	-9.21072
▁besten	-9.21216
nu	-9.21367
hlen	-9.21457
▁Lu	-9.21565
▁lichen	-9.21569
▁Ob	-9.21607
los	-9.21674
▁geworden	-9.21723
▁fand	-9.21737
▁genug	-9.22467
▁alte	-9.2251
pf	-9.22546
▁Macht	-9.22788
va	-9.22909
kg	-9.22919
▁Folge	-9.23195
▁Me	-9.23272
▁al	-9.2331
▁Kräfte	-9.23449
▁theils	-9.24024
▁entgegen	-9.24107
▁16.	-9.24209
▁unser	-9.24218
the	-9.24239
.),	-9.24243
▁Heeres	-9.24256
▁Dann	-9.24333
▁Wein	-9.24403
ft	-9.24448
werk	-9.24469
▁Gas	-9.24519
nis	-9.24541
▁Juni	-9.24644
▁daran	-9.24735
je	-9.24778
ö	-9.24934
▁drey	-9.24973
▁jeden	-9.25173
V	-9.25273
▁Pro	-9.25294
▁giebt	-9.25327
▁heute	-9.25375
▁rechten	-9.25468
lei	-9.25592
▁meisten	-9.25708
▁Schlacht	-9.25708
▁folgende	-9.25738
▁x	-9.26401
▁nahe	-9.26467
▁Alle	-9.26517
▁Ort	-9.26537
▁überhaupt	-9.26668
▁machte	-9.26866
auf	-9.26934
▁dergleichen	-9.26992
▁Zweck	-9.27043
▁Falle	-9.27134
▁unbe	-9.27149
▁ebenso	-9.27268
▁Scha	-9.27393
▁vollkommen	-9.27457
tes	-9.27516
pa	-9.27524
sel	-9.27598
▁Selbst	-9.27634
▁len	-9.27829
vor	-9.27977
▁To	-9.28047
▁Wege	-9.28063
▁Landes	-9.28068
ve	-9.28104
stellen	-9.28176
za	-9.28231
die	-9.283
▁Theile	-9.28315
▁Dem	-9.28326
rung	-9.28606
▁15.	-9.28617
▁Vo	-9.28856
nte	-9.28934
end	-9.28944
á	-9.28976
fer	-9.2903
▁Staaten	-9.29042
feuer	-9.29392
ien	-9.29516
▁Sinne	-9.29681
▁gefunden	-9.29696
W	-9.29734
▁muss	-9.29894
ht	-9.29946
ius	-9.29973
▁Al	-9.30117
▁Tafel	-9.30126
▁frei	-9.3035
ki	-9.30405
▁denselben	-9.30476
▁Leib	-9.30589
▁Band	-9.30594
Z	-9.30602
▁Teile	-9.30605
▁vorhanden	-9.30735
L	-9.30787
▁gewiß	-9.30912
▁gantz	-9.30991
▁sowohl	-9.31117
▁nahm	-9.31125
zug	-9.31225
▁tragen	-9.31293
▁13.	-9.31407
▁etc	-9.3184
▁Verfahren	-9.3189
cm	-9.31901
▁zeigen	-9.31929
▁jedes	-9.31933
▁zweiten	-9.32177
▁neu	-9.32225
▁leben	-9.32278
schafft	-9.32292
▁blieb	-9.32293
▁unver	-9.32349
▁dabei	-9.32403
▁Italien	-9.3261
ier	-9.32625
▁setzen	-9.32628
▁verbunden	-9.32635
▁mehrere	-9.32642
▁Kopf	-9.32823
▁km	-9.33097
▁hohen	-9.33163
▁Gold	-9.33223
▁wenigstens	-9.33351
▁Hoch	-9.33417
▁ner	-9.33483
▁14.	-9.33669
zen	-9.33773
▁nachdem	-9.33874
▁ehe	-9.34026
▁Stahl	-9.34053
▁Groß	-9.34159
lä	-9.34459
▁Za	-9.34473
▁Auge	-9.34499
▁Zug	-9.34537
▁demselben	-9.34555
▁nu	-9.34562
▁Bey	-9.34618
ä	-9.3474
rte	-9.34761
▁wobei	-9.34936
▁all	-9.3498
▁70	-9.35012
▁gesehen	-9.35084
N	-9.35104
▁Reich	-9.35155
▁folgenden	-9.35171
ut	-9.35192
▁Panzer	-9.35213
gu	-9.35217
Ge	-9.3536
▁ser	-9.35411
▁§	-9.35427
▁halb	-9.35589
rei	-9.35708
▁gesetzt	-9.3581
▁wahr	-9.35986
▁Stunden	-9.36186
▁genau	-9.36229
▁Erfolg	-9.36302
▁Heft	-9.36543
▁con	-9.366
▁mm	-9.36796
▁einigen	-9.36835
▁Fort	-9.3692
▁Verfasser	-9.36956
▁beide	-9.36961
▁bilden	-9.37028
▁zunächst	-9.37042
▁sol	-9.3706
ẽ	-9.37116
▁übrigen	-9.3714
▁sogar	-9.37146
▁dagegen	-9.37149
▁Dieses	-9.37156
zeit	-9.37182
▁Gruppe	-9.37236
▁Division	-9.37374
▁wil	-9.37418
▁gleichen	-9.37455
lin	-9.37496
mu	-9.37793
art	-9.37897
▁Rohr	-9.37903
M	-9.3795
co	-9.37992
▁König	-9.37995
feld	-9.38018
▁Gewicht	-9.38038
00	-9.38125
ꝛ	-9.38212
io	-9.38238
▁me	-9.38243
▁Ausbildung	-9.3825
▁Ihr	-9.38314
▁kg	-9.38375
zi	-9.38539
▁Tod	-9.38575
€	-9.3878
▁zuru	-9.38812
▁Uhr	-9.38845
kraft	-9.38878
▁könnte	-9.38988
▁unge	-9.3901
▁et	-9.39134
▁meinem	-9.39167
▁dieselben	-9.39182
gang	-9.39224
ant	-9.3933
▁hinein	-9.39388
nk	-9.39396
▁Gestalt	-9.39449
▁Hof	-9.39514
▁vielmehr	-9.39768
▁Je	-9.39774
▁erscheint	-9.39775
▁gu	-9.39898
▁80	-9.39985
▁besondere	-9.40093
▁ziemlich	-9.40123
▁Schutz	-9.40144
▁Kind	-9.40279
▁sieht	-9.40297
Sch	-9.40338
▁21	-9.40401
▁Erd	-9.40433
ita	-9.40567
wo	-9.40572
setzen	-9.40586
mit	-9.40632
▁Nur	-9.40686
▁Do	-9.40686
▁18.	-9.41013
▁versehen	-9.41081
▁Menge	-9.41249
▁Bru	-9.41257
llt	-9.41279
▁Worte	-9.41295
▁läßt	-9.41306
▁erreicht	-9.41577
▁Aufgabe	-9.41634
▁ꝛc	-9.41635
▁selten	-9.41648
▁Wagen	-9.41649
lu	-9.41753
▁Ordnung	-9.41757
▁reich	-9.41776
nger	-9.41812
▁nimmt	-9.41872
▁lo	-9.41913
▁nämlich	-9.41915
▁dein	-9.41917
▁Stück	-9.41987
▁fallen	-9.42057
▁meist	-9.42116
meister	-9.42255
▁dasselbe	-9.42398
▁Gewalt	-9.42403
▁Li	-9.42403
▁England	-9.42458
lage	-9.42475
id	-9.42494
▁keit	-9.42499
▁75	-9.42532
wagen	-9.42549
▁selber	-9.42663
ium	-9.42667
▁gewisse	-9.42796
▁Wind	-9.42798
▁irgend	-9.42814
▁VI	-9.42888
▁Schuß	-9.43081
▁zweite	-9.43085
▁che	-9.43147
▁Abschnitt	-9.43156
▁abzu	-9.43165
▁Stand	-9.43228
▁ziehen	-9.43446
du	-9.43468
ton	-9.43581
▁vorher	-9.43682
▁Regierung	-9.43695
▁Per	-9.43793
▁ad	-9.43897
▁Körper	-9.4404
sset	-9.4406
iger	-9.44147
▁zuerst	-9.44181
sam	-9.44322
▁GOttes	-9.44455
nge	-9.44463
as	-9.44491
▁Verhältnisse	-9.445
▁Gebrauch	-9.4452
▁Dinge	-9.4469
mittel	-9.44703
▁Nord	-9.44779
▁wirklich	-9.44878
▁desto	-9.44966
▁daraus	-9.45107
▁Wald	-9.45154
▁anderer	-9.45167
licher	-9.45392
rat	-9.45395
▁hinaus	-9.45418
▁erkennen	-9.45447
▁He	-9.45672
▁Gesetz	-9.45684
dienst	-9.45771
sser	-9.45816
▁andre	-9.45958
▁Länge	-9.46051
▁Gelegenheit	-9.46154
ziehen	-9.46156
▁Rom	-9.46213
▁wodurch	-9.46445
▁Ach	-9.46605
ment	-9.46606
▁solte	-9.46675
ischer	-9.46736
▁Preis	-9.46778
mmt	-9.46807
linie	-9.46848
▁Sprache	-9.46902
▁Heer	-9.46945
▁[	-9.46998
▁2)	-9.47057
▁22	-9.47222
▁Gedanken	-9.47254
▁stellen	-9.47261
que	-9.47323
bo	-9.47329
ine	-9.47377
▁tra	-9.47469
▁September	-9.47513
▁acht	-9.47533
▁ex	-9.47861
▁Personen	-9.47962
▁Di	-9.48024
▁Werke	-9.48039
▁Winter	-9.48059
▁Bahn	-9.48148
▁sechs	-9.48293
▁vo	-9.48303
▁Material	-9.4831
▁Widerstand	-9.48773
▁aufge	-9.48821
▁außer	-9.48939
▁eigene	-9.48981
▁gehabt	-9.48992
burg	-9.49039
▁Sinn	-9.4911
▁allerdings	-9.49111
▁Abend	-9.49189
son	-9.49203
▁Festungs	-9.4929
ei	-9.49304
▁si	-9.49347
▁konnten	-9.49744
▁Entfernung	-9.49755
▁dienen	-9.49844
▁wolte	-9.50004
▁19	-9.5001
we	-9.50025
▁Volks	-9.50105
▁Cap	-9.50162
▁möglichst	-9.50225
Die	-9.503
bet	-9.50345
▁Befehl	-9.50399
▁Entwicklung	-9.50432
▁17.	-9.50441
▁schweren	-9.50443
▁ga	-9.50508
▁feindlichen	-9.5052
rü	-9.50559
▁Jhr	-9.50566
vi	-9.50578
▁rein	-9.5061
▁ca	-9.50613
mmer	-9.50642
rden	-9.5073
▁gezogen	-9.50763
▁;	-9.50773
wand	-9.50782
ken	-9.50803
▁ander	-9.5112
▁20.	-9.51133
▁Morgen	-9.51146
pi	-9.51331
▁sprach	-9.51596
▁bildet	-9.51675
nach	-9.51678
tum	-9.51678
form	-9.51814
▁Darstellung	-9.52085
▁März	-9.52148
weise	-9.52209
▁ebenfalls	-9.52244
▁auszu	-9.52384
▁gethan	-9.52405
▁nothwendig	-9.52448
▁ka	-9.52451
▁Offiziere	-9.52548
▁thut	-9.52549
▁Tra	-9.52569
cker	-9.52728
▁Zeiten	-9.52751
barkeit	-9.52813
▁Tu	-9.52921
â	-9.53106
▁näher	-9.53111
▁heit	-9.53223
%	-9.53255
▁führen	-9.53259
▁gestellt	-9.5328
tion	-9.53295
▁Oktober	-9.53301
▁sch	-9.5332
▁unten	-9.53366
▁go	-9.5338
▁Winkel	-9.53414
▁Ist	-9.53447
▁jenen	-9.53538
▁liebe	-9.53625
▁Alles	-9.53641
▁April	-9.53726
▁klar	-9.53782
▁Lust	-9.5389
get	-9.54091
rsten	-9.54143
▁stu	-9.54197
ität	-9.54286
▁200	-9.54314
▁Lande	-9.54338
▁he	-9.5442
▁russischen	-9.54431
▁herab	-9.54446
▁Anfang	-9.54506
iret	-9.5458
▁eigentlich	-9.54626
▁kurz	-9.54725
▁folgt	-9.54884
▁Russen	-9.54925
▁Mar	-9.54977
fen	-9.54998
vo	-9.55047
▁Zusammen	-9.55059
▁Ruhe	-9.55125
▁Ehe	-9.5513
▁Bestimmung	-9.55142
▁Zum	-9.55153
▁19.	-9.55183
▁Wert	-9.55207
▁tief	-9.55227
rn	-9.55286
ey	-9.55367
▁hielt	-9.55407
▁Anzahl	-9.55575
▁großer	-9.55614
▁Frieden	-9.55715
▁anzu	-9.55727
▁erscheinen	-9.55809
▁namentlich	-9.55815
▁Ur	-9.56024
40	-9.5606
▁gesagt	-9.56073
▁rund	-9.56104
▁72	-9.56351
▁Verlag	-9.56433
▁mittels	-9.56491
▁System	-9.56523
▁Herstellung	-9.56536
▁That	-9.56594
▁vns	-9.5669
▁Karl	-9.56869
▁mal	-9.56938
sto	-9.56983
▁bestehen	-9.57011
▁liche	-9.57017
▁Höhen	-9.57057
▁Ziele	-9.57059
▁verwendet	-9.57059
pe	-9.57087
▁Si	-9.57118
▁Hause	-9.57144
▁gleichzeitig	-9.57242
▁Wahrheit	-9.57246
tischen	-9.57337
▁to	-9.57456
▁Grunde	-9.57477
▁Ausdruck	-9.57478
▁Reserve	-9.57574
▁folgen	-9.57575
▁unmittelbar	-9.57677
▁Regel	-9.57789
▁hernach	-9.58043
▁suchen	-9.58219
▁Soldaten	-9.58226
▁gewissen	-9.5827
▁Reihe	-9.58334
▁Allein	-9.5837
▁hab	-9.5843
weg	-9.58482
▁Rück	-9.58555
tu	-9.58684
▁infolge	-9.58852
10	-9.58911
▁Glu	-9.59027
▁Bücher	-9.59263
mi	-9.59359
▁Sonne	-9.59361
▁Gesellschaft	-9.59417
hu	-9.59496
▁langen	-9.59519
▁blos	-9.59548
satz	-9.59622
▁Meer	-9.59686
pp	-9.59828
▁wesentlich	-9.59854
▁45	-9.59857
▁erfolgt	-9.59883
▁wel	-9.59886
mb	-9.59894
eisen	-9.59925
bach	-9.60043
▁kleiner	-9.60067
▁Des	-9.60073
▁trat	-9.60077
qui	-9.60155
▁Gra	-9.60255
ik	-9.60422
▁Eisenbahn	-9.60491
▁Maschinengewehr	-9.60547
▁Charakter	-9.607
▁Krieges	-9.60705
wie	-9.60836
▁Feinde	-9.60986
schlag	-9.60993
▁Christi	-9.61143
tlich	-9.61173
▁keiner	-9.61177
▁sten	-9.61192
▁Gewehr	-9.61244
del	-9.61398
▁ba	-9.61415
▁we	-9.61439
▁schwere	-9.61461
▁spricht	-9.61507
chtig	-9.61563
geschwindigkeit	-9.61637
▁Angriffs	-9.61733
▁Gefahr	-9.6185
thig	-9.61854
▁tritt	-9.61909
▁Schieß	-9.61973
ist	-9.62001
▁rechte	-9.62009
▁Ost	-9.62034
▁rasch	-9.62227
▁Va	-9.62351
nt	-9.62356
▁Freund	-9.62358
▁hohe	-9.62371
▁Fehler	-9.62372
▁do	-9.62389
▁Mein	-9.62423
▁Lehr	-9.62475
▁Führer	-9.62504
▁hu	-9.62654
▁Kon	-9.62679
▁deutlich	-9.62703
▁Ex	-9.62722
▁land	-9.62723
ina	-9.62752
▁Flug	-9.62795
▁zeit	-9.62803
▁Pi	-9.62815
▁gru	-9.6285
▁Fällen	-9.62857
druck	-9.62913
▁vn	-9.63216
▁28	-9.63248
▁allgemeine	-9.63258
▁stellt	-9.63266
▁geführt	-9.63305
▁Weil	-9.63317
▁Gebiete	-9.63336
chst	-9.634
▁Gro	-9.63415
▁damals	-9.63473
▁dennoch	-9.63498
rper	-9.63627
20	-9.63644
ry	-9.63649
▁Fleisch	-9.63682
uch	-9.63728
▁klein	-9.63745
▁ste	-9.63853
▁trotz	-9.63962
▁Stunde	-9.63968
▁Begriff	-9.63968
▁darum	-9.64002
▁enthalten	-9.64142
fte	-9.64169
!“	-9.64215
▁Rücksicht	-9.64251
▁West	-9.64262
▁zw	-9.64308
30	-9.6447
▁Tagen	-9.6448
bu	-9.64487
mahl	-9.64507
▁23	-9.64698
teil	-9.64797
▁November	-9.64832
▁sollten	-9.6496
stehen	-9.64987
▁sonderlich	-9.65037
▁Also	-9.65125
▁Einfluß	-9.65184
▁Gefechts	-9.65217
▁Seine	-9.65259
▁größere	-9.65347
▁Sand	-9.65397
▁bezeichnet	-9.65402
▁Marsch	-9.65415
sehen	-9.65536
▁gekommen	-9.65543
▁r	-9.65898
60	-9.66053
▁dürfte	-9.66085
▁Oberst	-9.66091
3.	-9.66214
▁demnach	-9.66308
▁24.	-9.66463
▁etliche	-9.66464
▁nebst	-9.66524
▁Bi	-9.66646
▁Rede	-9.66663
▁gern	-9.66823
▁Sommer	-9.66848
▁daselbst	-9.66973
▁Punkt	-9.66985
▁Paris	-9.67105
▁Sturm	-9.67116
▁Strom	-9.67208
ere	-9.67294
▁fünf	-9.67299
gi	-9.67315
heim	-9.6732
▁treten	-9.67387
▁Geschwindigkeit	-9.67435
▁Sein	-9.67517
▁Wieder	-9.6752
Be	-9.6754
▁Rath	-9.67579
▁Fahr	-9.67685
▁Gefecht	-9.67744
▁22.	-9.67747
▁Zwecke	-9.67749
▁schien	-9.67847
▁Jm	-9.67872
▁Reise	-9.67912
hin	-9.6805
ete	-9.68095
▁VII	-9.68104
25	-9.68164
▁21.	-9.68269
▁weitere	-9.68342
▁Vi	-9.68351
▁26	-9.68479
▁Rad	-9.68522
rich	-9.6855
▁Gleich	-9.68601
▁Cor	-9.6862
▁entsprechend	-9.68641
rö	-9.68665
rad	-9.68674
sk	-9.68713
▁Te	-9.68737
▁glu	-9.68796
▁heran	-9.68926
▁pa	-9.69122
bildung	-9.69157
▁Thier	-9.69191
▁starke	-9.69207
▁innerhalb	-9.69217
▁sicher	-9.69237
▁Neben	-9.69292
▁Maschinen	-9.69378
▁No	-9.69441
per	-9.6946
▁Beispiel	-9.69468
wasser	-9.6953
▁bringt	-9.69586
▁voraus	-9.6959
▁einzelne	-9.69658
ngt	-9.69664
▁Brief	-9.69843
▁Gut	-9.69848
Fig	-9.69893
ffen	-9.70058
▁bestimmten	-9.70067
tro	-9.70073
▁...	-9.70091
▁Geschoß	-9.70099
▁lag	-9.70108
▁Schiff	-9.70128
▁48	-9.70152
▁Vnd	-9.70185
▁gehört	-9.70306
tur	-9.70307
▁Fi	-9.70317
▁Seelen	-9.70323
▁französischen	-9.70358
▁Zer	-9.70377
▁glauben	-9.70388
▁hingegen	-9.70558
▁verschiedene	-9.70562
▁Pf	-9.70589
▁Bruder	-9.70683
▁Brust	-9.70717
▁nit	-9.70764
▁letztere	-9.7083
▁erhielt	-9.70858
▁Masse	-9.70861
▁35	-9.70959
tha	-9.71056
▁Distanz	-9.71167
▁ro	-9.71187
▁beste	-9.71213
▁*	-9.71231
▁Zeichen	-9.71294
▁nennen	-9.71361
▁Wohl	-9.71371
tische	-9.71376
▁lieben	-9.71592
▁Kirche	-9.7169
▁Frauen	-9.71796
▁Schießen	-9.71826
▁Stellen	-9.71836
het	-9.71836
ndet	-9.72001
▁Lager	-9.72074
▁Friedens	-9.72176
tern	-9.72194
▁Notizen	-9.72307
▁lieber	-9.72338
halten	-9.72367
▁Terrain	-9.72486
ord	-9.72499
▁Herren	-9.72503
bt	-9.72587
▁völlig	-9.72634
▁angenommen	-9.72776
▁Arm	-9.7295
▁Sachen	-9.72974
truppen	-9.72983
ling	-9.73008
▁Ehren	-9.73031
▁Wahl	-9.73058
ag	-9.73059
▁Spreng	-9.7315
▁derselbe	-9.73173
su	-9.7324
ssel	-9.73317
▁jhr	-9.73327
▁Osterreich	-9.73347
q	-9.73374
wä	-9.73387
▁:	-9.73511
▁letzte	-9.73567
buch	-9.73573
▁Absicht	-9.73661
▁Bildung	-9.73699
leben	-9.73719
cket	-9.73764
▁ergeben	-9.73851
▁Punkte	-9.73856
hre	-9.73918
▁hast	-9.73938
ser	-9.73966
▁52	-9.7397
kt	-9.7402
sti	-9.74029
pu	-9.74131
▁Noch	-9.74157
▁pra	-9.74175
hrung	-9.74184
▁führt	-9.74244
▁65	-9.74306
▁durchaus	-9.74497
▁Besitz	-9.74617
▁Küsten	-9.74697
iv	-9.74734
ing	-9.74737
▁25.	-9.74795
richtung	-9.74822
▁à	-9.74982
ell	-9.74987
ring	-9.75014
▁würden	-9.75174
▁Metall	-9.75248
nehmen	-9.75302
▁23.	-9.7533
richten	-9.75334
▁nunmehr	-9.75354
▁Beziehung	-9.75363
haus	-9.75366
ug	-9.75377
▁hinzu	-9.75411
▁Erden	-9.75463
▁Frei	-9.75486
▁Ton	-9.75522
▁beru	-9.75565
wirkung	-9.75605
▁Volk	-9.75656
▁gilt	-9.757
▁Baum	-9.75735
ierte	-9.75766
▁dritten	-9.75772
▁setzt	-9.75791
division	-9.75806
tzt	-9.75875
▁beträgt	-9.75947
▁Deutschen	-9.75963
▁Schiffe	-9.7606
▁Sonnen	-9.7607
fall	-9.76101
▁wolle	-9.76114
▁Jugend	-9.76126
ris	-9.76129
80	-9.76139
▁nem	-9.76197
sicht	-9.76206
bare	-9.76208
▁enthält	-9.7624
▁Graf	-9.76249
▁Kirchen	-9.76301
geben	-9.76361
▁Tages	-9.76369
ley	-9.76425
▁Person	-9.76495
▁vi	-9.7657
▁Temperatur	-9.76597
▁häufig	-9.76632
▁leichter	-9.7664
▁Ae	-9.76673
op	-9.76772
▁gewo	-9.7682
ße	-9.76857
sion	-9.76887
▁Willen	-9.77001
▁heißt	-9.77003
▁geschrieben	-9.77056
▁li	-9.77145
▁kennen	-9.77179
führung	-9.77229
▁Jahres	-9.77261
▁Ki	-9.7728
▁feindliche	-9.773
▁linken	-9.77452
▁Brigade	-9.77486
▁Engel	-9.77503
▁gemein	-9.77532
▁Pulver	-9.77569
▁Während	-9.77583
kü	-9.77592
▁Arbeits	-9.77697
▁Brücken	-9.77698
▁deine	-9.77759
artillerie	-9.77885
stück	-9.77985
▁Lösung	-9.78
▁Friedrich	-9.78028
then	-9.78119
▁Mark	-9.78181
▁Arbeiten	-9.78223
nken	-9.78243
▁fe	-9.78296
leitung	-9.78312
▁56	-9.78337
▁68	-9.78354
▁weise	-9.7838
unter	-9.78397
▁insbesondere	-9.78442
▁Rechnung	-9.78472
▁jhm	-9.78661
ppen	-9.78698
▁Interesse	-9.78727
bei	-9.78733
▁kamen	-9.78746
▁30.	-9.78763
reich	-9.7879
▁500	-9.78878
wen	-9.78914
ßen	-9.78914
▁reden	-9.78997
▁gleichsam	-9.79021
EN	-9.79043
rst	-9.79045
ER	-9.79051
fallen	-9.79121
▁legen	-9.79245
▁sofort	-9.79247
▁26.	-9.79412
▁Zoll	-9.79437
▁Fluß	-9.79532
rten	-9.79544
▁gefa	-9.7966
▁offt	-9.79671
nten	-9.79878
▁Patent	-9.79919
▁denken	-9.80002
▁55	-9.80014
bild	-9.80027
ngen	-9.80033
tin	-9.80099
▁erreichen	-9.80146
▁28.	-9.80154
▁Stärke	-9.8023
▁Wann	-9.8025
▁tausend	-9.80255
theil	-9.80262
▁Inhalt	-9.80276
tis	-9.80282
▁90	-9.80294
▁Franz	-9.80324
▁schnell	-9.80351
▁Dampf	-9.8036
▁früh	-9.80375
zahl	-9.80394
rz	-9.80417
▁gelegt	-9.80432
▁Hauptmann	-9.8048
nzen	-9.80506
schu	-9.8058
▁Dir	-9.80594
▁einzu	-9.80625
▁Leitung	-9.80679
▁mer	-9.80726
brigen	-9.80727
▁Ti	-9.80746
▁Meinung	-9.80868
▁Rußland	-9.80893
▁deshalb	-9.80948
▁wahrscheinlich	-9.80956
▁letzteren	-9.80999
▁gleicher	-9.8104
▁alt	-9.81046
▁Schritt	-9.81279
▁Arten	-9.81338
▁Marine	-9.81348
7.	-9.81358
▁willen	-9.81411
▁richtig	-9.81513
isten	-9.81519
hne	-9.81541
▁gleiche	-9.81547
▁Lehrer	-9.81551
▁dabey	-9.81562
▁Schon	-9.81728
▁selben	-9.81751
▁Ursache	-9.8184
▁Einrichtung	-9.81857
▁the	-9.81887
▁sprechen	-9.81894
▁Ehre	-9.81913
▁neuer	-9.81936
▁300	-9.81943
▁Worten	-9.82019
▁Formen	-9.8212
net	-9.8216
ale	-9.82321
▁27	-9.82388
▁qui	-9.8244
tri	-9.82463
▁Ri	-9.8255
▁Gebirgs	-9.82561
▁Fe	-9.82578
▁Werth	-9.8258
▁Thiere	-9.82659
fft	-9.82674
ndig	-9.82693
tisch	-9.82717
▁Führung	-9.82745
*	-9.82759
è	-9.82773
▁bu	-9.82903
▁Glas	-9.83004
▁hundert	-9.8305
▁vmb	-9.83109
ers	-9.83113
▁Ei	-9.83184
▁Or	-9.83215
▁stehenden	-9.83418
nz	-9.83484
nnte	-9.83494
▁Genie	-9.83591
▁größeren	-9.83616
Ver	-9.83633
▁32	-9.83635
▁Zwischen	-9.83639
▁36	-9.83672
▁niemand	-9.83681
▁Zi	-9.83688
llig	-9.83711
▁Ufer	-9.83754
ad	-9.83757
▁GM	-9.83778
▁Schul	-9.83779
▁Süd	-9.83925
▁Pat	-9.83928
tritt	-9.83935
▁Gru	-9.83954
regiment	-9.83991
▁Noth	-9.84012
▁Gebiet	-9.84021
ven	-9.84049
est	-9.84109
▁Vom	-9.8413
▁Major	-9.84137
krieg	-9.84137
▁54	-9.84196
▁1914	-9.84199
▁Ste	-9.84219
rie	-9.84298
ismus	-9.8438
▁Munitions	-9.84406
▁gebildet	-9.8442
▁po	-9.84439
▁jungen	-9.84442
schule	-9.8445
▁Aufsatz	-9.84469
▁Motor	-9.8451
▁Transport	-9.84599
▁erhält	-9.8466
▁notwendig	-9.84745
▁eigen	-9.84748
tal	-9.84757
fahren	-9.84767
front	-9.84776
▁Mund	-9.8483
▁dritte	-9.8483
▁Schlag	-9.8486
material	-9.84886
▁Stellungen	-9.84896
▁Versuch	-9.84943
▁brachte	-9.84952
▁sche	-9.8496
▁befindet	-9.84969
▁Mangel	-9.85006
führer	-9.85051
▁militärischen	-9.85054
▁ohn	-9.85188
▁We	-9.85336
▁Weib	-9.8545
tel	-9.8546
▁hen	-9.85577
▁Erfahrung	-9.85693
▁Rücken	-9.85723
tre	-9.85763
▁Staat	-9.85836
▁Rechte	-9.85848
▁bestimmte	-9.85855
4.	-9.85862
körper	-9.85862
kra	-9.8591
▁Mannschaft	-9.85927
lose	-9.85929
ë	-9.85933
▁San	-9.85988
▁71	-9.86009
▁rei	-9.86026
▁Leipzig	-9.8613
tag	-9.86152
▁fein	-9.86157
▁verloren	-9.86193
▁Gesamt	-9.86213
▁27.	-9.86227
▁Nieder	-9.8636
▁besitzt	-9.86437
brechen	-9.86463
▁natu	-9.8649
▁Beim	-9.86513
▁einiger	-9.86517
▁ergibt	-9.86654
▁tu	-9.86654
▁58	-9.86736
▁Capitel	-9.86772
po	-9.86953
▁Jst	-9.86993
▁Au	-9.8705
▁sieben	-9.87144
▁y	-9.87151
ow	-9.87221
fo	-9.87311
▁Millionen	-9.87348
▁daru	-9.87355
▁Größe	-9.8736
▁Platz	-9.87411
▁standen	-9.87422
ent	-9.87457
▁genannt	-9.87502
▁minder	-9.8753
ó	-9.87552
▁Zweifel	-9.87585
6.	-9.87622
▁natürlich	-9.87645
▁Com	-9.87685
▁Straßen	-9.87803
▁Ni	-9.87812
ngst	-9.87847
▁Betracht	-9.87858
dt	-9.87912
▁handelt	-9.87984
▁Regen	-9.88023
▁Ritter	-9.88045
ph	-9.88048
▁42	-9.88081
▁hie	-9.88148
▁Möglichkeit	-9.88152
▁schließlich	-9.88192
ordnung	-9.88239
▁Eigen	-9.8825
▁herum	-9.88281
▁Ihre	-9.88416
▁südlich	-9.88447
▁Jo	-9.88466
▁nemlich	-9.88498
dien	-9.88502
▁Johann	-9.8855
▁betrachtet	-9.88668
▁fen	-9.88685
▁66	-9.88704
▁solle	-9.88717
▁gerichtet	-9.88735
▁umb	-9.88737
▁Bar	-9.88841
▁Kupfer	-9.88857
chsten	-9.88948
fläche	-9.88963
▁gelangen	-9.8911
▁Bla	-9.8913
▁Beton	-9.89133
▁darüber	-9.89161
gebracht	-9.89291
über	-9.89293
▁Schrift	-9.89301
öl	-9.89303
▁Grad	-9.89333
hnen	-9.89364
▁offen	-9.89471
▁Hinter	-9.89517
▁1000	-9.89525
▁unsern	-9.89541
▁Verfügung	-9.89554
▁Geistes	-9.8965
igung	-9.89698
▁schaffen	-9.89752
▁Hin	-9.89771
▁Satz	-9.89803
▁diß	-9.89803
einander	-9.8987
▁Linien	-9.89902
▁Meister	-9.89911
kommandanten	-9.8994
▁Mi	-9.89941
schlagen	-9.89945
▁Mitteilungen	-9.89976
▁Anlage	-9.90047
▁vollständig	-9.90199
▁69	-9.90205
hof	-9.90221
▁allgemein	-9.9029
▁fern	-9.90312
dru	-9.90336
fahrt	-9.90372
▁Ingenieur	-9.90376
nner	-9.90434
▁fru	-9.90497
bewegung	-9.90612
baren	-9.90737
▁Patronen	-9.9074
▁rung	-9.9075
zeug	-9.90759
wärts	-9.90765
▁Divisionen	-9.90798
▁Pe	-9.90813
scha	-9.9085
nahme	-9.90897
stände	-9.9091
▁ju	-9.90911
▁rechts	-9.90934
bin	-9.90938
dauer	-9.90992
▁bereit	-9.91008
▁starken	-9.91036
haltung	-9.91057
▁Trag	-9.91086
▁Erfahrungen	-9.9112
▁dafür	-9.91148
▁somit	-9.91163
▁Farbe	-9.91172
rin	-9.91193
zer	-9.91202
ac	-9.9121
▁67	-9.9121
▁Kohlen	-9.91264
▁Pferd	-9.91272
▁Nähe	-9.91305
▁Wochen	-9.91527
ol	-9.91581
▁gefallen	-9.91618
▁gantze	-9.91687
▁Feder	-9.91707
▁Grenze	-9.91721
ction	-9.91782
▁erfahren	-9.91839
▁Tro	-9.91857
90	-9.91875
▁scheinen	-9.91921
mlich	-9.92008
▁Beginn	-9.92014
▁Flu	-9.92027
werke	-9.92056
▁Einzel	-9.92075
▁Wehr	-9.9217
itz	-9.92221
spiel	-9.92272
▁Augenblick	-9.92319
16	-9.92415
▁niemals	-9.92426
▁nächsten	-9.92464
▁Port	-9.92475
bahn	-9.92504
▁geb	-9.92539
▁wi	-9.92626
▁57	-9.92674
▁Antwort	-9.92789
▁Zimmer	-9.92906
▁Tri	-9.92911
kla	-9.92968
▁erster	-9.92993
▁Organisation	-9.93008
▁29.	-9.93056
▁Silber	-9.93072
▁Gruppen	-9.93178
▁Freude	-9.93227
▁Unterschied	-9.93259
▁Leser	-9.93277
▁los	-9.93316
St	-9.93327
▁spa	-9.93335
stadt	-9.93374
▁Bataillone	-9.93392
pt	-9.9343
sä	-9.93439
▁Draht	-9.93455
▁Ladung	-9.9352
▁53	-9.93547
▁Glauben	-9.93583
hle	-9.93585
chter	-9.93654
ski	-9.93685
ari	-9.93742
▁61	-9.93753
▁Hilfe	-9.93755
nes	-9.93758
▁besta	-9.93769
▁Stande	-9.93781
▁Ansicht	-9.93828
▁Schluß	-9.93931
▁verlassen	-9.94047
“.	-9.94067
▁verschieden	-9.94102
▁fahren	-9.94118
▁ri	-9.94148
▁Breite	-9.94197
▁Arbeiter	-9.94209
ierten	-9.94209
▁entfernt	-9.94218
▁Zustand	-9.94239
arten	-9.94275
▁jenes	-9.9428
▁überall	-9.94311
▁64	-9.94339
▁erfordert	-9.94468
rä	-9.94562
▁150	-9.94644
▁fertig	-9.94671
▁reichen	-9.94677
▁gefu	-9.94692
▁offenbar	-9.94694
ller	-9.9474
▁Richt	-9.94759
▁Par	-9.94862
▁Wider	-9.94911
▁meines	-9.94936
▁Hertz	-9.95017
tor	-9.95017
▁Japan	-9.95055
▁Spitze	-9.95072
▁wahre	-9.95097
▁73	-9.95106
punkt	-9.95171
▁Dich	-9.95181
scho	-9.95277
▁Dies	-9.95353
▁(2	-9.95366
▁Schu	-9.95396
bri	-9.95494
▁Kapitel	-9.95538
▁Europa	-9.95604
gewicht	-9.95666
bringen	-9.95756
rger	-9.95782
▁Car	-9.95805
▁ruhig	-9.95854
▁Munition	-9.95863
gezogen	-9.95869
▁vber	-9.95877
korps	-9.95973
▁kra	-9.95987
mon	-9.96078
▁62	-9.96207
▁Blick	-9.96298
▁Plan	-9.96305
▁Hoffnung	-9.96349
ek	-9.96355
▁Leistung	-9.96362
rig	-9.96389
rath	-9.96398
▁Lauf	-9.96419
▁Kompagnie	-9.96428
▁Wilhelm	-9.96463
▁Bd	-9.96501
▁zuvor	-9.96531
▁durchgeführt	-9.96543
mischen	-9.96569
▁Spiel	-9.96581
▁Wunder	-9.96603
▁wor	-9.96638
kampf	-9.96651
12	-9.96665
▁47	-9.96673
▁Minen	-9.96689
▁Aufgaben	-9.96726
▁Richter	-9.96792
elle	-9.96813
▁bist	-9.96859
führen	-9.96984
▁beyden	-9.97
▁darzu	-9.97028
anz	-9.97075
pen	-9.9717
▁Februar	-9.97192
▁gedacht	-9.97234
ßig	-9.97333
höhe	-9.97335
reichen	-9.97357
▁Farben	-9.97358
▁Alter	-9.97369
▁46	-9.97417
▁Ernst	-9.9743
▁warum	-9.97452
halt	-9.97501
wi	-9.97517
lassen	-9.97527
▁hiebei	-9.97599
▁italienischen	-9.9761
▁Massen	-9.97659
maschinen	-9.97664
▁heiligen	-9.97713
wer	-9.97731
▁Gesetze	-9.97765
▁russische	-9.97918
▁War	-9.97957
▁Fest	-9.97968
▁französische	-9.98066
18	-9.98079
▁Ersatz	-9.98083
J	-9.98086
ther	-9.98093
▁Nachdem	-9.98126
haft	-9.98156
▁besonderen	-9.98194
nä	-9.98197
sinn	-9.98263
ly	-9.98282
▁fiel	-9.9838
▁Freiheit	-9.98387
▁Streit	-9.98391
▁Gesicht	-9.984
▁Fr	-9.98403
▁Ausführung	-9.98409
▁Summe	-9.98486
▁Halb	-9.98535
irte	-9.98541
▁jenem	-9.98549
▁besitzen	-9.98662
km	-9.98731
▁könne	-9.98761
▁Tätigkeit	-9.98762
weisen	-9.98811
▁Durchführung	-9.989
▁uner	-9.98936
▁63	-9.99044
▁Klein	-9.99065
▁Blumen	-9.9909
▁Tochter	-9.99102
▁3)	-9.99108
▁Dichter	-9.99123
seite	-9.99212
▁Text	-9.99225
▁Nerven	-9.9928
Er	-9.99319
▁wahren	-9.99398
▁behandelt	-9.99527
gas	-9.99538
stern	-9.99597
▁Garten	-9.99598
▁Kanonen	-9.99625
sweise	-9.9963
▁Handels	-9.99642
ssig	-9.99666
▁Sicherheit	-9.99678
▁eher	-9.9973
▁Mal	-9.99841
Ko	-9.999
vorrichtung	-9.99946
up	-9.99953
ttern	-9.99985
▁Wechsel	-10.0001
▁österreichisch	-10.0004
▁freilich	-10.0012
▁vorzu	-10.0019
ii	-10.0023
▁Herzen	-10.0031
▁Maß	-10.0033
▁Minuten	-10.004
tet	-10.0045
▁Wärme	-10.0053
▁setzte	-10.0054
gruppe	-10.0055
Ma	-10.0068
▁frey	-10.0071
ü	-10.0071
▁wären	-10.0071
11	-10.0074
let	-10.0084
An	-10.0085
lte	-10.0085
15	-10.0087
▁Mond	-10.0094
▁Zwei	-10.0098
▁ausser	-10.0103
▁leichte	-10.0107
▁derart	-10.011
▁Zukunft	-10.0112
▁Erst	-10.0114
▁Dauer	-10.0114
▁em	-10.0117
▁Schaden	-10.0118
▁weiteren	-10.012
schein	-10.0128
▁29	-10.0135
tem	-10.0138
▁Pla	-10.0138
▁Christen	-10.0163
▁Über	-10.0165
▁erwarten	-10.0168
▁The	-10.0169
▁innere	-10.017
▁Daher	-10.0186
▁nördlich	-10.0187
raum	-10.0191
35	-10.0199
▁technischen	-10.0204
▁entstehen	-10.0209
▁Bis	-10.0211
llet	-10.0212
▁schaft	-10.0213
▁Endlich	-10.0213
ntz	-10.0218
▁darinnen	-10.0219
ard	-10.022
▁braucht	-10.0234
▁getroffen	-10.0238
▁les	-10.0242
▁gewöhnlich	-10.0244
X	-10.0247
▁sin	-10.0251
▁größten	-10.0255
▁bestimmen	-10.0258
▁Privat	-10.0259
▁hätten	-10.0261
▁hart	-10.0265
▁Th	-10.0267
▁49	-10.0267
▁hauptsächlich	-10.0274
▁Gelände	-10.0275
▁Erfindung	-10.0276
ppe	-10.028
▁Schein	-10.028
tzlich	-10.0284
ud	-10.0286
▁guter	-10.0287
▁Ol	-10.0288
▁Gang	-10.029
▁Tiefe	-10.0293
▁End	-10.0301
artig	-10.0302
▁74	-10.0307
▁All	-10.0307
▁sti	-10.0319
▁Cha	-10.0322
▁Rückzug	-10.0329
▁31	-10.0338
▁bedeutend	-10.0339
▁Wird	-10.034
▁gewinnen	-10.0347
▁höheren	-10.0356
▁Ad	-10.0358
▁Tode	-10.0358
▁Erb	-10.0365
▁Fenster	-10.0368
▁langsam	-10.0378
▁Aufstellung	-10.0385
ach	-10.0386
▁Fru	-10.0391
▁rief	-10.0395
▁Bogen	-10.0397
ts	-10.0397
schi	-10.0403
lang	-10.0403
▁Wol	-10.0403
▁lu	-10.0405
▁worauf	-10.0406
▁Hälfte	-10.0411
tsch	-10.0414
▁Pfund	-10.0421
ica	-10.0421
▁Not	-10.0422
▁dient	-10.0428
▁Fra	-10.0434
▁Schützen	-10.0439
▁Tabelle	-10.0439
▁Frucht	-10.044
mmen	-10.0444
▁Eltern	-10.0446
▁befinden	-10.0449
▁keinem	-10.0456
?“	-10.0458
▁erwähnt	-10.0463
▁Pu	-10.0466
▁Freunde	-10.0476
14	-10.0477
hm	-10.0477
17	-10.048
▁Heil	-10.048
▁Auff	-10.048
▁Regiment	-10.0481
▁400	-10.0484
▁junge	-10.0486
▁za	-10.0491
▁sobald	-10.0491
▁Flieger	-10.0494
▁geringer	-10.0494
▁geringe	-10.0504
▁Lehre	-10.0506
▁33	-10.0508
mel	-10.0508
ak	-10.0509
▁zog	-10.0512
fi	-10.0517
▁Religion	-10.0529
▁allzu	-10.053
länge	-10.055
▁kom	-10.0552
▁größer	-10.0557
▁stehet	-10.0558
Nr	-10.0562
▁gewonnen	-10.0565
ic	-10.0565
▁wirken	-10.0572
▁bar	-10.0574
▁Christus	-10.0575
▁Reiter	-10.058
▁41	-10.0581
▁gebraucht	-10.0582
▁Obst	-10.0589
▁einzige	-10.0591
cklich	-10.0594
▁Wand	-10.0596
▁Bra	-10.0601
pro	-10.0611
genommen	-10.0628
▁Gegenstand	-10.0631
system	-10.0635
▁Papier	-10.0636
▁GOTT	-10.0637
▁Post	-10.0643
▁31.	-10.0643
▁führte	-10.0652
▁gehet	-10.0653
▁Eben	-10.0656
▁Wi	-10.0656
▁dürfen	-10.0657
ô	-10.0662
▁grosser	-10.0665
▁Damit	-10.0666
▁manche	-10.067
▁Kla	-10.0673
losen	-10.068
▁Herbst	-10.0698
▁Dezember	-10.0699
▁Pflanzen	-10.0699
ide	-10.0701
bogen	-10.0703
▁bekommen	-10.0709
▁Kämpfe	-10.071
▁Festung	-10.0713
▁Anfangs	-10.0715
▁44	-10.0718
▁vnter	-10.0718
▁tung	-10.0728
iz	-10.0737
sfähigkeit	-10.0743
▁Schnee	-10.0743
▁Familie	-10.0743
▁sichtbar	-10.0745
▁37	-10.0746
legung	-10.0749
▁Kosten	-10.0749
▁legt	-10.0755
▁militärische	-10.0757
▁34	-10.0762
▁"	-10.0762
min	-10.077
1)	-10.0772
▁theil	-10.0776
▁Feldartillerie	-10.0782
res	-10.0783
▁Haut	-10.0786
lager	-10.0787
▁nung	-10.0788
▁erfolgen	-10.0789
▁dis	-10.0791
lauf	-10.0795
gestellt	-10.0801
▁jhn	-10.0801
▁zeigte	-10.0802
▁Theorie	-10.0803
ckel	-10.0804
▁Einheit	-10.0809
▁Geschosse	-10.0811
▁tro	-10.0813
▁Gegend	-10.0822
▁Andere	-10.0823
▁Men	-10.0824
▁cher	-10.0831
▁Verha	-10.0835
licht	-10.0835
arbeit	-10.0837
▁Schiffs	-10.0839
▁bemerkt	-10.0851
▁hergestellt	-10.0856
schä	-10.0857
▁Verteidigung	-10.0858
▁Schwierigkeiten	-10.0859
▁Jänner	-10.0859
▁lässt	-10.086
ub	-10.0862
det	-10.0872
platz	-10.0873
sol	-10.0877
tigkeit	-10.0886
▁Entscheidung	-10.0891
▁dieß	-10.0898
▁Donau	-10.0903
▁diejenigen	-10.0904
con	-10.0912
▁sodann	-10.0916
▁Fragen	-10.0922
▁Nachrichten	-10.0922
▁aufzu	-10.0923
▁gieng	-10.0925
nnt	-10.0926
▁darunter	-10.0929
▁schreiben	-10.0929
▁Dis	-10.0933
▁zuweilen	-10.0935
▁Mil	-10.0939
hi	-10.094
▁120	-10.0944
▁einfach	-10.0955
▁kurze	-10.0956
▁Grenz	-10.0959
▁Fla	-10.096
schla	-10.0962
▁Bericht	-10.0963
▁Voll	-10.0964
hand	-10.0966
ckung	-10.0969
ai	-10.097
▁Truppe	-10.0978
erei	-10.0983
▁gra	-10.0984
▁lieb	-10.0986
▁Rolle	-10.0994
▁englischen	-10.0997
▁76	-10.1004
irten	-10.1005
▁vielfach	-10.1007
ßte	-10.1013
▁nötig	-10.1015
tus	-10.1015
setzung	-10.1019
▁heim	-10.1027
▁Kugel	-10.1033
▁Untersuchung	-10.1038
▁Sieg	-10.1047
rischen	-10.1056
dorf	-10.1056
massen	-10.1062
▁seien	-10.1073
▁verstehen	-10.1077
arbeiten	-10.1079
▁Beobachtung	-10.1079
ffer	-10.108
▁Ausrüstung	-10.1085
▁Brand	-10.1086
▁Flotte	-10.109
▁geblieben	-10.1092
▁Armeen	-10.1095
orum	-10.1099
▁Dar	-10.1116
Ein	-10.1116
▁glaube	-10.1119
▁ewig	-10.1132
▁sterben	-10.1136
▁lesen	-10.114
rer	-10.1152
▁Minister	-10.1159
▁Kreuz	-10.1161
▁bi	-10.1163
▁Stoff	-10.1164
geschütze	-10.1164
gesetzt	-10.1169
stelle	-10.1173
muth	-10.1174
ker	-10.1183
▁gla	-10.1185
▁versch	-10.1189
▁Thu	-10.1189
▁Paul	-10.1191
zo	-10.1196
ator	-10.1196
▁Auflage	-10.1201
mme	-10.1201
▁43	-10.1201
▁non	-10.1202
linien	-10.1205
▁Völker	-10.1208
▁trägt	-10.1215
▁Orte	-10.1217
▁1917	-10.1221
▁mußten	-10.1223
▁Last	-10.1227
▁halben	-10.1234
▁Preußen	-10.1244
▁hiezu	-10.1251
▁sehe	-10.1253
▁Bestimmungen	-10.1254
▁Straße	-10.1257
▁Firma	-10.1267
▁dgl	-10.1268
▁ger	-10.1269
holz	-10.127
▁geschlossen	-10.1272
▁festen	-10.128
▁links	-10.1284
▁hält	-10.1288
ufer	-10.1288
▁Ze	-10.1291
schutz	-10.1296
ndern	-10.13
▁Beschreibung	-10.1302
▁Urtheil	-10.1303
▁Nov	-10.1305
75	-10.1308
rter	-10.1311
▁Anordnung	-10.1314
▁3,	-10.1314
▁angeordnet	-10.1317
▁1916	-10.1318
kon	-10.1319
▁vorigen	-10.1322
▁zehn	-10.1324
sucht	-10.1327
▁Bataillon	-10.134
▁schlecht	-10.1345
▁that	-10.1351
samkeit	-10.1355
70	-10.1356
▁geschieht	-10.1362
alen	-10.1363
arm	-10.1368
▁fremde	-10.1371
▁lernen	-10.1381
▁Bundes	-10.1384
▁breit	-10.1387
▁unsre	-10.1389
▁form	-10.1394
ume	-10.1394
▁bzw	-10.1394
tig	-10.1395
▁Tugend	-10.1398
▁Verhältnissen	-10.1405
▁Helden	-10.1408
dern	-10.1413
▁leiden	-10.1414
ibus	-10.1415
▁Schatten	-10.1415
stra	-10.1419
▁Lob	-10.142
▁ausgeführt	-10.1422
▁geschickt	-10.1422
lagen	-10.1427
pra	-10.1427
▁leisten	-10.1429
strom	-10.143
▁99	-10.1435
ckte	-10.1436
▁Ofen	-10.1438
▁gelten	-10.1442
▁mittel	-10.1443
▁Handlung	-10.1443
▁Figuren	-10.1447
▁gleichfalls	-10.1451
▁gelang	-10.1451
wege	-10.1453
ex	-10.1455
yl	-10.146
▁erschienen	-10.1463
gra	-10.1465
tage	-10.1469
▁Aussicht	-10.1472
▁Kommando	-10.1473
ot	-10.1478
richt	-10.1479
treten	-10.1482
halb	-10.1482
▁Stimme	-10.1484
▁1915	-10.1484
nung	-10.1485
▁Wetter	-10.1486
▁schwa	-10.1487
▁Gleichung	-10.1489
▁Vier	-10.1493
lö	-10.1498
▁Gemu	-10.1501
▁aufgestellt	-10.1503
oni	-10.1504
▁Kreis	-10.1504
▁laß	-10.1508
▁sucht	-10.1509
▁Grade	-10.1517
▁Bedingungen	-10.152
▁Fach	-10.1523
▁VIII	-10.1529
wegen	-10.1532
▁Kom	-10.1542
▁dung	-10.1544
▁51	-10.1557
▁menschlichen	-10.1568
▁schlagen	-10.157
nü	-10.1576
▁richten	-10.1579
ron	-10.1579
ct	-10.1586
▁dargestellt	-10.1589
ndigen	-10.1589
voll	-10.159
nige	-10.1592
lehre	-10.1598
träger	-10.1602
ellen	-10.1603
▁Osten	-10.1605
▁fällt	-10.1606
▁lung	-10.1608
trag	-10.1608
eten	-10.1609
▁Erscheinung	-10.1613
zeichen	-10.1613
maschine	-10.1613
nimmt	-10.1615
▁getragen	-10.1625
▁beobachtet	-10.1629
hmen	-10.1631
lf	-10.1635
▁Ereignisse	-10.1638
▁Schule	-10.1642
▁vñ	-10.1651
▁Verluste	-10.166
bra	-10.1664
▁befindlichen	-10.1666
das	-10.1666
▁bedeutet	-10.1669
▁Nutzen	-10.1672
▁Todes	-10.1674
▁Politik	-10.1677
tik	-10.1678
od	-10.168
▁Lieb	-10.1683
berhaupt	-10.1683
stru	-10.1684
bil	-10.1684
▁Pflicht	-10.1685
▁Drei	-10.1688
▁Hat	-10.1693
▁Alten	-10.17
▁Ursachen	-10.17
kom	-10.1702
eln	-10.1703
tzet	-10.1706
nische	-10.1715
▁besetzt	-10.1716
▁Abwehr	-10.1718
(	-10.172
stab	-10.1721
▁Figur	-10.1723
▁größte	-10.1724
Ka	-10.1729
ffel	-10.1729
graben	-10.173
▁Leuten	-10.1732
▁wenigen	-10.1734
▁angebracht	-10.1734
▁FML	-10.1736
nkt	-10.1738
▁Ehr	-10.1738
▁Schuld	-10.1743
▁Umständen	-10.1751
ran	-10.1751
nheit	-10.1759
▁Dreh	-10.1769
▁sogleich	-10.177
▁Offensive	-10.1774
▁Aufnahme	-10.1774
schrift	-10.178
▁Franzosen	-10.178
lz	-10.1781
▁Norden	-10.1785
teile	-10.1785
ften	-10.1797
Sa	-10.1811
▁Feindes	-10.1811
▁Gefa	-10.1819
handel	-10.1825
▁Zahlen	-10.1829
for	-10.1831
▁Dienste	-10.1832
▁Angriffe	-10.1837
ssi	-10.1839
gl	-10.1842
▁seye	-10.1849
nischen	-10.1851
▁Orten	-10.1852
▁Gal	-10.1852
▁bezw	-10.1869
▁HErr	-10.1878
▁Gen	-10.1879
▁inneren	-10.1887
▁38	-10.1888
▁treffen	-10.1894
▁Quer	-10.1895
gte	-10.1897
▁IR	-10.19
▁Werck	-10.1903
Artillerie	-10.1905
▁ä	-10.1907
uter	-10.1909
▁lauter	-10.1915
▁fehlt	-10.1917
Ha	-10.1923
▁Sol	-10.1926
▁Rhein	-10.193
▁alter	-10.1945
stärke	-10.1949
cul	-10.1954
▁Christ	-10.1956
In	-10.1956
val	-10.1957
▁geeignet	-10.1959
▁ler	-10.1979
▁schla	-10.1979
▁Monate	-10.1983
▁Wahr	-10.1984
rum	-10.1989
umen	-10.199
wehr	-10.1991
lung	-10.1992
▁sto	-10.1998
▁Eigenschaften	-10.1999
▁entstanden	-10.2001
sie	-10.201
▁Sto	-10.201
▁(1	-10.2011
ladung	-10.2017
▁Ber	-10.2024
▁Heere	-10.2029
▁180	-10.2031
▁schwach	-10.2034
▁Zustande	-10.2037
▁Georg	-10.2037
kel	-10.2038
rme	-10.2042
▁Annahme	-10.2042
▁au	-10.2047
▁worin	-10.2054
hrlich	-10.2055
▁wenige	-10.2059
▁gantzen	-10.2061
▁Gnade	-10.2062
▁Herzog	-10.2062
▁wort	-10.2068
▁mindestens	-10.2072
▁600	-10.2076
zig	-10.2077
▁laut	-10.2087
yn	-10.2088
▁sonder	-10.2088
▁Erfolge	-10.2089
chs	-10.209
icht	-10.2106
thum	-10.2108
folge	-10.2109
▁Hafen	-10.2115
▁Solche	-10.212
▁feuer	-10.2121
▁1918	-10.2124
▁Briefe	-10.213
▁entspricht	-10.2133
▁oberen	-10.2134
san	-10.2139
tan	-10.2144
unt	-10.2149
Der	-10.2149
fluß	-10.2151
▁Jahrhundert	-10.2158
▁bestand	-10.2161
▁Herꝛ	-10.2165
▁Rahmen	-10.2169
▁ster	-10.2169
ffe	-10.218
▁vereinigt	-10.2181
▁Konstruktion	-10.2182
ino	-10.2184
▁scharf	-10.2186
▁wesen	-10.2188
▁Abteilung	-10.219
▁Conrad	-10.2192
▁öst	-10.2193
▁politischen	-10.2194
▁Hertzen	-10.2195
▁Spannung	-10.2199
▁78	-10.2201
▁Ci	-10.2203
▁mahl	-10.2203
▁mehreren	-10.2204
gegen	-10.2207
▁annehmen	-10.2208
vers	-10.2208
ria	-10.221
är	-10.2212
▁lasse	-10.2229
▁gemeinen	-10.2239
smittel	-10.224
▁geringen	-10.2241
19	-10.2245
mä	-10.2248
ñ	-10.225
frage	-10.225
▁rück	-10.2252
abteilung	-10.2252
▁ungefähr	-10.2259
▁El	-10.226
bung	-10.2261
Ba	-10.2266
▁ähnlich	-10.2267
niß	-10.2267
plan	-10.2267
▁stellte	-10.2272
gebiet	-10.2274
uß	-10.2281
▁Stra	-10.2291
▁betrug	-10.2292
▁befestigt	-10.2293
▁Geschützen	-10.2294
▁wiederholt	-10.2304
▁Ihnen	-10.2305
▁par	-10.2306
▁art	-10.2313
▁Opfer	-10.232
▁Pra	-10.2321
▁Vorstellung	-10.2323
▁Begriffe	-10.233
pfen	-10.2331
▁samt	-10.2339
▁59	-10.234
hlt	-10.2347
gung	-10.235
▁italienische	-10.235
▁Ve	-10.2351
▁sam	-10.2352
▁vnser	-10.2359
▁Ey	-10.2361
▁Stoß	-10.2361
=	-10.2364
▁selbige	-10.2367
▁tri	-10.237
▁Verstand	-10.2371
▁gestattet	-10.2371
▁Schuss	-10.238
▁Pri	-10.2385
▁Doppel	-10.2389
▁hierauf	-10.2391
▁einfache	-10.2393
▁Hilfs	-10.2395
▁kurzen	-10.2396
▁Regiments	-10.24
rm	-10.24
▁östlich	-10.2401
hrte	-10.2404
ndert	-10.2418
ill	-10.2423
▁Bilder	-10.2425
schau	-10.2426
hal	-10.2434
▁Kern	-10.2445
▁Belagerungs	-10.2445
zt	-10.2447
atur	-10.245
maß	-10.2455
▁Himmels	-10.2456
▁billig	-10.2463
scher	-10.2465
▁mei	-10.2469
geht	-10.2473
lau	-10.2477
▁westlich	-10.2477
▁gelassen	-10.2479
▁vorzüglich	-10.248
▁bezüglich	-10.2481
ew	-10.2484
▁Beobachtungs	-10.2484
▁rechnen	-10.2486
▁fassen	-10.2488
▁tiefer	-10.2492
▁werth	-10.2495
▁gelegen	-10.2499
ille	-10.2508
blatt	-10.2512
bruch	-10.2512
▁grund	-10.2516
setzt	-10.2516
betrieb	-10.2524
▁fo	-10.2527
▁Schicksal	-10.253
schwe	-10.2533
▁Japaner	-10.2538
▁Berge	-10.2539
last	-10.2539
▁blieben	-10.254
punkte	-10.2546
▁vergessen	-10.2549
win	-10.2551
lan	-10.2558
fern	-10.2558
▁96	-10.2561
▁Ausnahme	-10.2562
▁unmöglich	-10.2562
▁Schwester	-10.2564
▁mittleren	-10.2564
nke	-10.2569
gegangen	-10.2569
▁dru	-10.257
br	-10.257
ang	-10.2575
phi	-10.2582
wechsel	-10.2586
▁beyde	-10.2587
▁Tempel	-10.2591
züge	-10.2595
▁ih	-10.2602
▁gerecht	-10.2609
▁Anton	-10.2614
▁77	-10.2616
lis	-10.2618
▁genannten	-10.2623
ys	-10.2624
▁todt	-10.2631
▁englische	-10.2633
▁Eindruck	-10.2637
▁betrachten	-10.2641
▁fremden	-10.2642
gabe	-10.2643
▁begann	-10.2648
▁Hauß	-10.2648
▁fin	-10.2652
▁gebe	-10.2652
45	-10.2652
▁wichtige	-10.2653
▁erkla	-10.2655
platte	-10.2656
▁still	-10.2666
▁Seit	-10.267
▁Verlust	-10.2671
sin	-10.2674
stet	-10.2683
29	-10.2684
▁Verfassung	-10.2688
▁erfolgte	-10.2688
▁Königs	-10.2689
leg	-10.269
▁suchte	-10.2691
▁anderes	-10.2694
▁gelangt	-10.2695
rigen	-10.2696
mals	-10.2699
▁Col	-10.2699
▁Mon	-10.27
▁Besatzung	-10.2702
▁vorge	-10.2703
▁Glück	-10.2708
▁flu	-10.2711
▁schwe	-10.2711
▁bewegt	-10.2716
▁co	-10.2718
▁Felde	-10.2719
schließ	-10.272
▁Ring	-10.2721
▁son	-10.2722
▁Volck	-10.2722
lischen	-10.2723
▁Beschaffenheit	-10.2728
▁Laufe	-10.2742
▁for	-10.2742
mü	-10.2745
isches	-10.2749
La	-10.2749
▁Heinrich	-10.275
▁Haar	-10.2751
▁Kaliber	-10.2753
▁ni	-10.2759
▁Stab	-10.2761
tragen	-10.2763
rische	-10.2763
▁erschien	-10.2764
▁gefangen	-10.2768
ip	-10.2772
bus	-10.2776
▁Brücke	-10.2777
ange	-10.2784
▁Waffe	-10.2786
▁(18	-10.2788
hnlich	-10.2788
▁fehlen	-10.2792
▁Gr	-10.2792
24	-10.2792
▁Vertr	-10.2795
▁Offizier	-10.2796
anten	-10.2798
gesetz	-10.28
rb	-10.2808
▁Divisions	-10.2809
▁angesehen	-10.2809
▁Beweis	-10.2809
▁erzielt	-10.281
▁deiner	-10.2812
▁93	-10.2816
uf	-10.2821
ini	-10.2821
hung	-10.2823
▁halbe	-10.2825
▁Erzherzog	-10.2827
▁vollen	-10.2829
▁Werte	-10.283
reiche	-10.2833
▁Professor	-10.2834
▁erzeugt	-10.2836
▁Oder	-10.2837
fort	-10.2838
▁Berechnung	-10.284
pulver	-10.2841
▁Kommandanten	-10.2843
ów	-10.2845
▁eng	-10.2847
▁aufgenommen	-10.2853
are	-10.2855
▁Dein	-10.2855
▁95	-10.2862
iß	-10.2862
ding	-10.2867
ligkeit	-10.2869
flu	-10.2871
▁Jagd	-10.2872
brigade	-10.2874
▁behalten	-10.2874
▁feste	-10.2876
▁Betrachtung	-10.2878
▁Gegners	-10.2879
batterien	-10.2885
▁Verhalten	-10.2886
▁alsdann	-10.2888
▁Gebirge	-10.289
gegeben	-10.2891
▁beider	-10.2896
▁gung	-10.2898
▁bisherigen	-10.2901
▁Deutsche	-10.2903
fälle	-10.2904
▁pi	-10.2905
▁ff	-10.2906
▁Aug	-10.2908
▁del	-10.2913
ob	-10.2919
▁höchst	-10.292
wald	-10.2927
▁seynd	-10.293
▁fuhr	-10.2934
stoff	-10.2936
gelassen	-10.2937
▁Korn	-10.2938
▁Verhältnis	-10.2941
▁arbeiten	-10.2941
▁gehe	-10.2944
▁Dingen	-10.2947
durch	-10.2948
48	-10.2948
yr	-10.2949
▁98	-10.295
▁anfangs	-10.2951
▁Exempel	-10.2957
▁geboren	-10.2958
▁Spiegel	-10.296
▁volle	-10.2962
27	-10.2966
▁unbedingt	-10.2968
▁Autor	-10.2969
artigen	-10.297
2)	-10.2971
bü	-10.2972
▁erforderlich	-10.2972
▁wiederum	-10.2975
geschichte	-10.2979
hrend	-10.2981
28	-10.2982
▁gänzlich	-10.2984
stücke	-10.2991
▁Vergleich	-10.2995
les	-10.2995
▁vermag	-10.2996
▁wunder	-10.3
▁Grenzen	-10.3005
▁Deckung	-10.3005
rlich	-10.3006
▁pflegt	-10.3011
schiff	-10.302
uer	-10.3021
▁Eis	-10.3021
mus	-10.3022
spi	-10.3025
▁schwerer	-10.3027
▁Mor	-10.3031
▁Adel	-10.3041
▁halte	-10.3041
▁deinen	-10.3041
▁Jeder	-10.3042
05	-10.3042
▁wichtigsten	-10.3043
▁gehören	-10.305
▁mittlere	-10.305
▁En	-10.3051
ici	-10.3051
▁Wissenschaft	-10.3052
26	-10.3052
▁zuletzt	-10.3052
▁Durchmesser	-10.3053
hafte	-10.3057
▁Ruhm	-10.3066
▁eignen	-10.3068
artige	-10.3069
▁muste	-10.3071
▁Schwa	-10.3077
▁Verkehr	-10.3078
▁stellung	-10.3082
fangen	-10.3085
ftig	-10.3087
▁fi	-10.3087
▁sehn	-10.309
sp	-10.3103
rien	-10.3105
▁Ubergang	-10.3106
▁darnach	-10.3107
▁nig	-10.3115
▁solchem	-10.3115
▁of	-10.3115
▁Kalk	-10.3125
▁Idee	-10.3126
▁Kampfe	-10.3126
▁Kommandant	-10.3129
13	-10.3131
▁Einführung	-10.3132
▁zuge	-10.3137
macht	-10.3138
▁Furcht	-10.3144
▁Dia	-10.3144
▁gebunden	-10.3146
von	-10.3146
▁Maria	-10.3155
fä	-10.3161
▁Ganzen	-10.3162
▁Prüfung	-10.3167
▁Blei	-10.3171
▁bedarf	-10.3172
▁wußte	-10.3173
▁Bruch	-10.3189
▁Handel	-10.319
▁Versuchs	-10.3195
baum	-10.3198
▁Kreise	-10.32
bru	-10.3201
▁Angaben	-10.3205
▁Klasse	-10.3207
▁empfangen	-10.3208
▁Gesch	-10.3209
▁q	-10.3209
▁(„	-10.3211
▁Sperr	-10.3212
ou	-10.3215
brenn	-10.3221
▁geschaffen	-10.3223
▁Mörser	-10.3223
▁Akt	-10.3228
igt	-10.3232
rohr	-10.3232
ps	-10.3233
▁tion	-10.3242
▁Finger	-10.3242
▁müsse	-10.3249
herr	-10.3252
AR	-10.3254
armee	-10.3254
▁schlug	-10.3254
gelegt	-10.3254
lü	-10.3255
ständig	-10.326
▁85	-10.3261
▁blut	-10.3262
dra	-10.3266
▁Steuer	-10.3266
▁Otto	-10.3271
pha	-10.3271
▁Meine	-10.3272
nze	-10.3273
▁Hinsicht	-10.3276
▁Nie	-10.3277
▁einst	-10.3286
▁wirkt	-10.3288
▁schuldig	-10.3295
▁Will	-10.3297
▁Stern	-10.33
▁London	-10.33
▁entsprechende	-10.3301
▁voller	-10.3301
tzig	-10.3302
▁Ballon	-10.3302
mp	-10.3306
▁Vorrichtung	-10.3309
▁Stirn	-10.3309
▁Val	-10.331
lus	-10.3315
▁Elemente	-10.3319
▁bedingt	-10.3322
▁Moment	-10.3329
ndung	-10.3333
▁Alt	-10.3333
uff	-10.3335
witz	-10.3336
▁Kar	-10.334
reserve	-10.3341
▁allezeit	-10.3345
station	-10.3346
▁erklärt	-10.3347
▁gegangen	-10.3349
▁Fläche	-10.3352
▁unterscheiden	-10.3353
statt	-10.3354
dan	-10.3355
nste	-10.3356
offizier	-10.3359
▁Stamm	-10.3359
▁Zünd	-10.3366
▁bieten	-10.3369
▁Euch	-10.3375
straße	-10.3376
ny	-10.3378
▁legte	-10.3387
▁zirka	-10.3387
*)	-10.339
kunst	-10.3392
pel	-10.3393
rg	-10.3394
▁Männer	-10.3395
▁Industrie	-10.3399
ude	-10.3405
blick	-10.3409
▁Milch	-10.3409
▁Sal	-10.3409
▁Zucker	-10.3415
schließen	-10.3415
▁gezeigt	-10.3417
▁geschlagen	-10.3417
▁Trost	-10.3418
gleichen	-10.342
▁Eu	-10.3432
▁ungleich	-10.3439
▁Vogel	-10.3447
lten	-10.3456
kal	-10.3461
▁gebrauchen	-10.3462
welt	-10.3463
▁gewählt	-10.3466
▁jhre	-10.3468
▁täglich	-10.347
▁Bezug	-10.3473
▁Kammer	-10.3474
▁Juden	-10.3474
▁Statt	-10.3478
hä	-10.3478
sischen	-10.3479
schläge	-10.3479
▁Neue	-10.348
rk	-10.3485
▁Verwaltung	-10.3485
▁88	-10.3487
haut	-10.3494
▁Einige	-10.3495
▁zieht	-10.3498
▁va	-10.3498
36	-10.3499
▁Nachricht	-10.3501
▁lebt	-10.3501
▁unendlich	-10.3502
▁sammen	-10.3504
schlacht	-10.3512
mar	-10.3513
nst	-10.3514
schießen	-10.3517
▁bewirkt	-10.3517
▁Außer	-10.3519
lassung	-10.352
gleich	-10.352
▁bevor	-10.3521
▁1904	-10.3521
▁Miß	-10.3525
▁Weiter	-10.3527
▁Monarchie	-10.3527
„	-10.3528
innen	-10.3531
▁erkannt	-10.3534
ata	-10.3534
schluss	-10.3538
kam	-10.354
▁beschrieben	-10.3544
ire	-10.3546
▁Gegenwart	-10.3551
▁wovon	-10.3552
mor	-10.3553
▁hand	-10.3554
▁Gemein	-10.3554
▁gerne	-10.3556
nik	-10.3557
▁liegenden	-10.356
▁reine	-10.3564
wesens	-10.3564
liches	-10.3569
▁freundlich	-10.3575
▁Umstand	-10.3577
▁Neigung	-10.3581
geführt	-10.3582
▁Unterstützung	-10.3582
▁Rauch	-10.3583
gehalt	-10.3589
▁Fo	-10.3591
sitz	-10.3593
lden	-10.3595
▁Wild	-10.3604
▁hinweg	-10.3608
▁Studium	-10.3609
▁Bre	-10.3609
▁Hel	-10.361
▁Befestigungen	-10.361
▁manchen	-10.3614
▁Straf	-10.3614
▁Beispiele	-10.3615
nglich	-10.3617
▁Gewissen	-10.3617
▁Formel	-10.3617
▁kon	-10.3617
▁modernen	-10.3622
▁Behandlung	-10.3624
▁Rein	-10.3626
▁zweckmäßig	-10.363
ert	-10.3635
▁Raume	-10.3635
▁ber	-10.3636
▁sage	-10.3638
▁teil	-10.3638
▁teils	-10.3639
rze	-10.3642
▁Mauer	-10.3642
▁gemeine	-10.3647
zubringen	-10.3651
gänge	-10.3652
▁Dank	-10.3658
▁hinauf	-10.3658
▁Gi	-10.366
▁Insel	-10.366
▁nennt	-10.3678
▁vieler	-10.3682
▁schu	-10.3683
ndel	-10.3687
▁unserm	-10.3688
▁Vorder	-10.3693
▁Kompagnien	-10.3704
▁fanden	-10.3705
▁Sanitäts	-10.3708
▁Grundlage	-10.3709
▁Erzeugung	-10.3709
▁angelegt	-10.3711
▁obgleich	-10.3716
▁bewegen	-10.3732
and	-10.3733
▁angeführten	-10.3734
▁Partei	-10.3739
▁Skizze	-10.3741
lingen	-10.3743
▁Methode	-10.3744
▁Weiß	-10.3747
▁Wei	-10.3747
geln	-10.3747
theile	-10.3747
▁Arme	-10.3748
▁Fürsten	-10.3748
grund	-10.3752
▁griff	-10.3752
▁Cu	-10.3755
▁Grafen	-10.376
ltig	-10.376
▁Ke	-10.3761
cus	-10.3762
viel	-10.3765
▁j	-10.3766
chtigen	-10.3769
▁Graben	-10.377
▁Felsen	-10.3774
verhältnisse	-10.3776
▁bedeckt	-10.3778
standes	-10.3781
▁000	-10.3782
stellungen	-10.3783
▁glaubte	-10.3784
▁Amt	-10.3786
▁miß	-10.3789
▁möchte	-10.3791
schie	-10.3795
kunde	-10.3795
▁Siehe	-10.3796
▁Brenn	-10.3797
▁Strich	-10.3798
▁Gehirn	-10.38
menge	-10.38
▁Beobachtungen	-10.38
▁ment	-10.3801
▁stehende	-10.3805
theilen	-10.3806
Wa	-10.3807
ula	-10.3808
▁nahmen	-10.3808
▁min	-10.3809
sprechen	-10.3809
▁Soll	-10.3809
zustellen	-10.3813
leute	-10.3815
▁wirksam	-10.3822
▁Eng	-10.3824
kräfte	-10.3825
▁eigentlichen	-10.3826
meter	-10.3828
ori	-10.3837
▁Rosen	-10.3841
▁jhnen	-10.3842
rücken	-10.3843
▁Vernunft	-10.3846
▁Schön	-10.385
chern	-10.3857
▁Schloß	-10.3858
stoffe	-10.386
▁Dach	-10.3861
jahr	-10.3862
dro	-10.3863
▁glücklich	-10.3863
▁bietet	-10.3863
▁höher	-10.3865
34	-10.387
▁Italiener	-10.3901
rdig	-10.3903
č	-10.3904
▁Betrieb	-10.3909
pon	-10.3911
▁Christo	-10.3912
▁eingeführt	-10.3913
▁Treffer	-10.3915
):	-10.3918
ok	-10.3924
II	-10.3925
▁hindurch	-10.3926
▁erwähnten	-10.3927
▁angewendet	-10.3929
if	-10.393
▁gesch	-10.3933
▁Jahrhunderts	-10.3934
▁Thal	-10.3934
▁Gnaden	-10.3936
ES	-10.3938
ld	-10.3939
lig	-10.394
▁Hertzog	-10.3941
▁Erscheinungen	-10.3941
pol	-10.3953
finden	-10.3957
▁wendet	-10.3957
▁freien	-10.3958
▁Muth	-10.396
schuß	-10.396
▁Blatt	-10.3962
▁mü	-10.3967
▁Chef	-10.397
▁Westen	-10.3971
▁gegenwärtig	-10.3972
mische	-10.3973
▁Süden	-10.3979
▁falls	-10.3979
cu	-10.3982
▁Daten	-10.3983
▁Thor	-10.3985
▁fre	-10.3989
▁treiben	-10.3991
nisse	-10.4002
38	-10.4009
schnitt	-10.401
▁erwiesen	-10.4013
▁selig	-10.4013
▁est	-10.4014
▁angegeben	-10.4015
▁neues	-10.4017
chet	-10.4019
▁Geschoss	-10.402
▁verdient	-10.4021
ure	-10.4022
▁Josef	-10.4028
37	-10.4029
▁höhere	-10.4029
▁Priester	-10.403
wirtschaft	-10.403
fassen	-10.4031
▁einzigen	-10.4032
▁Y	-10.4033
stel	-10.4033
▁beschränkt	-10.4034
▁Telephon	-10.4035
49	-10.4036
ix	-10.4038
▁bequem	-10.4041
▁Operationen	-10.4042
▁Joseph	-10.4043
▁bekannten	-10.4043
gehalten	-10.4044
▁ar	-10.4054
dri	-10.4056
▁eingerichtet	-10.4061
▁Mannes	-10.4064
▁4)	-10.4066
▁Nu	-10.4075
▁84	-10.4078
▁japanischen	-10.4079
▁Bewegungen	-10.4079
sum	-10.408
fabrik	-10.408
▁gi	-10.4081
▁vol	-10.4081
▁Vortheil	-10.4081
▁Wunsch	-10.4082
▁Basis	-10.4082
▁versucht	-10.4087
▁Schwarz	-10.4092
▁wei	-10.4093
ju	-10.4095
▁Hals	-10.4098
▁Zeug	-10.41
nf	-10.4101
▁Grab	-10.4105
▁sinn	-10.4105
▁elektrischen	-10.4106
▁Bal	-10.4106
▁Beide	-10.4111
see	-10.4111
ial	-10.4114
bund	-10.4119
▁trocken	-10.4127
Ungarn	-10.4132
▁trug	-10.4132
▁Maschine	-10.4135
rit	-10.4137
▁Diener	-10.4141
▁Tisch	-10.4141
▁Folgen	-10.4145
▁39	-10.4155
gna	-10.4158
merk	-10.4159
▁86	-10.4166
om	-10.4168
nahm	-10.417
van	-10.4171
nitz	-10.4172
▁Erz	-10.4175
▁Jesu	-10.4176
▁Amerika	-10.4181
sz	-10.4181
▁heil	-10.4182
▁Serbien	-10.4184
▁Erziehung	-10.4184
ges	-10.4187
▁Salz	-10.4189
▁ken	-10.4191
bataillon	-10.4196
▁genügend	-10.4197
▁Vn	-10.4201
rück	-10.4205
▁womit	-10.4206
▁79	-10.4212
▁net	-10.4215
▁soweit	-10.4219
▁dicht	-10.4219
▁zwo	-10.4219
▁Weiber	-10.422
▁ordentlich	-10.4222
▁Viel	-10.4223
▁Fälle	-10.4228
▁Kapital	-10.4229
▁mancher	-10.4229
76	-10.4232
▁Schnellfeuer	-10.4232
▁Sp	-10.4234
▁Polen	-10.4237
qu	-10.4238
▁Maße	-10.4239
ttlichen	-10.4239
säure	-10.4244
▁richtet	-10.4244
▁wachsen	-10.4246
▁eigentliche	-10.4248
▁Spanien	-10.4251
▁Schau	-10.4256
nus	-10.426
▁kü	-10.4262
▁May	-10.4263
▁Glieder	-10.4264
steigen	-10.4265
▁vorkommen	-10.4268
▁getrennt	-10.4268
▁Nahmen	-10.4272
▁Joh	-10.4272
▁gewe	-10.4275
teilen	-10.4276
falls	-10.4276
bauten	-10.4278
▁heutigen	-10.4278
500	-10.4281
ati	-10.4284
▁Nichts	-10.4289
mie	-10.429
cz	-10.4296
▁ti	-10.4298
▁richtige	-10.43
▁Gefühl	-10.43
▁unseren	-10.4302
schrei	-10.4305
▁Technik	-10.4308
▁gezwungen	-10.4311
▁Ubungen	-10.4311
fahr	-10.4314
▁elektrische	-10.4315
▁Schüsse	-10.4315
stahl	-10.432
▁ches	-10.4326
▁Nation	-10.4329
dic	-10.4339
▁fragte	-10.4341
▁Sicherung	-10.4343
▁Apostel	-10.4344
pfe	-10.4345
▁plötzlich	-10.4346
gar	-10.435
▁Armen	-10.4351
▁Flugzeug	-10.4352
▁Wall	-10.4352
kreis	-10.4355
▁92	-10.4359
▁Ferner	-10.4364
▁gegebenen	-10.4368
ani	-10.437
▁Vorbereitung	-10.4373
▁Wil	-10.4373
▁Räder	-10.4374
weis	-10.4376
▁Todt	-10.4376
▁Schi	-10.4378
▁verlangt	-10.4379
▁Apparat	-10.4384
verfahren	-10.4387
Ab	-10.4388
22	-10.4388
eur	-10.439
▁Em	-10.4391
▁Bevölkerung	-10.4392
luft	-10.4394
▁gutes	-10.4394
handlung	-10.4395
▁überdies	-10.4396
96	-10.4405
▁Zeitschrift	-10.4407
▁Thätigkeit	-10.4408
▁gebaut	-10.4409
▁haupt	-10.4414
▁darauff	-10.4421
▁Aufmerksamkeit	-10.4424
▁folglich	-10.4426
▁Abteilungen	-10.443
dor	-10.4433
▁Musik	-10.4434
▁Krafft	-10.4434
▁81	-10.4438
▁Bürger	-10.4438
▁vera	-10.444
cho	-10.4453
▁geist	-10.4455
▁pe	-10.4457
kle	-10.4458
▁Mir	-10.4459
▁leichten	-10.446
fin	-10.4463
▁außerordentlich	-10.4463
▁Prä	-10.4464
don	-10.4464
▁beym	-10.4465
▁Karten	-10.4468
▁paar	-10.4472
▁82	-10.4475
▁könnten	-10.4484
▁94	-10.4486
▁tru	-10.4488
fü	-10.4488
▁Prag	-10.4489
88	-10.4491
▁Pre	-10.4497
thu	-10.4499
▁indessen	-10.4499
▁Probe	-10.4502
▁Schild	-10.4506
▁einfachen	-10.4507
▁Abschnitte	-10.4508
▁brauchen	-10.4509
▁ewigen	-10.4512
▁früheren	-10.4515
av	-10.4517
▁Schritte	-10.4519
▁Züge	-10.4519
hnt	-10.4522
▁mus	-10.4523
▁selbe	-10.4523
▁ausgebildet	-10.4524
ppel	-10.4525
Das	-10.4528
ationen	-10.4531
▁At	-10.4531
▁schließen	-10.4534
geschütz	-10.4542
ßer	-10.4542
▁darinn	-10.4545
▁länger	-10.4547
▁Zusammenhang	-10.4547
▁Verschluß	-10.4548
▁Ergänzung	-10.4549
▁heilige	-10.4551
▁gr	-10.4557
fach	-10.4557
▁Wellen	-10.4557
gruppen	-10.4562
verkehr	-10.4562
▁Ludwig	-10.4563
fertig	-10.4563
▁reiche	-10.4567
▁eintreten	-10.4568
fra	-10.4568
▁machten	-10.4569
rren	-10.4569
▁Jetzt	-10.457
ue	-10.4572
dischen	-10.4575
gerichtet	-10.4588
batterie	-10.4588
▁Jahrgang	-10.4589
▁Herrschaft	-10.4591
pot	-10.4593
▁entschieden	-10.4593
▁*)	-10.4593
▁unsrer	-10.4594
laß	-10.4604
rey	-10.4604
Ho	-10.4605
mäßig	-10.4605
▁gewa	-10.4605
▁Sind	-10.4606
▁Blech	-10.4611
heft	-10.4611
▁stärker	-10.4618
▁com	-10.4621
mei	-10.4629
din	-10.4637
▁Pol	-10.4638
▁rer	-10.4639
chse	-10.4642
ute	-10.4644
▁Q	-10.4646
▁Sam	-10.4651
▁Jhre	-10.4651
▁sitzen	-10.4656
dig	-10.4657
ya	-10.4658
▁Besprechung	-10.4658
▁sanft	-10.4667
lli	-10.4671
▁cap	-10.4676
▁Ausdehnung	-10.468
▁Geschmack	-10.4682
geschlagen	-10.4685
▁Vaters	-10.4686
▁reichlich	-10.4687
▁Jede	-10.4693
▁nes	-10.4694
▁spielen	-10.4695
▁Vieh	-10.4698
usser	-10.47
▁solten	-10.4701
kommandant	-10.4703
anlagen	-10.4709
▁Br	-10.471
▁Mehr	-10.4712
▁Ursprung	-10.4712
▁machet	-10.4715
▁entsteht	-10.4717
▁zi	-10.4718
▁deinem	-10.472
▁hinten	-10.472
user	-10.4721
masse	-10.4723
▁Quellen	-10.4726
▁(3	-10.4727
▁Zurück	-10.4732
85	-10.4733
▁Tau	-10.4735
til	-10.4735
▁Waaren	-10.4737
▁handeln	-10.4737
ttet	-10.4738
▁Gla	-10.4739
weil	-10.4746
▁relativ	-10.4747
lern	-10.475
▁entwickelt	-10.4751
▁For	-10.4751
▁Spi	-10.4753
bro	-10.4755
fel	-10.4757
▁behauptet	-10.4758
zieh	-10.476
▁Tafeln	-10.4772
ncken	-10.4772
chtige	-10.4773
▁kla	-10.4785
für	-10.4786
▁Oesterreich	-10.479
▁Har	-10.4796
glichen	-10.4797
▁keineswegs	-10.4801
▁Flüssigkeit	-10.4803
▁empor	-10.4805
▁Leiden	-10.481
mat	-10.4812
weite	-10.4812
So	-10.4815
▁zahl	-10.4817
▁massen	-10.4817
qua	-10.4818
▁Sept	-10.4827
▁Seil	-10.4829
dia	-10.4834
▁Glied	-10.4838
▁zweck	-10.4841
▁Schrauben	-10.4843
▁zahlreichen	-10.4847
▁1:	-10.4848
▁Lafette	-10.4849
▁que	-10.4849
21	-10.4857
▁Schwefel	-10.4858
▁schreibt	-10.4859
▁Bri	-10.4859
▁Kenntnis	-10.486
▁Ungarn	-10.4863
breite	-10.4865
▁Querschnitt	-10.4866
▁nächst	-10.4866
met	-10.4866
▁Gegenstände	-10.4869
▁genügt	-10.4869
▁Teufel	-10.4869
ucht	-10.4871
heben	-10.4882
wei	-10.4885
▁vorgenommen	-10.4889
▁Gefechte	-10.4893
▁siehe	-10.4893
▁Sach	-10.4898
kompagnie	-10.4905
▁starb	-10.4908
▁Warum	-10.4909
cc	-10.4912
erey	-10.4913
▁mache	-10.4917
▁Anspruch	-10.4918
▁Heimat	-10.492
cha	-10.4921
dten	-10.4924
ations	-10.4925
▁dachte	-10.4929
▁Fisch	-10.4929
▁betreffenden	-10.4932
▁Alpen	-10.4933
▁Kindern	-10.4939
▁Einwirkung	-10.494
ging	-10.494
▁Beilage	-10.4947
▁geschah	-10.4947
yer	-10.4949
▁Bü	-10.4951
99	-10.4954
ndlich	-10.4957
▁Lang	-10.4964
▁97	-10.4966
▁Oberfläche	-10.4966
▁usw	-10.4967
32	-10.4967
▁freie	-10.4967
▁entsprechen	-10.4969
▁fer	-10.4974
▁Schwer	-10.4975
▁gedeckt	-10.4981
▁87	-10.4981
fftig	-10.4988
▁schau	-10.4989
▁Wichtigkeit	-10.499
▁1906	-10.499
war	-10.4991
▁allerhand	-10.4992
zü	-10.4999
33	-10.5002
▁91	-10.5003
chlich	-10.5003
▁Gattung	-10.5006
▁Anti	-10.5019
69	-10.5025
▁vorliegenden	-10.5028
▁sub	-10.5033
laden	-10.5035
68	-10.5037
▁Vorgang	-10.5037
▁IX	-10.5038
▁glaubt	-10.5049
▁arme	-10.5053
▁Thür	-10.5056
ov	-10.5058
▁Sachsen	-10.5058
uren	-10.5062
▁Kurz	-10.5062
▁zahlreiche	-10.5063
▁Versuchen	-10.5065
▁gering	-10.5072
▁Gerechtigkeit	-10.5075
kommando	-10.5079
transport	-10.508
▁Auffassung	-10.5083
ico	-10.5089
▁1908	-10.5091
44	-10.5093
▁2000	-10.5094
▁Ansehen	-10.5094
▁1907	-10.5095
▁japanische	-10.5096
▁einerseits	-10.5099
ständ	-10.5102
linge	-10.5103
▁Situation	-10.5103
▁Fern	-10.5103
▁Freyheit	-10.5104
▁Gegensatz	-10.511
▁Gast	-10.5111
▁Landwehr	-10.5112
89	-10.5113
CH	-10.5117
achse	-10.512
▁besprochen	-10.512
wort	-10.5125
ana	-10.5133
▁Nahrung	-10.5133
▁Ele	-10.5134
▁verschiedener	-10.5135
▁David	-10.5135
▁Kein	-10.5136
▁Gesammt	-10.5137
ttliche	-10.5139
weichen	-10.514
▁antwortete	-10.514
▁Alexander	-10.5143
▁höchsten	-10.5144
▁Chi	-10.5146
▁Titel	-10.5148
▁Sei	-10.5148
gan	-10.5149
▁Kranken	-10.5149
thal	-10.515
▁Befestigung	-10.5155
▁kurtz	-10.5155
▁welt	-10.5157
▁umgekehrt	-10.5157
dy	-10.5159
ßlich	-10.5161
mmern	-10.5161
▁Carl	-10.5162
▁Peter	-10.5163
▁Ebene	-10.5163
ed	-10.5164
▁Gebet	-10.5165
▁præ	-10.5165
▁Staub	-10.5166
spannung	-10.5167
▁Offiziers	-10.5168
▁pflegen	-10.5169
schreiben	-10.5169
1/2	-10.517
▁angenehm	-10.517
▁neun	-10.5172
schluß	-10.5172
nck	-10.5176
▁bitte	-10.5181
kehr	-10.5182
▁morgen	-10.5182
▁Maßnahmen	-10.5183
▁praktische	-10.5183
abteilungen	-10.5184
▁Bedarf	-10.5184
▁wozu	-10.5186
▁weisen	-10.5186
hang	-10.519
rang	-10.5191
▁senkrecht	-10.5191
risch	-10.5194
▁fl	-10.5199
▁schrieb	-10.5204
laufen	-10.5205
winkel	-10.5206
panzer	-10.5208
65	-10.5209
▁schöne	-10.521
lieb	-10.5211
chste	-10.5216
▁Hiezu	-10.5217
▁wichtigen	-10.5219
flügel	-10.5221
rechte	-10.5222
tau	-10.5222
▁brach	-10.5224
▁sonsten	-10.5225
▁äußerst	-10.5226
47	-10.523
▁abends	-10.5231
▁Bald	-10.5231
band	-10.5233
gestalt	-10.5235
▁Paar	-10.5236
▁sogenannten	-10.5237
industrie	-10.5238
▁betrifft	-10.5239
hlet	-10.5239
▁gingen	-10.524
zogen	-10.5243
▁gewisser	-10.5244
▁Geburt	-10.5248
dlich	-10.5249
▁Reden	-10.5252
▁eingesetzt	-10.5252
ls	-10.5255
▁berg	-10.5258
tung	-10.526
steuer	-10.5261
▁jemand	-10.5264
aria	-10.5264
ias	-10.5264
reicht	-10.5267
▁Manöver	-10.5267
▁Ganz	-10.5269
▁Mos	-10.5269
lff	-10.5269
wohn	-10.527
ros	-10.5277
▁Schriften	-10.5278
▁Kle	-10.5284
isierung	-10.5289
kopf	-10.5289
▁leider	-10.5291
▁wehr	-10.5295
▁Hoff	-10.5298
95	-10.5298
▁Erklärung	-10.53
▁linke	-10.53
▁vermehrt	-10.5301
mmel	-10.5303
▁Train	-10.5304
▁Thra	-10.5312
▁Heu	-10.5318
ffte	-10.5321
▁Maul	-10.5321
▁Denk	-10.5323
▁ungünstig	-10.5324
▁Fortschritte	-10.5326
▁Kessel	-10.5327
▁MG	-10.533
▁Periode	-10.5331
▁mi	-10.5334
▁Vorstellungen	-10.5337
▁Träger	-10.5337
▁Österreich	-10.5337
▁armen	-10.5338
▁weichen	-10.5341
lesen	-10.5341
▁Meilen	-10.5347
getragen	-10.5348
▁Studien	-10.5354
divisionen	-10.536
chi	-10.536
▁Fahrt	-10.5364
▁ewige	-10.5365
rre	-10.5367
▁Zorn	-10.5369
▁Vorteil	-10.5371
▁Creutz	-10.5383
▁reinen	-10.5383
gebung	-10.5387
▁Meter	-10.5387
▁habt	-10.5389
weiß	-10.539
▁Blu	-10.5392
ös	-10.5394
▁Fortsetzung	-10.5396
sagen	-10.5399
▁Umfang	-10.5401
▁Princip	-10.5402
▁wirst	-10.5405
gie	-10.5406
strich	-10.5409
länder	-10.5409
sonder	-10.541
gefallen	-10.5412
▁Sonder	-10.5412
fla	-10.5412
werfen	-10.5413
ate	-10.5415
▁bru	-10.5418
▁gema	-10.5419
▁National	-10.5423
07	-10.5424
▁verborgen	-10.5432
▁182	-10.5433
▁89	-10.5434
wahr	-10.5437
▁800	-10.5437
dchen	-10.5439
flo	-10.5442
▁parallel	-10.5444
▁Knochen	-10.5449
waffen	-10.5449
▁Pan	-10.5452
▁berichtet	-10.5452
▁liefert	-10.5457
▁qua	-10.5462
▁Leiter	-10.5469
gut	-10.5472
▁Acht	-10.5474
▁Paulus	-10.5477
▁Ausgang	-10.548
▁Untersuchungen	-10.5482
▁übrigens	-10.5485
▁München	-10.5487
ska	-10.5488
▁entsprechenden	-10.549
esten	-10.5492
▁Ger	-10.5497
64	-10.5498
▁gebu	-10.55
▁Signal	-10.5502
▁verstanden	-10.5513
amt	-10.5519
ßten	-10.552
gewehr	-10.5527
▁1905	-10.5533
mt	-10.5533
▁behaupten	-10.5534
ona	-10.5535
▁Monat	-10.5535
▁Heeresleitung	-10.5538
▁Entwickelung	-10.5539
▁genauer	-10.5541
▁vollendet	-10.5553
▁Momente	-10.5554
lon	-10.5555
sätze	-10.5556
leistung	-10.556
▁kalt	-10.5562
▁Sitz	-10.5562
▁Beobachter	-10.5563
▁Auß	-10.5569
sus	-10.557
▁gang	-10.557
▁schwi	-10.5571
▁gesichert	-10.5572
nnet	-10.5573
zugehen	-10.5573
▁Schle	-10.5574
sal	-10.5574
gro	-10.5575
▁Familien	-10.558
ara	-10.558
Re	-10.558
▁Resultate	-10.558
▁Bro	-10.5583
▁83	-10.5583
▁licher	-10.5585
▁bedeutende	-10.5587
pri	-10.559
dar	-10.5596
▁Tal	-10.5599
▁Nachbar	-10.5601
pff	-10.5602
iden	-10.5606
▁Außen	-10.5608
▁ähnliche	-10.561
▁Visier	-10.561
23	-10.5611
▁Schlaf	-10.5614
fften	-10.5614
▁verwenden	-10.5614
▁Fried	-10.5615
▁Glaubens	-10.5616
▁Bedingung	-10.5617
▁getrieben	-10.5617
▁Roman	-10.5619
▁Krupp	-10.5619
ulein	-10.562
46	-10.5621
▁feind	-10.5622
stande	-10.5622
nie	-10.5625
▁Freuden	-10.5625
▁unabhängig	-10.5627
▁vorbereitet	-10.5627
▁erfüllt	-10.5628
uche	-10.5628
▁gesucht	-10.5628
▁Mädchen	-10.563
▁Zo	-10.5631
▁Reiche	-10.5633
▁Mü	-10.5635
▁lin	-10.564
▁Dom	-10.5645
ali	-10.5651
▁geneigt	-10.5654
▁Problem	-10.5654
▁tet	-10.5656
▁Essen	-10.5663
▁gna	-10.5664
▁Ohr	-10.5665
fällig	-10.5665
▁Matth	-10.5665
▁Einwohner	-10.5665
▁sahe	-10.5668
▁vorne	-10.567
ive	-10.5671
▁cor	-10.5675
bl	-10.5675
▁Ganze	-10.5677
▁fro	-10.5677
42	-10.5677
deut	-10.5678
leiten	-10.5679
▁betra	-10.5679
▁Tor	-10.5679
▁Platte	-10.5684
▁Vera	-10.5685
▁Achse	-10.5686
▁politische	-10.5688
....	-10.5689
▁1909	-10.5701
▁250	-10.5702
▁gaben	-10.5702
▁Kap	-10.5702
▁lä	-10.5702
rechnung	-10.5705
▁Griechen	-10.5707
Dr	-10.571
09	-10.571
hnung	-10.5712
▁durfte	-10.5713
wert	-10.5713
▁rückwärts	-10.5713
▁errichtet	-10.5716
▁Min	-10.5719
▁hiedurch	-10.5722
▁österreichische	-10.5724
▁Muster	-10.5724
▁tes	-10.5725
08	-10.5726
▁Reserven	-10.5726
ör	-10.5726
pul	-10.5729
▁Baron	-10.573
▁saget	-10.5731
▁traf	-10.5732
▁res	-10.5733
▁Unterricht	-10.5734
▁komme	-10.5735
▁Cal	-10.5739
▁110	-10.5739
▁Magen	-10.5743
▁Kal	-10.5746
technik	-10.5747
79	-10.5751
übungen	-10.5755
▁gel	-10.5758
▁st	-10.5758
zuhalten	-10.576
wart	-10.5761
port	-10.5766
▁Spe	-10.5766
rlichen	-10.5769
▁Mei	-10.577
▁Geister	-10.5773
▁erwa	-10.5774
tar	-10.5778
▁aut	-10.5782
▁beginnt	-10.5784
ionen	-10.5786
▁Empfindung	-10.5794
grenze	-10.5796
▁Artikel	-10.5796
mässig	-10.5796
▁Luther	-10.5798
▁Halt	-10.5799
▁sichern	-10.5804
ndige	-10.5806
67	-10.5806
▁gesprochen	-10.5809
offiziere	-10.581
▁Geba	-10.5812
▁Praxis	-10.5814
por	-10.5814
angriff	-10.5817
▁Deutsch	-10.5817
wenden	-10.5817
▁wollten	-10.5818
▁Thieren	-10.5819
messen	-10.582
ui	-10.5828
▁Rö	-10.5831
Me	-10.5832
▁UND	-10.5835
▁Tar	-10.5836
▁anderseits	-10.5838
▁Sub	-10.5847
laub	-10.585
▁Schnitt	-10.5851
verständlich	-10.5851
▁gefährlich	-10.5857
▁kleinere	-10.5859
▁Sti	-10.5859
pfer	-10.5863
▁1915,	-10.5864
all	-10.5866
zusetzen	-10.5869
▁öffentlichen	-10.587
wir	-10.587
▁Flanke	-10.587
▁speziell	-10.5871
▁Zeichnung	-10.5874
▁Papst	-10.5875
yser	-10.5876
▁Wirklichkeit	-10.5878
bte	-10.5878
brig	-10.5878
«,	-10.5881
geist	-10.5882
▁Dagegen	-10.5883
ritt	-10.5885
▁klug	-10.5887
▁Hände	-10.5888
."	-10.589
▁Rest	-10.5891
▁Umsta	-10.5892
▁tatsächlich	-10.5895
Ich	-10.5899
wachsen	-10.5899
▁Okt	-10.5901
▁warf	-10.5902
boden	-10.5904
▁obwohl	-10.5904
gemacht	-10.5905
förmig	-10.5906
▁Forderung	-10.5907
▁Abtheilung	-10.5911
▁Gabel	-10.5912
▁Lafetten	-10.5917
teilung	-10.5923
▁Platten	-10.5923
▁gerechnet	-10.5929
▁Verkehrs	-10.5933
stehenden	-10.5934
▁schön	-10.5934
▁tha	-10.5935
▁Schwe	-10.5937
▁Ch	-10.5946
rseits	-10.5948
▁weis	-10.5948
▁Schweden	-10.5948
bor	-10.5953
ida	-10.5958
ty	-10.596
orte	-10.5961
pflicht	-10.5962
▁Küste	-10.5962
selig	-10.5965
▁sahen	-10.5966
ffentlich	-10.5967
oli	-10.5967
▁Cur	-10.5967
jährigen	-10.5968
▁natur	-10.5969
▁Mus	-10.5971
▁gelungen	-10.5971
▁nöthig	-10.5972
lla	-10.5972
▁Zünder	-10.5974
▁erinnert	-10.5974
ym	-10.5974
zog	-10.5977
▁glatt	-10.5977
regimenter	-10.5981
▁blind	-10.5983
▁Verlauf	-10.5985
▁Vergnu	-10.5986
▁Vertrag	-10.5987
▁bau	-10.5988
▁lagen	-10.5991
▁ehrlich	-10.5991
▁Pionier	-10.5995
ologie	-10.5998
▁Loth	-10.6004
▁erhöht	-10.6007
blech	-10.601
▁Gürtel	-10.6011
lie	-10.6017
▁Letztere	-10.6018
▁Vaterland	-10.6019
▁Gewehre	-10.6019
angelegenheiten	-10.602
▁liegende	-10.6023
▁umgeben	-10.6026
▁Krone	-10.6029
▁direkt	-10.6031
machen	-10.6031
▁Hindernisse	-10.6034
▁(§.	-10.6036
78	-10.6039
tio	-10.604
sinnig	-10.6043
hrten	-10.6044
▁pre	-10.6046
▁Brod	-10.6048
▁rasche	-10.6048
▁zogen	-10.6049
than	-10.6053
zie	-10.6056
97	-10.6057
▁sel	-10.6062
mark	-10.6062
▁dienst	-10.6062
▁Mä	-10.6063
▁müßte	-10.6064
verwaltung	-10.6068
▁verha	-10.6068
use	-10.6069
alis	-10.6071
▁Mont	-10.608
netz	-10.6083
▁beweisen	-10.6084
▁Trieb	-10.6085
▁pu	-10.6088
▁Seh	-10.6088
▁Gerichts	-10.6092
▁erheben	-10.6094
brücken	-10.6096
treffen	-10.61
▁streng	-10.6101
mahls	-10.6102
▁Erprobung	-10.6103
▁Aufenthalt	-10.6103
▁geltend	-10.6104
▁Spezial	-10.6106
▁bereitet	-10.611
lag	-10.6111
▁zeug	-10.6112
digen	-10.6114
▁Geschützes	-10.6116
41	-10.6117
▁obere	-10.6117
mut	-10.6117
▁%	-10.6122
▁Befehle	-10.6123
nff	-10.6124
▁Reiz	-10.6124
▁Christliche	-10.6125
ions	-10.6127
sische	-10.6129
▁Schrifft	-10.6133
▁Wissen	-10.6133
▁Kultur	-10.6134
▁Hans	-10.6138
politik	-10.614
▁Strecke	-10.6141
mont	-10.6144
spe	-10.6148
▁Prinz	-10.6152
▁Telegraphen	-10.6155
sand	-10.6158
▁unbekannt	-10.616
▁ze	-10.6164
brücke	-10.6167
mis	-10.6168
▁Tha	-10.6168
▁Bett	-10.617
platten	-10.6171
98	-10.6171
▁at	-10.6172
distanz	-10.6173
volle	-10.6174
▁Bitte	-10.6174
▁vermeiden	-10.6175
rtz	-10.618
▁Künstler	-10.6182
▁ständig	-10.6183
▁Bezeichnung	-10.6188
▁geboten	-10.6189
han	-10.6191
▁Personal	-10.6191
▁ermöglicht	-10.6193
▁(4	-10.6196
liegen	-10.6197
▁Zwi	-10.6199
▁Nein	-10.62
▁Rumänien	-10.6202
lische	-10.6204
▁Leibes	-10.6205
haupt	-10.6206
sprache	-10.6207
schieß	-10.6208
▁tig	-10.6208
▁Produkt	-10.6209
▁betru	-10.621
▁1912.	-10.6211
▁unterschieden	-10.6211
thun	-10.6215
▁mochte	-10.6216
fle	-10.6216
▁hinsichtlich	-10.6217
Ro	-10.6217
ay	-10.6219
▁cken	-10.622
▁mögen	-10.622
▁Bur	-10.6222
▁folgte	-10.6225
ban	-10.6225
▁Leibe	-10.6232
▁Ebenso	-10.6232
▁od	-10.6235
theilung	-10.6235
▁Kor	-10.6236
▁kennt	-10.6237
▁grün	-10.6241
▁ersetzt	-10.6242
▁Feuers	-10.6242
dl	-10.6243
▁Studie	-10.6248
▁genennet	-10.6249
▁Materie	-10.625
nia	-10.6252
▁dig	-10.6252
▁breiten	-10.6256
legt	-10.6258
▁Roth	-10.6258
▁Fabrik	-10.6261
▁verhindern	-10.6271
▁Organ	-10.6273
gno	-10.6275
▁Fuss	-10.6276
▁Geh	-10.6276
▁lau	-10.6276
Ca	-10.6279
▁jährlich	-10.6281
▁160	-10.6286
willig	-10.6292
gebiete	-10.6296
▁lediglich	-10.6297
▁laufen	-10.6297
suchen	-10.6298
ziert	-10.6299
▁selbs	-10.6301
▁hielten	-10.6302
har	-10.6303
▁Abstand	-10.6304
▁Gründen	-10.6304
▁Leistungen	-10.6304
▁Bor	-10.6305
rben	-10.6307
▁Stoffe	-10.6308
kreuz	-10.6312
marsch	-10.6317
sich	-10.6318
minister	-10.632
int	-10.6322
fli	-10.6329
tiert	-10.633
▁mitten	-10.633
▁technische	-10.6334
▁Gesundheit	-10.6335
gru	-10.6335
▁berufen	-10.6335
vier	-10.6341
▁erlaubt	-10.6344
39	-10.6345
rand	-10.6348
77	-10.6351
bat	-10.6351
04	-10.6352
▁Predigt	-10.6355
▁Ferdinand	-10.6356
▁Betrachtungen	-10.6357
trieb	-10.6357
56	-10.6359
▁solch	-10.6359
▁Schreiben	-10.6361
▁Werkes	-10.6363
▁deutscher	-10.6364
▁schi	-10.6366
fache	-10.6368
SCH	-10.6374
vollen	-10.6374
freu	-10.6377
▁nachher	-10.638
▁essen	-10.6385
Ra	-10.6386
▁innern	-10.6387
formen	-10.6387
gab	-10.6387
▁Dü	-10.6388
▁Verfolgung	-10.639
ort	-10.6391
▁Lau	-10.6393
nget	-10.6398
▁Kri	-10.6399
kammer	-10.64
ration	-10.64
ano	-10.6401
flug	-10.6402
staat	-10.6405
▁versichert	-10.6407
▁lieblich	-10.6407
▁weite	-10.6408
▁Betriebs	-10.6408
06	-10.6412
▁ausgesprochen	-10.6413
▁stille	-10.6414
▁Entfernungen	-10.6414
▁verhindert	-10.6416
▁fol	-10.6417
▁Unglu	-10.6417
▁1912	-10.6418
▁bra	-10.6419
ij	-10.642
▁vermo	-10.6428
▁Gebäude	-10.6429
▁Fett	-10.6429
3)	-10.6435
▁Steine	-10.6437
▁Stütz	-10.6438
stehende	-10.6438
▁wohin	-10.6441
▁Gemeinde	-10.6445
ofen	-10.6446
rfen	-10.6448
▁Obstlt	-10.6451
▁Martin	-10.6452
▁Han	-10.6461
▁gründlich	-10.6462
31	-10.6463
▁Hofe	-10.6467
▁Wehrmacht	-10.6468
87	-10.6469
01	-10.647
▁Weltkrieg	-10.647
▁empfindlich	-10.6471
▁kurzer	-10.6476
▁Verteidiger	-10.6477
▁Kam	-10.6481
AN	-10.6486
thei	-10.6486
▁vgl	-10.6487
▁Einleitung	-10.6488
66	-10.6489
▁Anlagen	-10.6489
tat	-10.6493
▁Roh	-10.6494
▁Dort	-10.6498
Ch	-10.6507
▁Phantasie	-10.6508
▁Niemand	-10.6509
▁Epi	-10.6519
▁hell	-10.6521
▁Liecht	-10.6525
räu	-10.6526
▁Wohnung	-10.6526
▁nommen	-10.6528
▁siehet	-10.6531
▁ungemein	-10.6533
▁Tre	-10.6533
▁Hei	-10.6536
riß	-10.6537
▁Schweiz	-10.6537
▁wenden	-10.654
▁Bauch	-10.6542
irung	-10.6542
siehe	-10.6543
rus	-10.6544
86	-10.6544
▁Heiligen	-10.6546
▁schwierig	-10.6546
▁besonderer	-10.6548
▁Reiches	-10.6548
ffnet	-10.6549
▁Luc	-10.6549
▁Hamburg	-10.6552
▁Seel	-10.6552
▁Angesicht	-10.6553
ktion	-10.6554
▁Name	-10.6556
▁Festigkeit	-10.6556
▁Energie	-10.6557
öfen	-10.6557
▁trifft	-10.6558
▁Hitze	-10.6562
▁bemerken	-10.6564
▁Evangeli	-10.6566
nal	-10.6568
pft	-10.6568
▁Distanzen	-10.6569
▁kampf	-10.6571
rf	-10.6571
frei	-10.6571
▁braun	-10.6574
▁Holtz	-10.6576
ice	-10.6577
▁Sc	-10.6577
▁vorhandenen	-10.6582
▁Flo	-10.6582
▁saß	-10.6584
spreng	-10.6588
▁Notwendigkeit	-10.6592
▁mor	-10.6594
▁Literatur	-10.6595
▁lie	-10.6599
▁Funktion	-10.6599
▁Schriftsteller	-10.6601
▁druck	-10.6603
▁achten	-10.6606
▁bestanden	-10.6606
▁befand	-10.6608
94	-10.6608
▁Innern	-10.6611
schwer	-10.6612
58	-10.6613
▁reg	-10.6613
▁längst	-10.6621
▁lebendig	-10.6622
mmert	-10.6623
▁th	-10.6628
▁ausgeschlossen	-10.663
▁begonnen	-10.6631
lief	-10.6635
▁Rand	-10.6635
▁eventuell	-10.6638
gend	-10.6641
▁herunter	-10.6641
▁Schlu	-10.6644
▁Ding	-10.6651
fähigkeit	-10.6653
▁schwarz	-10.6659
▁thue	-10.6659
▁lichkeit	-10.6662
▁schützen	-10.6663
▁verstärkt	-10.6664
▁Strafe	-10.6666
nigs	-10.6666
▁Frey	-10.6667
▁mel	-10.6669
▁Bern	-10.6671
▁Wassers	-10.6672
▁Vorschriften	-10.6672
▁erlangen	-10.6673
stro	-10.6674
loch	-10.6678
▁Ly	-10.6678
rau	-10.668
▁sorgfältig	-10.668
sses	-10.6681
▁reicht	-10.6689
heiten	-10.6693
off	-10.6693
▁Vertrauen	-10.6696
rliche	-10.6696
▁gemessen	-10.6698
ah	-10.6698
sichtig	-10.6701
▁Aufklärung	-10.6703
▁Allgemeine	-10.6706
ständen	-10.6708
▁Oe	-10.6708
▁beobachten	-10.671
▁wichtig	-10.671
▁Herzens	-10.6713
▁Urteil	-10.6713
flächen	-10.6716
▁bestehenden	-10.6716
▁Vatter	-10.6717
▁qu	-10.672
jo	-10.672
▁Lei	-10.6723
iges	-10.6724
▁Brems	-10.6727
isse	-10.6729
ons	-10.6729
▁ac	-10.6729
74	-10.673
grad	-10.6734
ule	-10.6735
hielt	-10.6741
▁praktisch	-10.6743
▁äußeren	-10.6744
eck	-10.6744
▁sal	-10.6746
verhältnis	-10.6748
▁lig	-10.6753
▁beziehen	-10.6755
▁Rang	-10.6755
▁einmahl	-10.6755
▁Reihen	-10.6757
lös	-10.6758
rts	-10.6761
geb	-10.6762
▁Laster	-10.6764
▁Erhöhung	-10.6769
▁Mitteln	-10.6774
▁europäischen	-10.6776
▁rü	-10.6777
wirken	-10.678
▁beziehungsweise	-10.6782
▁Wiener	-10.6782
▁Regeln	-10.6787
▁Futter	-10.6789
rige	-10.679
▁vil	-10.6792
ovi	-10.6793
▁Sel	-10.6796
▁Zusammensetzung	-10.6796
greif	-10.6797
ket	-10.6799
▁brechen	-10.6799
▁tur	-10.68
cal	-10.68
▁Tru	-10.6801
ST	-10.6802
▁finde	-10.6802
▁bezeichnen	-10.6807
▁Lie	-10.6808
schulen	-10.6811
▁Napoleon	-10.6811
▁seitlich	-10.6812
▁Hund	-10.6818
▁jedenfalls	-10.682
▁Tonnen	-10.6823
84	-10.6823
▁hängt	-10.6825
▁XI	-10.6827
haften	-10.6828
gli	-10.6832
flich	-10.6832
langen	-10.6834
▁Automobil	-10.6835
▁verlieren	-10.6835
hebel	-10.6835
tiv	-10.6836
▁noth	-10.6839
▁Zahn	-10.6841
▁dasjenige	-10.6845
▁Can	-10.6849
92	-10.685
samen	-10.6852
▁Gedanke	-10.6853
▁ausschließlich	-10.6855
▁geru	-10.6857
▁vorwärts	-10.6857
▁New	-10.6858
▁praktischen	-10.6859
▁besondern	-10.6862
mutter	-10.6862
▁Gericht	-10.6863
samm	-10.6864
▁krank	-10.6868
▁wagen	-10.6869
sart	-10.6869
rtig	-10.687
▁bewährt	-10.6871
▁Zeitung	-10.6872
▁zeitlich	-10.6872
kompagnien	-10.6873
nat	-10.6873
apparat	-10.6875
sis	-10.6876
istische	-10.6876
▁decken	-10.6877
▁Welche	-10.6877
▁Jacob	-10.6878
▁erfu	-10.688
▁Dorf	-10.688
ian	-10.6882
▁erstere	-10.6882
ließ	-10.6884
▁Ter	-10.6888
▁ober	-10.6888
ib	-10.6893
▁Erster	-10.6897
▁Blätter	-10.6897
▁Koch	-10.6908
scht	-10.6909
Ta	-10.6909
losigkeit	-10.6913
▁zen	-10.6913
55	-10.6914
▁Ergebnisse	-10.6915
kauf	-10.6915
▁stein	-10.6916
▁hinab	-10.6917
▁glänzend	-10.6918
▁Hohl	-10.6919
bis	-10.6922
▁ch	-10.6924
duc	-10.6925
▁sogenannte	-10.693
nit	-10.6932
isiert	-10.6935
opfer	-10.6936
▁euer	-10.6936
▁1/2	-10.6937
iget	-10.6938
▁schafft	-10.694
▁Ubersicht	-10.6941
▁Sprach	-10.6941
▁Halle	-10.6942
▁Reg	-10.6942
stan	-10.6943
▁Volkes	-10.695
▁Kan	-10.6954
▁Kräften	-10.6958
▁Explosion	-10.6961
än	-10.6964
▁erhoben	-10.697
▁längere	-10.697
str	-10.6971
tia	-10.6973
▁Sich	-10.6974
▁Gefu	-10.6974
▁dafu	-10.6975
reise	-10.6978
bleiben	-10.6979
▁Mel	-10.698
mund	-10.6981
▁Qua	-10.6983
▁scheu	-10.6983
▁begründet	-10.6986
▁abgesehen	-10.6988
▁Construction	-10.699
▁Verpflegs	-10.6993
▁mar	-10.6997
räder	-10.6997
▁sonstigen	-10.6997
▁Thron	-10.6998
▁Prediger	-10.7
Da	-10.7
▁schieden	-10.7004
▁bekannte	-10.7005
tho	-10.7006
▁hoher	-10.7011
▁menschliche	-10.7012
mpf	-10.7013
▁dunkel	-10.7015
heer	-10.7016
▁Polizei	-10.7016
91	-10.7017
▁breite	-10.7021
▁Wach	-10.7021
▁Fer	-10.7022
tigen	-10.7024
▁130	-10.7026
dü	-10.7029
▁Ubung	-10.7029
▁Para	-10.7032
▁Zerstörung	-10.7036
stell	-10.7036
ruf	-10.704
▁ließen	-10.7042
▁Feldzug	-10.7045
▁....	-10.7046
▁Einsatz	-10.705
yd	-10.7051
▁begriffen	-10.7051
▁or	-10.7053
▁Hart	-10.7053
▁unseres	-10.7054
▁zumal	-10.7055
▁sp	-10.7055
▁allmählich	-10.7056
▁geliebt	-10.7062
wissenschaftlich	-10.7065
▁Fro	-10.707
▁genaue	-10.7071
▁nahezu	-10.708
▁erstlich	-10.7081
stö	-10.7082
cks	-10.7083
ea	-10.7083
▁Budapest	-10.7083
▁Tat	-10.7083
▁HErrn	-10.7085
scheid	-10.7088
▁lief	-10.709
▁Zentral	-10.709
mitteln	-10.7094
begriff	-10.7094
▁tel	-10.7096
▁Bauern	-10.7098
ite	-10.7099
▁Kolonnen	-10.71
▁Nah	-10.71
▁Geschlecht	-10.7101
fähig	-10.7101
▁Stock	-10.711
▁insofern	-10.7111
hler	-10.7112
one	-10.7112
▁Flächen	-10.7114
▁Krankheit	-10.7114
▁Orts	-10.7116
spiegel	-10.7117
stü	-10.7118
lk	-10.7123
▁Gö	-10.7124
▁KD	-10.7125
▁übertragen	-10.713
▁Reit	-10.713
▁Ohne	-10.7132
Se	-10.7135
stift	-10.7136
hlte	-10.7136
nderung	-10.7137
bohr	-10.714
eri	-10.7143
▁Resultat	-10.7144
▁Adam	-10.7145
▁Theilen	-10.7146
▁Gunst	-10.7149
▁Et	-10.7156
rinnen	-10.7157
▁hiefür	-10.7159
▁Mantel	-10.7161
achtet	-10.7161
▁abhängig	-10.7162
▁Quadrat	-10.7163
▁verfolgt	-10.7166
bilden	-10.7166
▁Apparate	-10.7169
▁überlegen	-10.717
▁dürften	-10.717
▁scheinbar	-10.7172
▁halt	-10.7175
gelt	-10.7177
62	-10.7178
▁Maaß	-10.7179
streifen	-10.7182
uk	-10.7182
▁Beziehungen	-10.7188
gehenden	-10.7189
▁richt	-10.7191
▁gestanden	-10.7192
haben	-10.7193
▁Eingang	-10.7193
stä	-10.7194
▁roth	-10.7195
werck	-10.7196
▁Normal	-10.7197
▁Spa	-10.7198
stock	-10.7199
vis	-10.7201
kow	-10.7203
▁ausgezeichnet	-10.7205
De	-10.7206
▁angeführt	-10.7206
laut	-10.7207
▁Deine	-10.7208
▁musste	-10.7208
▁Fleiß	-10.721
▁Sz	-10.7213
▁Auto	-10.7213
theilet	-10.7218
reden	-10.7221
▁Kre	-10.7222
▁schönen	-10.7224
▁Hr	-10.7225
kä	-10.7225
▁Horn	-10.7227
▁anzunehmen	-10.723
▁teilweise	-10.7231
▁benutzt	-10.7238
nier	-10.7239
▁Kolonne	-10.724
▁end	-10.7252
▁Anforderungen	-10.7255
▁comp	-10.7256
▁Wal	-10.7258
bereit	-10.7262
▁gewöhnlichen	-10.7262
inger	-10.7263
▁schlechte	-10.7263
nicht	-10.7264
▁Kayser	-10.7264
▁ehr	-10.7265
▁fragen	-10.7269
schli	-10.7269
▁Schuh	-10.7272
▁umher	-10.7273
▁Lufft	-10.7274
rungen	-10.7277
▁Gros	-10.7278
gemäß	-10.7281
▁hoffen	-10.7284
▁verla	-10.7286
▁Verbindungen	-10.7287
▁berechnet	-10.7287
▁Speise	-10.7289
▁Einfluss	-10.729
▁entgegengesetzt	-10.729
▁Op	-10.7291
schwa	-10.7291
▁105	-10.7291
▁Schla	-10.7295
▁Magnet	-10.7295
lffe	-10.73
▁Mt	-10.7302
▁Angreifer	-10.7308
▁geschicht	-10.7311
▁Wille	-10.7311
sor	-10.7312
▁unteren	-10.7313
roth	-10.7313
treiben	-10.7315
▁det	-10.7316
Aus	-10.7317
ierenden	-10.7317
▁get	-10.7318
▁Element	-10.7318
▁herr	-10.7318
wü	-10.7318
▁Vorgehen	-10.7318
rge	-10.732
▁Mag	-10.7322
kk	-10.7324
▁froh	-10.7327
▁beha	-10.7329
▁Lin	-10.7329
▁1911	-10.7332
wor	-10.7332
▁ses	-10.7333
dische	-10.7335
schaftliche	-10.7336
▁Organe	-10.7338
▁Unge	-10.7339
▁Aller	-10.7339
03	-10.734
▁Torpedo	-10.734
▁Pferden	-10.7342
▁Ohren	-10.7344
zuführen	-10.7345
▁Anmerkung	-10.7348
▁fel	-10.7349
▁Vereinigung	-10.7349
▁Auftrag	-10.7351
▁beginnen	-10.7352
▁eigener	-10.7352
richter	-10.7354
▁Sieben	-10.7354
dre	-10.7355
iti	-10.7358
häng	-10.7363
lia	-10.7363
▁Forderungen	-10.7367
▁Wirkungen	-10.7371
▁Schatz	-10.7373
▁lebte	-10.7375
▁Schnell	-10.7377
nisch	-10.7378
▁erweitert	-10.7394
▁Hä	-10.7396
eyen	-10.7398
▁abgegeben	-10.74
▁Kolben	-10.7403
▁merk	-10.7405
▁außerdem	-10.7405
▁frisch	-10.7407
▁Bund	-10.7407
▁Geda	-10.7409
lösung	-10.7409
▁betragen	-10.7412
▁Blitz	-10.7413
72	-10.7414
▁herein	-10.742
▁weich	-10.742
pan	-10.7423
▁heben	-10.7423
▁Angst	-10.7426
▁günstig	-10.7427
berall	-10.7429
▁verwandelt	-10.743
▁ansehen	-10.743
▁Schmelz	-10.7433
kehren	-10.7435
▁140	-10.7436
▁Bataillons	-10.7437
▁Zei	-10.7438
▁lein	-10.7439
▁Flugzeuge	-10.7441
▁Nase	-10.7443
▁Geschosses	-10.7446
▁5)	-10.7448
▁dringend	-10.7448
▁Eigenthum	-10.7449
ltnisse	-10.745
▁nennet	-10.7452
▁bla	-10.7453
tier	-10.7454
same	-10.7454
▁innerlich	-10.7456
dichte	-10.7458
▁Verstärkung	-10.7459
▁Raub	-10.7459
▁treu	-10.7463
geworfen	-10.7464
▁ort	-10.7467
nau	-10.7469
▁las	-10.7469
▁wenigsten	-10.7471
▁erlangt	-10.7478
▁Don	-10.7479
gerät	-10.7479
▁Geltung	-10.748
▁Sammlung	-10.7482
bahnen	-10.7482
Li	-10.749
▁Ewigkeit	-10.7491
dit	-10.7491
mos	-10.7492
▁deut	-10.7492
▁Sorge	-10.7494
▁blu	-10.7501
rke	-10.7509
kosten	-10.751
▁Staates	-10.7511
kanonen	-10.7511
▁hei	-10.7511
cis	-10.7512
▁Friede	-10.7514
glei	-10.7514
▁Flugbahn	-10.7516
▁höchste	-10.7518
▁Pass	-10.7522
▁Geb	-10.7522
▁elend	-10.7523
cta	-10.7523
ins	-10.7524
ltz	-10.7525
lande	-10.7526
eß	-10.7526
▁kriegs	-10.7527
Po	-10.753
gefu	-10.7531
▁fle	-10.7535
▁halber	-10.7536
ua	-10.754
▁doppelt	-10.7542
schub	-10.7543
▁geistlichen	-10.7543
thiere	-10.7545
▁Bedienung	-10.7547
▁willig	-10.7551
▁Wolf	-10.7555
▁starck	-10.7557
▁Nebel	-10.7562
▁Abzug	-10.7563
▁Handlungen	-10.7564
▁Streben	-10.7569
▁Hebel	-10.7569
▁Char	-10.757
▁vorhin	-10.7572
willen	-10.7575
▁vortrefflich	-10.7575
▁zeitig	-10.7576
lker	-10.7576
ade	-10.7576
▁Burg	-10.7578
▁Traum	-10.7581
▁übrig	-10.7582
▁Balken	-10.7583
halte	-10.7585
bla	-10.7585
räume	-10.7585
▁stieg	-10.7588
akt	-10.759
hol	-10.759
hält	-10.7591
▁Gegenden	-10.7593
ringen	-10.7594
▁begegnet	-10.7596
▁besch	-10.76
▁Kä	-10.7602
pre	-10.7603
▁Punct	-10.7604
förmige	-10.7605
▁bat	-10.7605
schra	-10.7608
▁beständig	-10.7608
▁Hefte	-10.7609
71	-10.7609
ingen	-10.761
▁Kirch	-10.7611
▁etwan	-10.7612
low	-10.7613
▁Entstehung	-10.7614
par	-10.7615
▁weh	-10.7615
sst	-10.7617
feder	-10.7618
tru	-10.7619
▁welch	-10.7619
▁eingestellt	-10.762
nehm	-10.7621
▁Türkei	-10.7621
ans	-10.7621
▁Werken	-10.7623
▁Grundsatz	-10.7624
Le	-10.7624
▁jenige	-10.7626
▁Flor	-10.7628
▁Fels	-10.7634
ap	-10.7639
▁Einer	-10.764
▁XII	-10.764
spitze	-10.7643
▁verbreitet	-10.7647
▁Elend	-10.7649
▁Anschauung	-10.7649
▁begleitet	-10.765
schul	-10.7651
uft	-10.7652
▁Verschiedenheit	-10.7654
▁folgender	-10.7655
▁1910	-10.7659
▁Vermo	-10.7662
▁nehme	-10.7662
▁Entschluß	-10.7666
liebe	-10.7667
▁ermittelt	-10.7669
▁inner	-10.7672
▁1866	-10.7672
chel	-10.7675
▁beschäftigt	-10.7675
▁erforderlichen	-10.7677
▁Mich	-10.7678
▁Fä	-10.768
räumen	-10.7682
steht	-10.7683
weit	-10.7691
▁arm	-10.7693
▁179	-10.7696
▁Netz	-10.7696
▁Lade	-10.7696
▁Brunnen	-10.7698
▁wach	-10.7701
▁Edel	-10.7702
▁erklären	-10.7705
macher	-10.7705
gebildet	-10.7709
atio	-10.771
▁angefu	-10.771
nstig	-10.7711
▁Hi	-10.7711
schlüsse	-10.7712
▁liefern	-10.7714
▁Nutz	-10.7715
klär	-10.7719
▁Kleider	-10.7721
▁redet	-10.7723
▁Schlusse	-10.7723
▁versta	-10.7727
▁deswegen	-10.7727
bericht	-10.7729
tö	-10.773
▁fordert	-10.7732
▁Braut	-10.7734
▁1913	-10.7735
▁Comp	-10.7735
▁Samen	-10.7738
▁beruht	-10.7738
▁Ruf	-10.7741
▁HID	-10.7743
▁gestorben	-10.7749
▁Weichsel	-10.7749
▁Verteidigungs	-10.775
▁Ergebnis	-10.7751
▁verursacht	-10.7752
schmiede	-10.7752
▁Schilderung	-10.7754
set	-10.7755
nstler	-10.7756
▁Meere	-10.7756
waffe	-10.7757
▁richtigen	-10.7762
hnliche	-10.7764
43	-10.7766
leib	-10.7766
▁tre	-10.7767
▁5,	-10.7767
▁Hierauf	-10.7767
▁unserem	-10.7771
ult	-10.7775
anlage	-10.7776
▁Feuchtigkeit	-10.7777
wind	-10.7777
▁Werkzeug	-10.7777
▁Aufmarsch	-10.7778
▁Vorrückung	-10.7779
sah	-10.7786
▁mäßig	-10.7788
ffet	-10.7791
▁licht	-10.7793
lter	-10.7794
▁Ser	-10.7795
▁lehrt	-10.7797
▁Granaten	-10.7801
▁Vorgänge	-10.7801
zin	-10.7803
▁heissen	-10.7804
gg	-10.7805
▁Loch	-10.7807
▁Ansichten	-10.7809
fuhr	-10.7811
inus	-10.7813
▁eure	-10.7816
▁weist	-10.7817
▁Decke	-10.7818
▁cons	-10.7819
find	-10.7828
▁direct	-10.7833
▁Baon	-10.7833
▁bessere	-10.7835
▁JEsu	-10.7836
▁gebrochen	-10.7837
▁Regi	-10.7838
▁erho	-10.784
▁glaub	-10.7841
▁eigne	-10.7841
▁Angriffes	-10.7842
dung	-10.7846
▁preußischen	-10.7848
▁benützt	-10.785
▁Cy	-10.7852
sein	-10.7855
▁mithin	-10.7857
▁geordnet	-10.7857
▁hette	-10.7858
▁außen	-10.7859
▁spät	-10.786
▁ausgesetzt	-10.7861
▁schwartz	-10.7862
▁Stift	-10.7862
vol	-10.7864
▁Ing	-10.7867
▁Vorschrift	-10.7867
acht	-10.7869
▁Spann	-10.7869
▁starr	-10.7871
fal	-10.7871
▁Laut	-10.7871
▁Differenz	-10.7872
▁Entwurf	-10.7874
stes	-10.7874
ulen	-10.788
▁Menschheit	-10.7882
kte	-10.7883
▁befindliche	-10.7887
00.000	-10.7888
▁Him	-10.789
▁Zwang	-10.7891
▁heimlich	-10.7894
▁Engländer	-10.7895
OR	-10.7895
▁falsch	-10.7897
▁GdI	-10.79
organ	-10.7901
▁Lö	-10.7904
by	-10.791
neu	-10.791
▁Classe	-10.7913
leiter	-10.7916
gr	-10.7916
▁Erhaltung	-10.7916
ima	-10.7919
still	-10.7919
▁begab	-10.7919
▁Kanone	-10.7921
▁verbinden	-10.7921
cur	-10.7925
▁vorderen	-10.7925
▁Vereinigten	-10.7927
▁fortgesetzt	-10.7927
▁Zellen	-10.7928
▁Pha	-10.7929
ré	-10.7931
▁längs	-10.7932
igten	-10.7936
▁tun	-10.7939
gesellschaft	-10.7939
▁Todten	-10.7942
pffen	-10.795
▁China	-10.7951
▁zulässig	-10.7954
▁unsers	-10.7957
▁heftig	-10.7959
▁Rü	-10.7959
blich	-10.7961
regiments	-10.7961
schw	-10.7963
—1	-10.7964
▁derartige	-10.7964
schiffe	-10.7965
▁Sauerstoff	-10.7968
▁diejenige	-10.7969
zieht	-10.7972
▁Edl	-10.7972
▁Denken	-10.7972
▁hierin	-10.7973
▁wolten	-10.7974
spruch	-10.7979
kar	-10.798
sprech	-10.798
dam	-10.7981
park	-10.7988
▁falsche	-10.7988
▁Universität	-10.7991
hilfe	-10.7991
▁Kanal	-10.7991
▁schwache	-10.7991
mes	-10.7992
▁geleitet	-10.7994
▁Leucht	-10.7995
▁lustig	-10.7997
▁tieff	-10.7998
59	-10.7999
bö	-10.8
▁Jäger	-10.8001
▁Hol	-10.8001
Commandant	-10.8003
57	-10.8004
▁fing	-10.8004
▁tag	-10.8006
▁Fische	-10.8008
▁Philosoph	-10.801
▁meistens	-10.8011
bilder	-10.8013
▁Eintritt	-10.8015
▁steigen	-10.8018
▁zugewiesen	-10.802
▁Zink	-10.8022
▁106	-10.8023
▁zumeist	-10.8023
▁zwanzig	-10.8024
▁scher	-10.8028
▁alsbald	-10.8031
▁zeichnet	-10.8032
würdig	-10.8035
▁Generalstabs	-10.8038
▁geradezu	-10.8038
▁Stroh	-10.8039
draht	-10.8039
Wi	-10.8039
▁Sitten	-10.804
IS	-10.8041
▁Zieles	-10.8045
▁setzet	-10.8045
▁wasser	-10.8045
jan	-10.8045
log	-10.8047
▁Verein	-10.8048
▁stimmt	-10.8048
▁schnitt	-10.8049
▁weiten	-10.8053
▁Mer	-10.8058
ific	-10.8059
▁Oel	-10.8062
▁Gross	-10.8062
thier	-10.8063
ance	-10.8064
▁Balkan	-10.8066
▁ergab	-10.8067
sso	-10.8068
▁Poesie	-10.8069
▁unterstützt	-10.8069
▁Teilen	-10.807
falle	-10.8071
zone	-10.8071
▁Dabei	-10.8073
▁Meß	-10.8074
▁Hie	-10.8075
▁uñ	-10.8076
▁Irr	-10.8079
▁dauernd	-10.8081
100	-10.8084
▁gesund	-10.8088
▁Unser	-10.809
▁DER	-10.809
▁vorliegende	-10.8091
▁Trans	-10.8091
▁Mitglieder	-10.8098
▁Operations	-10.8104
▁Enden	-10.8105
▁zweier	-10.8106
▁wisse	-10.8107
▁Generalstabes	-10.8109
▁were	-10.8112
förmigen	-10.8114
igte	-10.8114
▁Voraussetzung	-10.8116
▁bescha	-10.8116
ltniß	-10.812
93	-10.8121
prä	-10.8122
stellt	-10.8123
▁scheiden	-10.8124
turm	-10.8132
gangen	-10.8136
▁schließt	-10.8137
▁Amts	-10.8139
weisung	-10.8139
▁Butter	-10.814
▁gutem	-10.814
▁darstellt	-10.8142
alien	-10.8145
▁Komp	-10.8146
▁Deutschlands	-10.8147
▁SchD	-10.815
setz	-10.8152
▁lebhaft	-10.8152
▁Trotz	-10.8154
gten	-10.8155
▁begeben	-10.8155
▁zerstört	-10.8156
▁tau	-10.8159
▁mensch	-10.816
▁Vorzug	-10.816
greiff	-10.8162
▁Widerspruch	-10.8164
als	-10.8166
▁verlegt	-10.8171
▁versteht	-10.8172
els	-10.8172
▁alsdenn	-10.8174
▁ding	-10.8174
▁Prof	-10.8177
US	-10.8177
▁gehoben	-10.8179
tzer	-10.8181
▁feld	-10.8188
▁zwingen	-10.8191
▁einzelner	-10.8194
▁Außerdem	-10.8195
vent	-10.8197
rechts	-10.8198
▁Gute	-10.8201
▁Wegen	-10.8207
▁Vortrag	-10.8209
▁helfen	-10.821
▁Gebot	-10.821
▁darein	-10.8214
▁lautet	-10.8215
▁Viertel	-10.8215
stre	-10.8217
stoßen	-10.8219
▁183	-10.8222
fiel	-10.8223
szeit	-10.8224
▁Güter	-10.8224
▁herbei	-10.8225
▁trefflich	-10.8227
▁Kämpfen	-10.8229
▁Augenblicke	-10.8232
▁Fin	-10.8232
streit	-10.8239
▁erfolgreich	-10.824
sur	-10.824
nuß	-10.8241
schieden	-10.8244
▁beiderseits	-10.8244
▁Schulen	-10.8246
▁Gedichte	-10.8248
Ja	-10.8248
▁Offizieren	-10.8253
▁Wirth	-10.8254
▁Liebes	-10.8256
▁bekam	-10.8257
▁Kloster	-10.826
▁Aktion	-10.8262
lange	-10.8262
zy	-10.8263
▁40.	-10.8266
▁ruhen	-10.8269
▁nord	-10.8269
nica	-10.8274
63	-10.8274
▁kleineren	-10.8274
▁Bank	-10.8274
kken	-10.8275
▁Philipp	-10.8277
▁kraft	-10.8277
▁anerkannt	-10.8278
▁schlag	-10.8278
▁Vorschlag	-10.8278
▁bitter	-10.8279
▁Vermehrung	-10.8281
▁Revolution	-10.8282
IT	-10.8282
▁Flanken	-10.8284
kan	-10.829
▁Kö	-10.8291
▁erreichte	-10.8291
▁Acker	-10.8291
1⁄2	-10.8294
steine	-10.8297
▁Hammer	-10.8297
sbe	-10.8298
▁sä	-10.83
▁höchstens	-10.8301
▁Verdienst	-10.8312
▁Anblick	-10.8312
wurf	-10.8313
anstalten	-10.8314
▁Längen	-10.8315
▁Qu	-10.8317
▁ausgerüstet	-10.832
rd	-10.8323
▁Kur	-10.8324
▁Weisheit	-10.8324
▁Keim	-10.8329
▁Knecht	-10.833
▁Beamten	-10.8332
▁Standes	-10.8332
▁Gar	-10.8333
sia	-10.8335
ras	-10.8337
▁außerhalb	-10.8341
wider	-10.8341
▁möge	-10.8345
▁Mittag	-10.8347
gekommen	-10.8348
uri	-10.8348
hlung	-10.8349
▁Bahnen	-10.835
▁Ap	-10.8353
hör	-10.8354
▁Frankfurt	-10.8355
▁Oberstleutnant	-10.8355
getrieben	-10.8355
▁Regimenter	-10.8355
▁schießen	-10.8356
▁ersetzen	-10.8359
▁Rat	-10.836
▁festgestellt	-10.8361
▁Abends	-10.8366
▁Minute	-10.8367
las	-10.8368
schild	-10.837
▁steil	-10.8371
▁regel	-10.8371
kunft	-10.8371
▁geistigen	-10.8374
▁auseinander	-10.8376
▁dra	-10.8376
welche	-10.8382
▁zusammengesetzt	-10.8382
▁Spur	-10.8382
schneiden	-10.8383
▁Tatsache	-10.8384
Pa	-10.8386
nern	-10.8388
▁Park	-10.8389
▁Flotten	-10.839
02	-10.8396
▁kleines	-10.8397
▁wandte	-10.8397
▁175	-10.8401
ckten	-10.8407
▁beinahe	-10.8409
lust	-10.8411
▁1).	-10.8411
ago	-10.8414
rem	-10.8417
▁Sehr	-10.8417
▁verdeckt	-10.8418
gedrungen	-10.8422
strahl	-10.8426
▁Walde	-10.8428
▁harte	-10.843
schraube	-10.843
oxyd	-10.8431
▁geleistet	-10.8432
zwecke	-10.8435
▁wunderbar	-10.8438
▁tiefe	-10.8442
▁125	-10.8443
▁Nothwendigkeit	-10.8444
▁Kronen	-10.8444
Art	-10.8444
scheibe	-10.8446
▁sorgen	-10.8446
▁unterscheidet	-10.8448
▁Ziegel	-10.8452
▁178	-10.8452
▁Durchschnitt	-10.8454
▁Herꝛn	-10.8454
messung	-10.8456
▁heut	-10.8456
▁ach	-10.846
▁wesentlichen	-10.8465
▁vornehmlich	-10.8465
▁entdeckt	-10.8467
▁mili	-10.8469
Al	-10.847
▁pl	-10.847
▁Kohle	-10.8472
schreiten	-10.8473
swert	-10.8475
▁32.	-10.8481
spar	-10.8481
ON	-10.8482
nkel	-10.8483
illa	-10.8484
▁bracht	-10.8484
▁Tr	-10.8484
▁Grösse	-10.8485
▁lei	-10.8485
▁Jan	-10.8488
▁1895	-10.8491
stoß	-10.8494
▁Cla	-10.8496
▁trau	-10.8498
▁Geheim	-10.8499
▁Kritik	-10.8499
▁Mühe	-10.8503
staaten	-10.8503
▁00	-10.8503
ographie	-10.8506
▁Beschießung	-10.8506
▁Viele	-10.8508
▁Fre	-10.851
▁ernstlich	-10.8514
▁Verschluss	-10.8515
▁hieß	-10.8517
▁drang	-10.8521
lum	-10.8522
▁Kreuzer	-10.8523
▁Que	-10.8523
▁Forts	-10.8524
▁dick	-10.8524
▁Batt	-10.8526
pla	-10.8527
▁seh	-10.8529
bit	-10.8531
eb	-10.8534
▁Verbrechen	-10.8535
dä	-10.8536
▁Qui	-10.8537
▁Mittler	-10.8538
5.000	-10.8538
spannt	-10.8539
▁Verbündeten	-10.8541
▁cos	-10.8544
▁Beruf	-10.8544
▁gesamten	-10.8546
sci	-10.8548
▁Station	-10.8551
schieben	-10.8555
▁preis	-10.8556
▁tiefen	-10.8556
83	-10.8556
sdorf	-10.8559
▁Mk	-10.856
cia	-10.8561
▁öfter	-10.8564
▁Strahlen	-10.8568
▁Hptm	-10.857
▁Jene	-10.857
▁Pfa	-10.8571
treu	-10.8571
▁Saltz	-10.8571
▁Staffel	-10.8572
▁Länder	-10.8572
wendig	-10.8575
▁fach	-10.8575
▁Mill	-10.8576
▁Stat	-10.8578
ativ	-10.8578
gehende	-10.8583
Preis	-10.8584
▁Leder	-10.8585
Es	-10.8588
▁kommenden	-10.8588
▁jhren	-10.8589
▁Fle	-10.8589
rꝛ	-10.859
▁Unsere	-10.8591
▁gegenwa	-10.8594
▁erinnern	-10.8594
rede	-10.8595
▁Ausbau	-10.8596
▁log	-10.8597
▁Laub	-10.8602
▁Kampfes	-10.8604
▁Prinzip	-10.861
▁leitet	-10.861
▁gestaltet	-10.861
81	-10.8611
▁ret	-10.8613
rag	-10.8614
▁Rund	-10.8615
Ga	-10.8615
mäßige	-10.8616
▁leib	-10.8617
streu	-10.8617
▁1892	-10.8618
▁Standpunkt	-10.8621
gesch	-10.8621
▁3000	-10.8622
▁Knaben	-10.8623
▁zuver	-10.8624
▁wichtiger	-10.8627
dus	-10.8628
punct	-10.8629
▁angewiesen	-10.8631
▁108	-10.8631
▁Verschiebung	-10.8631
▁ausreichend	-10.8637
▁Roheisen	-10.8637
▁Grundsätze	-10.8638
tätigkeit	-10.864
▁RM	-10.864
lehrer	-10.8641
▁Quelle	-10.8642
Sie	-10.8644
▁ernannt	-10.8645
▁verwandt	-10.8646
▁stra	-10.8647
pass	-10.8648
digung	-10.8648
▁170	-10.865
▁bot	-10.865
decke	-10.8651
▁erzielen	-10.8653
uth	-10.8653
leitungen	-10.8654
▁gemeiniglich	-10.8656
▁Besuch	-10.8657
▁Einschießen	-10.8658
▁Hunde	-10.8658
▁ersehen	-10.866
▁sache	-10.866
▁befohlen	-10.8661
▁Statu	-10.8662
▁Bomben	-10.8662
▁dergestalt	-10.8667
mil	-10.8667
▁Durchbruch	-10.8668
▁gewu	-10.8668
äl	-10.8672
▁Lohn	-10.8673
chung	-10.8674
tliche	-10.8675
▁Poly	-10.8677
▁tapfer	-10.8678
▁besuchte	-10.8679
ndt	-10.868
▁Welle	-10.868
73	-10.8683
▁seyen	-10.8684
▁erworben	-10.8687
▁Zuge	-10.8687
▁Verordnung	-10.8689
nigin	-10.8689
Reg	-10.869
stationen	-10.8691
▁spielt	-10.8692
▁33.	-10.8695
nnten	-10.8697
▁zo	-10.8698
sehn	-10.8698
▁gelesen	-10.8701
▁Kl	-10.8703
▁eiserne	-10.8707
bten	-10.8708
▁nächste	-10.871
▁schlossen	-10.871
genossen	-10.8712
▁Ubungs	-10.8712
▁stolz	-10.8713
▁Weit	-10.8715
200	-10.8715
▁Zier	-10.8719
formationen	-10.872
▁ruht	-10.872
▁verwe	-10.8721
zimmer	-10.8722
▁Magazin	-10.8723
lade	-10.8723
61	-10.8725
▁zwi	-10.8726
▁äußere	-10.8727
▁Hirsch	-10.8728
ministerium	-10.8729
gliche	-10.873
cy	-10.8731
▁Ag	-10.8731
▁verlangen	-10.8732
▁eröffnet	-10.8732
▁Meynung	-10.8733
▁Längs	-10.8733
zäh	-10.8734
▁wesentliche	-10.8738
UNG	-10.8739
▁Schwert	-10.874
▁kund	-10.874
zulegen	-10.8742
▁letzt	-10.8745
▁101	-10.8745
hig	-10.8745
▁Anno	-10.8746
ement	-10.8747
▁Dadurch	-10.8748
▁Pracht	-10.8748
sieht	-10.8748
▁Vielleicht	-10.8749
▁Stände	-10.8752
rne	-10.8753
▁Hiebei	-10.8753
▁Theo	-10.8754
▁geschwind	-10.8755
▁geistige	-10.8759
▁bauen	-10.8761
▁win	-10.8761
▁My	-10.8767
▁700	-10.8767
▁Act	-10.8768
▁Leit	-10.8769
▁leid	-10.8769
▁Darum	-10.8769
▁Laß	-10.8769
▁greifen	-10.8772
▁Erkenntnis	-10.8773
▁knapp	-10.8773
▁vorläufig	-10.8778
▁Jhnen	-10.8779
tzung	-10.878
▁Vorsicht	-10.8782
▁fleißig	-10.8783
▁Fernrohr	-10.8784
▁Schall	-10.8785
chef	-10.8786
▁nisse	-10.8789
griff	-10.8795
▁Beleuchtung	-10.8795
▁Hau	-10.8796
▁Eroberung	-10.8797
dium	-10.8801
▁Mass	-10.8801
▁Garde	-10.8802
▁Ketten	-10.8802
▁Glanz	-10.8802
führt	-10.8802
usch	-10.8804
▁34.	-10.8806
faßt	-10.8807
▁erzählt	-10.8809
▁jenigen	-10.8811
▁innig	-10.8813
häu	-10.8813
▁Großen	-10.8814
gründe	-10.8816
▁Verwaltungs	-10.8817
bieten	-10.8817
▁Eigenschaft	-10.8819
▁37.	-10.8819
▁Sprengung	-10.8822
▁stat	-10.8823
▁würdig	-10.8824
▁pag	-10.8824
▁Schreib	-10.8825
▁Festungen	-10.8826
cti	-10.8826
▁Meeres	-10.8826
▁Frühjahr	-10.8827
▁Erinnerung	-10.8828
▁Gre	-10.8829
▁bunt	-10.8833
▁werfen	-10.8833
▁Treib	-10.8833
▁thu	-10.8834
▁102	-10.8835
▁Wachs	-10.8836
▁Alters	-10.8836
▁Anderung	-10.8836
jus	-10.8838
gefühl	-10.8838
▁erza	-10.884
rio	-10.8841
▁Obrigkeit	-10.8842
▁weshalb	-10.8845
Brig	-10.8845
oder	-10.8846
bern	-10.8847
▁freylich	-10.8847
istischen	-10.8849
▁Sicherheits	-10.885
▁1894	-10.8851
ura	-10.8851
–	-10.8852
jahre	-10.886
abschnitt	-10.8866
▁Dazu	-10.8867
▁krieg	-10.8872
54	-10.8876
▁1890	-10.8878
▁manchmal	-10.8879
▁vierte	-10.8879
▁Unbe	-10.888
kleid	-10.8882
aux	-10.8884
stor	-10.8886
idi	-10.8888
lichkeiten	-10.889
handlungen	-10.8891
ez	-10.8893
strecke	-10.8898
▁Geruch	-10.8901
▁Goethe	-10.8903
selb	-10.8904
▁frische	-10.8904
lder	-10.8905
▁Detail	-10.8906
▁gelegenen	-10.8907
ji	-10.8909
▁Presse	-10.8911
▁entwickeln	-10.8912
▁104	-10.8916
▁flo	-10.8919
▁angestellt	-10.8919
▁fruchtbar	-10.8919
wan	-10.892
brige	-10.8921
pffer	-10.8923
sorge	-10.8924
▁Verbindungs	-10.8928
▁Knie	-10.8929
▁1914,	-10.893
▁vertreten	-10.8937
▁Interessen	-10.8939
gefügt	-10.8939
▁Zwey	-10.8941
▁Heiz	-10.8941
▁Beurteilung	-10.8947
▁Bauer	-10.8947
▁darstellen	-10.895
▁Skizzen	-10.895
kke	-10.8956
▁ersteren	-10.896
gericht	-10.8963
▁verhalten	-10.8963
▁Stimmung	-10.8966
▁Teutschen	-10.8967
▁Schusse	-10.8967
skraft	-10.8968
▁Posten	-10.8968
▁ehren	-10.8969
▁sem	-10.8969
▁Einen	-10.8974
ufig	-10.8974
▁dank	-10.8977
▁anzusehen	-10.8979
▁Johannes	-10.8979
▁setze	-10.8981
Fa	-10.8983
▁Mol	-10.8985
▁Gesetzes	-10.8985
▁Winde	-10.8987
▁Buchstaben	-10.8988
▁Besetzung	-10.899
wände	-10.8991
▁Warheit	-10.8993
▁Kü	-10.8993
▁Abschied	-10.8998
▁Geiste	-10.8999
Hiezu	-10.9005
▁römischen	-10.9005
▁genügen	-10.9007
erweise	-10.9009
▁Gase	-10.901
▁grau	-10.9015
▁Testament	-10.9017
kreise	-10.9018
▁gelagert	-10.9019
tzel	-10.9019
▁gefaßt	-10.9021
▁allhier	-10.9022
ore	-10.9022
▁günstige	-10.9022
hausen	-10.9023
▁hiemit	-10.9025
nehmer	-10.9031
bey	-10.9033
▁mann	-10.9034
▁gesamte	-10.9034
kant	-10.9035
munition	-10.9038
▁schlimm	-10.9039
▁Maas	-10.9041
reif	-10.9041
▁Tur	-10.9041
▁größerer	-10.9042
▁Abhandlung	-10.9044
▁woraus	-10.9045
▁Ideen	-10.9045
▁Elektro	-10.9045
▁1899	-10.9046
▁115	-10.9053
▁Wor	-10.9053
▁Behauptung	-10.9054
▁Umstände	-10.9058
▁heißen	-10.9058
▁tzen	-10.906
▁bitten	-10.9064
▁Glaube	-10.9064
▁Alte	-10.9065
▁Zusatz	-10.9065
tiren	-10.9066
▁zufrieden	-10.9069
▁194	-10.9072
getreten	-10.9073
inn	-10.9074
▁Karte	-10.9076
▁Pil	-10.9083
▁Umgebung	-10.9083
▁bildete	-10.9083
▁rechnet	-10.9084
▁1870	-10.9085
wendet	-10.9089
ruffen	-10.9089
▁Rechten	-10.909
▁Intervall	-10.9092
schaften	-10.9092
▁nirgends	-10.9093
mpt	-10.9094
uet	-10.9094
ziehung	-10.9096
▁wü	-10.9097
erzeugung	-10.9097
▁inter	-10.9097
▁Forst	-10.9098
isation	-10.9099
▁gefordert	-10.91
52	-10.9102
gier	-10.9103
▁jhrer	-10.9104
▁vorerst	-10.9107
▁verlie	-10.9109
▁geworfen	-10.911
▁gelöst	-10.911
versuche	-10.9111
räth	-10.9111
▁stecken	-10.9112
old	-10.9112
▁Sprengstoff	-10.9113
mmet	-10.9114
▁wein	-10.9114
itsch	-10.9114
schlu	-10.9115
▁berechtigt	-10.9117
▁straff	-10.9117
Sta	-10.9117
tas	-10.9117
tation	-10.912
▁ie	-10.9121
▁Anhang	-10.9122
pin	-10.9123
stung	-10.9125
▁zween	-10.9126
▁auffallend	-10.9126
▁vierten	-10.9128
hlich	-10.9128
▁taktischen	-10.9132
▁voran	-10.9132
▁Andern	-10.9132
▁erregt	-10.9133
▁hertz	-10.9134
▁vermochte	-10.9135
ringe	-10.9136
▁Häuser	-10.9137
▁Erste	-10.9141
werken	-10.9141
▁35.	-10.9145
▁177	-10.9146
▁Hab	-10.9148
▁Reichthum	-10.9149
stimmen	-10.9149
▁Gründe	-10.9154
▁leise	-10.9155
chtlich	-10.9155
not	-10.9158
▁Angabe	-10.9161
▁Versammlung	-10.9161
fehler	-10.9163
▁lehren	-10.9164
▁Kuppel	-10.9164
▁Histori	-10.9167
▁ci	-10.917
▁Lied	-10.9175
theils	-10.9178
▁schle	-10.9179
▁Zweig	-10.918
▁Faden	-10.9181
brand	-10.9182
▁Bette	-10.9183
▁manches	-10.9184
ttel	-10.9185
tät	-10.9187
▁angegriffen	-10.9189
▁gesetzet	-10.919
▁Philosophie	-10.9194
lehn	-10.9196
▁Gesichts	-10.9197
wachen	-10.9197
can	-10.9201
streich	-10.9202
▁drückt	-10.9205
▁langer	-10.9205
Kriegsschauplatz	-10.9209
▁menschen	-10.9209
▁Ertz	-10.921
▁Rücklauf	-10.9213
▁Geschlechts	-10.9217
▁vermindert	-10.9217
▁GO	-10.922
▁erwartet	-10.9222
▁Stücke	-10.9223
▁Vene	-10.9226
▁beschlossen	-10.9227
bili	-10.9231
ato	-10.9235
▁gan	-10.9236
▁Heb	-10.9236
ütz	-10.9237
▁veranlaßt	-10.9238
▁Rohres	-10.924
▁fester	-10.924
▁Modell	-10.9245
▁112	-10.9247
▁Ce	-10.9247
▁Leg	-10.9247
▁Ansehung	-10.9251
▁zwang	-10.9254
herrn	-10.9254
▁bedienen	-10.9256
streben	-10.9257
▁edle	-10.9258
▁heilig	-10.9259
▁lies	-10.9262
sverhältnisse	-10.9262
ierungs	-10.9265
▁Wurzel	-10.9265
▁zuzu	-10.9265
▁Unterthanen	-10.9268
▁Fahrzeuge	-10.9269
▁Gerade	-10.9269
▁seitens	-10.9272
▁arg	-10.9272
▁gehn	-10.9273
▁Monaten	-10.9275
tti	-10.9276
▁Innere	-10.9276
▁Gedancken	-10.9277
▁Schmerz	-10.9277
▁103	-10.9278
salz	-10.9283
▁feine	-10.9286
▁großes	-10.929
▁gestatten	-10.929
▁1891	-10.9291
▁Planeten	-10.9292
▁davor	-10.9292
lio	-10.9294
▁Schwierigkeit	-10.9299
▁stehe	-10.93
schlich	-10.9301
▁einfacher	-10.9301
▁fangen	-10.9302
ziel	-10.9304
fried	-10.9305
▁Isonzo	-10.9305
▁gescha	-10.9305
ile	-10.9307
▁bedient	-10.9308
tirt	-10.9308
nam	-10.9309
▁Gegentheil	-10.9319
▁darumb	-10.9322
▁geistliche	-10.9322
▁letztern	-10.9323
▁Nachschub	-10.9327
▁steigt	-10.9328
dte	-10.9328
▁Drehung	-10.9329
▁dicke	-10.9329
gibt	-10.933
▁automatisch	-10.9331
reißen	-10.9331
▁Kaisers	-10.9335
zeiten	-10.9337
▁starker	-10.9337
fang	-10.9338
ette	-10.9338
genannte	-10.9339
▁brachten	-10.9344
▁günstigen	-10.9345
▁verfolgen	-10.9346
▁not	-10.9346
Vo	-10.9349
zel	-10.9351
truppe	-10.9352
glieder	-10.9354
▁Garnison	-10.9356
▁offenen	-10.9357
▁Einzelnen	-10.9357
gla	-10.9357
▁Eyer	-10.9361
▁schritt	-10.9362
▁gleichmäßig	-10.9362
eilt	-10.9363
▁gros	-10.9364
▁Majestät	-10.9366
▁verlohren	-10.9367
▁ö	-10.9367
▁Punkten	-10.9367
▁rechtzeitig	-10.9371
▁Allgemeinen	-10.9374
angriffe	-10.9376
werth	-10.9378
▁Händen	-10.9378
▁Gescha	-10.9378
▁sammt	-10.9381
▁Gras	-10.9382
▁lib	-10.9385
▁br	-10.9387
▁Rohre	-10.9388
▁Wohn	-10.9389
bli	-10.9391
▁gerathen	-10.9391
▁begegnen	-10.9391
bringung	-10.9391
geschosse	-10.9392
lach	-10.9394
▁rascher	-10.9396
III	-10.9401
▁unterstellt	-10.9407
▁aufmerksam	-10.9408
▁konte	-10.9409
▁Instrument	-10.9412
AL	-10.9412
▁Bohr	-10.9412
▁richtung	-10.9413
▁spe	-10.9416
▁Verbände	-10.9418
▁verwundet	-10.9418
▁nachmittags	-10.9421
vel	-10.9422
geschoben	-10.9425
ces	-10.9425
▁galt	-10.9428
granaten	-10.943
▁versetzt	-10.943
tto	-10.9431
▁Dec	-10.9432
ella	-10.9438
kl	-10.9439
▁ce	-10.944
▁erbaut	-10.944
▁Schneider	-10.9441
▁Kampfwagen	-10.9442
▁pen	-10.9442
fest	-10.9443
▁Cas	-10.9443
—18	-10.9444
schritt	-10.9446
kolonne	-10.9447
▁Ausführungen	-10.9447
▁Gesang	-10.9447
▁Gä	-10.9448
▁hören	-10.9451
▁Willens	-10.9451
▁Finanz	-10.9452
stieg	-10.9453
▁Sil	-10.9454
▁Mischung	-10.9454
rzt	-10.9455
▁überlassen	-10.9458
▁quo	-10.946
▁Vorteile	-10.9463
.«	-10.9464
▁stande	-10.9464
▁jederzeit	-10.9467
▁harten	-10.9467
owski	-10.9469
ographische	-10.9473
▁Segen	-10.9476
nien	-10.9477
▁Inter	-10.9478
▁warten	-10.9479
stamm	-10.948
ram	-10.9482
ili	-10.9482
▁stieß	-10.9483
▁sag	-10.9486
▁Einrichtungen	-10.9487
▁Buche	-10.9489
▁Berichte	-10.9491
geld	-10.9492
▁taktische	-10.9493
▁doppelte	-10.9493
▁Hindernis	-10.9497
▁1893	-10.9498
Wo	-10.9498
▁mon	-10.9498
▁deßwegen	-10.9498
▁Kurs	-10.9501
▁Hy	-10.9502
cent	-10.9503
alität	-10.9504
▁Leicht	-10.9506
▁op	-10.9507
▁öffentliche	-10.951
fan	-10.9512
schuld	-10.9515
▁einzig	-10.9517
▁weisse	-10.952
lar	-10.9521
hel	-10.9522
zunehmen	-10.9523
blätter	-10.9526
rathen	-10.9527
▁erweisen	-10.9529
mehr	-10.9532
▁Einbruch	-10.9532
▁XIII	-10.9533
riegel	-10.9536
▁vernu	-10.9537
▁Höchst	-10.9538
▁brauchbar	-10.9541
schreck	-10.9543
lasse	-10.9543
lfe	-10.9544
zucht	-10.9547
▁Soldat	-10.9549
▁Reisen	-10.9552
▁leiten	-10.9555
position	-10.9557
▁Schönheit	-10.9558
raub	-10.9558
▁Zunge	-10.9559
wandel	-10.9559
▁Anstalten	-10.956
▁danken	-10.9563
▁eingeteilt	-10.9566
dreh	-10.9569
▁Eisenbeton	-10.9569
▁derjenigen	-10.9572
▁Berührung	-10.9573
▁natürlichen	-10.9574
aten	-10.9576
▁jetzigen	-10.9576
pfung	-10.9577
▁ferne	-10.9581
▁Schw	-10.9581
kasten	-10.9582
nfte	-10.9582
▁Treue	-10.9586
gne	-10.9587
▁Cl	-10.9587
▁enge	-10.9589
nsche	-10.9591
▁erhaben	-10.9592
▁deutsch	-10.9593
▁plan	-10.9593
▁Haltung	-10.9595
trat	-10.9596
▁gleichwol	-10.9598
▁pla	-10.9598
▁Kru	-10.96
▁warm	-10.9601
ländischen	-10.9606
▁Herd	-10.9606
400	-10.9608
▁immerhin	-10.9609
▁Persönlichkeit	-10.9609
▁Zauber	-10.9609
fluss	-10.9611
▁lösen	-10.9611
ntzen	-10.9612
▁Zwar	-10.9613
prüfung	-10.9616
▁angedeutet	-10.9616
car	-10.9623
ngern	-10.9624
hitz	-10.9624
82	-10.9626
rüstung	-10.9629
üb	-10.9629
seyn	-10.9633
Bo	-10.9634
▁Scheiben	-10.9634
▁Rudolf	-10.9634
▁Teuffel	-10.9634
▁schwachen	-10.9635
sca	-10.9635
enz	-10.9636
▁keines	-10.964
▁Zone	-10.9641
▁155	-10.9643
▁Kranke	-10.9644
cor	-10.9646
dis	-10.9647
▁sonstige	-10.9649
▁Hohen	-10.965
▁Wä	-10.9652
▁vergeblich	-10.9652
▁fordern	-10.9654
gä	-10.9654
reg	-10.9654
Vor	-10.9655
borg	-10.9655
markt	-10.9656
bst	-10.9657
▁Thon	-10.9659
Berücksichtigung	-10.966
▁gestalt	-10.9664
▁vergnu	-10.9669
▁Dez	-10.9671
hrer	-10.9672
▁Scheibe	-10.9672
▁Räume	-10.9675
▁Turn	-10.9676
lisch	-10.9677
ole	-10.9677
▁Taktik	-10.9679
▁hievon	-10.9679
▁zusammenge	-10.968
▁XIV	-10.968
▁verpflichtet	-10.9682
▁Sin	-10.9684
▁folgendes	-10.9687
▁Kriegführung	-10.9687
▁Vertreter	-10.9687
▁burg	-10.969
▁Ruh	-10.9691
eꝛ	-10.9692
▁Fli	-10.9694
▁Sobald	-10.9694
▁analog	-10.9696
▁1900	-10.9697
▁sitzt	-10.9697
▁Kasten	-10.9699
▁Aluminium	-10.97
▁Felder	-10.97
▁Fluss	-10.97
▁Kaufmann	-10.9702
▁vereinigen	-10.9703
▁folget	-10.9703
apparate	-10.9705
▁Schienen	-10.9706
▁Hermann	-10.9708
▁Phil	-10.9708
cheln	-10.9709
▁geschützt	-10.9709
▁gefüllt	-10.9711
▁umfaßt	-10.9714
▁Landschaft	-10.9717
▁entnommen	-10.9718
▁Frank	-10.9718
▁eingehend	-10.9721
▁weiche	-10.9722
▁107	-10.9725
fragen	-10.9726
▁Generalmajor	-10.9727
▁Tuch	-10.9727
▁steckt	-10.9729
▁Franckreich	-10.9731
▁schwarze	-10.9733
▁aufrecht	-10.9735
▁innen	-10.9741
▁augen	-10.9742
▁wilde	-10.9743
reiß	-10.9743
▁Munde	-10.9745
▁Schutze	-10.9747
schüsse	-10.9748
Fu	-10.9748
▁abermals	-10.9748
▁empfohlen	-10.9749
auß	-10.9752
▁119	-10.9753
spro	-10.9754
▁Armeekorps	-10.9758
▁Athen	-10.9758
▁bleibet	-10.976
phon	-10.976
▁Sprachen	-10.9762
bilde	-10.9763
▁Städte	-10.9763
▁Patrone	-10.9763
▁moderne	-10.9763
brief	-10.9764
kro	-10.9766
▁traten	-10.9767
▁Schiffen	-10.9768
▁wohnen	-10.9769
num	-10.977
▁Null	-10.9771
▁Wahrscheinlich	-10.9775
▁hieher	-10.9779
▁befo	-10.9781
▁Gewerbe	-10.9783
nsten	-10.9783
▁Apo	-10.9784
▁geschildert	-10.9789
▁Belastung	-10.9789
hnte	-10.9789
▁eisernen	-10.9791
▁ursprünglich	-10.9791
▁As	-10.9792
▁Trennung	-10.9793
▁Befestigungs	-10.9798
▁empfehlen	-10.9798
▁unmo	-10.9801
lde	-10.9803
hmt	-10.9804
sberg	-10.9806
▁(19	-10.9809
▁getreten	-10.9811
▁ermöglichen	-10.9811
▁il	-10.9817
▁Besonders	-10.982
▁114	-10.9823
enburg	-10.9824
▁Freiherr	-10.9826
monat	-10.9826
▁Sonst	-10.9827
▁festgesetzt	-10.9828
▁Oster	-10.983
▁Spitzen	-10.9832
gal	-10.9835
ec	-10.9837
misch	-10.9839
ologische	-10.9839
▁Rost	-10.9839
▁rot	-10.9839
▁Gesandten	-10.9839
lb	-10.984
▁Jungen	-10.984
▁1903	-10.9841
digkeit	-10.9843
▁Antrieb	-10.9843
▁jung	-10.9843
▁Rind	-10.9846
▁Würde	-10.9848
tim	-10.9849
barer	-10.985
▁edel	-10.9853
▁36.	-10.9853
besprechungen	-10.9853
klich	-10.9855
▁unab	-10.9856
▁Ideal	-10.9858
▁rie	-10.9859
mächtig	-10.986
TE	-10.9862
lier	-10.9863
▁schief	-10.9863
▁hoffe	-10.9868
peri	-10.9873
▁denjenigen	-10.9874
▁verein	-10.9874
tius	-10.9876
▁schicken	-10.9878
wohl	-10.9879
▁Nachmittag	-10.9879
▁vornehmen	-10.9885
▁Unteroffiziere	-10.9886
▁gewachsen	-10.989
▁Bö	-10.989
▁abgeschlossen	-10.9897
▁118	-10.9898
▁Bilde	-10.9901
▁6)	-10.9901
▁Tief	-10.9901
▁Bart	-10.9902
▁Welches	-10.9902
▁gewahr	-10.9903
hause	-10.9904
aw	-10.9906
igem	-10.9908
▁besaß	-10.9912
uben	-10.9912
▁verschie	-10.9912
▁Chlor	-10.9913
fil	-10.9914
Man	-10.9914
▁zwölf	-10.9914
teten	-10.9916
glück	-10.992
ometer	-10.9922
▁bedroht	-10.9923
▁Glüh	-10.9923
▁Lehren	-10.9924
spekt	-10.9925
▁1916,	-10.9926
▁Vögel	-10.9928
▁Kro	-10.9928
gri	-10.9931
▁Vormarsch	-10.9934
nkung	-10.9935
matische	-10.9935
liegenden	-10.9937
lässig	-10.9938
▁schwä	-10.994
▁Ausgabe	-10.994
▁geringere	-10.9943
▁Hunger	-10.9944
öffnung	-10.9944
lg	-10.9945
▁109	-10.9945
▁bewaffnet	-10.9946
lic	-10.9947
▁Gehorsam	-10.9951
▁Zweige	-10.9952
versuch	-10.9953
▁1.0	-10.9954
▁Verpflegung	-10.9955
▁liebt	-10.9956
bücher	-10.9956
kämpfe	-10.9957
▁deckt	-10.9959
phy	-10.9962
UR	-10.9963
▁Schwere	-10.9965
▁ausführlich	-10.9969
▁Schrecken	-10.997
▁jezt	-10.9971
▁Stall	-10.9975
▁Mächte	-10.9978
▁bloss	-10.9979
▁Unternehmen	-10.9979
weilen	-10.9982
og	-10.9983
▁Klage	-10.9984
▁Luftschiff	-10.9986
Auf	-10.9986
sagt	-10.9988
▁Gewinn	-10.9989
▁suche	-10.9991
▁Witterung	-10.9992
läufig	-10.9996
▁fg	-10.9998
ßige	-10.9998
Regiment	-10.9998
decken	-10.9999
▁bleibe	-11.0001
▁Gebu	-11.0002
rmen	-11.0003
▁beschaffen	-11.0003
▁angefangen	-11.0004
▁bloße	-11.0008
▁lebendige	-11.0008
▁reif	-11.0011
▁schlu	-11.0012
▁111	-11.0012
▁Komm	-11.0014
▁wirklichen	-11.0017
▁einerley	-11.0017
▁Anlaß	-11.0017
▁offene	-11.0017
▁Pläne	-11.0019
▁121	-11.0021
▁Stä	-11.0025
hern	-11.0025
messer	-11.0027
fällen	-11.0028
▁melden	-11.0033
spru	-11.0034
▁heist	-11.0037
mächte	-11.0037
▁blick	-11.0039
▁Abgabe	-11.0041
▁Federn	-11.0043
▁Eier	-11.0044
drängen	-11.0044
▁geringste	-11.0047
▁arbeit	-11.0049
▁Bier	-11.005
▁Anker	-11.0052
▁freiwillig	-11.0052
▁.....	-11.0053
▁schloß	-11.0055
▁eh	-11.0056
▁wilden	-11.0058
icus	-11.0058
▁erzeugen	-11.0059
▁gemäß	-11.006
▁Bewegungs	-11.0061
▁fix	-11.0061
▁Faust	-11.0062
▁Theater	-11.0065
▁Stil	-11.0065
▁het	-11.0068
▁gemischt	-11.0068
rzen	-11.007
▁GLt	-11.0074
brach	-11.0074
▁zweiter	-11.0076
▁Arthur	-11.0076
era	-11.0078
▁veröffentlicht	-11.0078
▁plo	-11.008
▁vertraut	-11.008
▁Substanz	-11.0085
53	-11.0086
ierende	-11.0087
cri	-11.0088
▁Kopff	-11.0089
▁trieb	-11.009
▁vnder	-11.0091
▁gnug	-11.0091
▁Zivil	-11.0094
▁überraschend	-11.0097
▁Pfeil	-11.0098
▁außge	-11.0101
▁schwarzen	-11.0101
▁Lichte	-11.0103
ison	-11.0104
▁Klo	-11.0108
▁Pfarrer	-11.0109
▁Decken	-11.0109
hafft	-11.0115
sau	-11.0116
rfe	-11.0118
▁168	-11.012
▁arbeitet	-11.0121
▁Schar	-11.0121
▁Volke	-11.0123
▁wirkliche	-11.0123
▁Gewohnheit	-11.0124
▁Ladungen	-11.0124
schütt	-11.0125
▁Parti	-11.0125
ble	-11.0126
schel	-11.0129
▁Jhm	-11.0129
glichkeit	-11.0132
▁cum	-11.0136
▁Position	-11.0138
▁bestehet	-11.0138
▁Manne	-11.014
holen	-11.0143
▁chemische	-11.0145
gin	-11.0148
schaftlichen	-11.015
▁erheblich	-11.0151
▁Deckungen	-11.0153
drücken	-11.0153
▁erklärte	-11.0157
▁etlichen	-11.0159
▁Obersten	-11.0161
▁Uebung	-11.0161
▁bescheiden	-11.0162
▁Mittelpunkt	-11.0162
kli	-11.0163
▁Kommission	-11.0164
▁vergleichen	-11.0164
zeich	-11.0166
▁traurig	-11.0168
▁Richtungen	-11.0169
▁38.	-11.0169
rollen	-11.0171
sper	-11.0173
▁engen	-11.0177
▁bildung	-11.0177
▁113	-11.0182
digt	-11.0183
▁Empfindungen	-11.0184
▁Republik	-11.0184
äng	-11.0185
▁Gehalt	-11.0188
▁Wiesen	-11.0188
▁Bord	-11.0193
▁hebt	-11.0203
▁Christian	-11.0203
▁nein	-11.0203
▁insonderheit	-11.0208
▁verbessert	-11.0208
▁1911.	-11.0208
gewalt	-11.021
▁Prozent	-11.0212
▁Russland	-11.0213
▁1500	-11.0214
beck	-11.0214
▁betrieben	-11.0216
hmet	-11.0217
▁Register	-11.0217
grün	-11.0219
▁fleissig	-11.0221
—2	-11.0222
▁scheinet	-11.0223
▁allerley	-11.0224
▁Vol	-11.0226
Pro	-11.0226
▁Röhren	-11.0227
▁IBrig	-11.0232
▁Mündung	-11.0238
▁Kopfe	-11.0238
▁Römer	-11.0241
▁Bel	-11.0245
wich	-11.0245
▁Sä	-11.0247
llige	-11.0248
▁240	-11.0249
▁heutige	-11.0249
▁berührt	-11.025
▁normalen	-11.0252
▁Dieß	-11.0256
raten	-11.0259
▁unterworfen	-11.0259
▁lust	-11.0263
iam	-11.0263
▁Bulgarien	-11.0263
hmte	-11.0264
Feld	-11.0264
▁(5	-11.0265
▁miteinander	-11.0269
itur	-11.0269
ttung	-11.0272
Ges	-11.0273
▁rothe	-11.0273
bein	-11.0276
▁Artilleriefeuer	-11.0277
▁süd	-11.0279
▁Saft	-11.0281
▁Lieder	-11.0281
schicht	-11.0282
▁besorgt	-11.0282
▁gelb	-11.0283
ée	-11.0284
EL	-11.0284
verbrauch	-11.0285
▁Compagnie	-11.0285
kul	-11.0288
▁verhältnismäßig	-11.0292
▁entscheiden	-11.0292
strahlen	-11.0296
▁gewidmet	-11.0296
▁Manche	-11.0298
▁Nadel	-11.0298
▁geringsten	-11.0299
trä	-11.03
spa	-11.0302
rch	-11.0302
abwehr	-11.0304
▁sc	-11.0304
▁leistet	-11.0305
neh	-11.0306
weist	-11.0309
▁schlechter	-11.031
▁gewährt	-11.031
▁Bach	-11.0314
▁untersucht	-11.0314
moment	-11.0316
▁Schwanz	-11.0319
lium	-11.0321
▁regelmäßig	-11.0321
▁verstand	-11.0322
schaffen	-11.0323
▁Reibung	-11.0328
ior	-11.0329
ubt	-11.033
▁Hauses	-11.0333
Ru	-11.0334
ipp	-11.0334
▁Reform	-11.0334
schung	-11.0334
eilen	-11.0335
bert	-11.0336
▁Unterschiede	-11.0336
hei	-11.034
▁großem	-11.0341
▁Maßstab	-11.0342
spo	-11.0343
zugeben	-11.0345
nahmen	-11.0345
▁inzwischen	-11.0346
▁ey	-11.0348
hnlichen	-11.035
▁176	-11.035
knecht	-11.035
▁Umfange	-11.0351
iter	-11.0351
tzte	-11.0353
▁nachstehende	-11.0353
▁solt	-11.0354
kanal	-11.0354
dacht	-11.0355
▁Ty	-11.0356
ström	-11.0357
▁hervorgehoben	-11.0358
▁Dicke	-11.0362
▁1905.	-11.0362
▁Tausend	-11.0363
▁amerikanischen	-11.0364
▁Gewa	-11.0365
var	-11.0365
paar	-11.0366
▁Leb	-11.0367
▁zeiget	-11.0367
Do	-11.0369
städt	-11.037
▁Verständnis	-11.0372
▁neuem	-11.0373
plo	-11.0374
▁Sicht	-11.0375
▁singen	-11.0375
az	-11.0378
▁Schä	-11.0379
▁Conc	-11.0381
nom	-11.0382
▁122	-11.0388
▁schä	-11.0389
▁älteren	-11.0389
gasse	-11.039
leucht	-11.0392
▁Emp	-11.0392
walt	-11.0393
tica	-11.0394
▁hinreichend	-11.0396
▁Cer	-11.0396
▁rechter	-11.04
schaffung	-11.0405
wirthschaft	-11.0407
▁führten	-11.0408
▁Muskel	-11.0409
▁Medi	-11.0411
▁bahn	-11.0416
▁hi	-11.0418
▁trotzdem	-11.0418
▁neuesten	-11.0419
ndi	-11.0419
grä	-11.042
▁Einsicht	-11.042
▁itzt	-11.0422
teilig	-11.0423
▁Verhältniß	-11.0424
▁schiff	-11.0425
▁Res	-11.0426
gerissen	-11.0427
tien	-11.0429
graph	-11.0433
▁Ord	-11.0433
▁Chur	-11.0433
▁aufgehoben	-11.0435
schriften	-11.0436
▁vorgesehen	-11.044
stange	-11.044
▁Stich	-11.0446
▁Fischer	-11.0446
▁sit	-11.0446
▁ordnung	-11.0446
▁Staate	-11.0447
▁gesetz	-11.0453
iner	-11.0453
▁Flucht	-11.0455
▁seyd	-11.0455
▁Bedürfnisse	-11.0456
▁Sinnen	-11.0459
▁Bekannt	-11.0459
▁herrlich	-11.046
▁muth	-11.046
▁gnade	-11.046
ika	-11.0461
▁Kauf	-11.0461
▁Andre	-11.0466
▁Dresden	-11.0467
ax	-11.0467
▁beliebig	-11.0467
▁gewohnt	-11.0468
▁Diesen	-11.047
teur	-11.047
▁flüchtig	-11.0472
nschen	-11.0472
▁rothen	-11.0473
▁Einheiten	-11.0474
gefecht	-11.0474
▁Profil	-11.0475
▁gemeinsamen	-11.0477
▁pri	-11.0477
▁eingetreten	-11.0481
tä	-11.0481
glaub	-11.0482
sar	-11.0483
ctu	-11.0484
▁Rot	-11.0484
sko	-11.0484
▁Max	-11.0485
▁Kriegsminister	-11.0486
▁ut	-11.0487
▁39.	-11.049
▁Kant	-11.0491
▁bekanntlich	-11.0493
dler	-11.0495
▁Existenz	-11.0495
▁Saamen	-11.0496
▁Fü	-11.0497
▁181	-11.0497
▁hindern	-11.0503
▁Fürst	-11.0504
▁116	-11.0504
fuß	-11.0506
▁Monats	-11.0509
▁Vorhut	-11.0509
iæ	-11.051
▁Freundschaft	-11.051
▁heu	-11.0511
▁Kohlenstoff	-11.0511
▁gewehr	-11.0515
▁Disposition	-11.052
▁Gegenangriff	-11.0521
▁erleichtert	-11.0524
Hi	-11.0524
metall	-11.0525
▁Verbesserung	-11.0528
wertig	-11.0528
kohl	-11.0529
▁Ermittlung	-11.0529
häuser	-11.0531
kanone	-11.0534
51	-11.0543
▁reicher	-11.0543
▁kei	-11.0545
plätze	-11.0545
Wei	-11.0546
uten	-11.0547
pferde	-11.0547
▁irr	-11.0547
▁stehn	-11.0547
▁Hochzeit	-11.0548
▁Zufall	-11.0549
nö	-11.0549
▁Stimmen	-11.0552
▁Christum	-11.0552
▁allemal	-11.0554
stall	-11.0555
▁binden	-11.0556
▁144	-11.0556
▁Markt	-11.0557
▁hertzen	-11.0557
▁Kr	-11.0557
▁wert	-11.0558
ust	-11.056
▁enger	-11.0561
periode	-11.0561
ächt	-11.0562
▁Gema	-11.0563
hundert	-11.0564
▁wendung	-11.0565
geschossen	-11.0565
▁gestern	-11.0566
▁1908.	-11.0567
srecht	-11.057
▁fremd	-11.057
bataillone	-11.057
ober	-11.057
▁Thun	-11.0571
machung	-11.0571
▁post	-11.0571
vention	-11.0571
▁herzustellen	-11.0573
▁Flammen	-11.0575
nem	-11.0581
▁Plätze	-11.0582
▁Woche	-11.0582
▁physi	-11.0582
▁späteren	-11.0583
▁Neuerungen	-11.0585
▁versuchen	-11.0586
▁Typen	-11.0588
▁einzeln	-11.059
▁jhme	-11.0592
rner	-11.0594
▁vorgeschoben	-11.0594
▁Hütten	-11.0595
▁weiters	-11.0598
▁Weh	-11.0602
▁führung	-11.0602
äch	-11.0605
▁getreu	-11.0606
▁Genauigkeit	-11.0606
▁Jean	-11.0606
zeuge	-11.0607
▁person	-11.0609
▁Sey	-11.0609
▁Uebel	-11.0611
▁Kälte	-11.0611
▁Ö	-11.0612
▁Chor	-11.0612
▁schliessen	-11.0612
▁Treffen	-11.0613
▁gera	-11.0613
▁vorausgesetzt	-11.0613
▁Wolken	-11.0614
ttert	-11.0617
▁empfa	-11.0617
▁bemu	-11.0619
träge	-11.062
hie	-11.062
—3	-11.062
▁Getreide	-11.062
enberg	-11.0623
frau	-11.0623
ktiv	-11.0624
▁Saal	-11.0624
▁Sy	-11.0625
▁vorgeschrieben	-11.0625
lafette	-11.0628
▁bezogen	-11.0629
▁117	-11.0629
▁Beyspiel	-11.0631
hme	-11.0632
bedarf	-11.0634
▁erhielten	-11.0636
▁frage	-11.0636
tete	-11.0638
▁sämtliche	-11.0638
▁Jesus	-11.0639
▁Kranckheit	-11.0639
scheiden	-11.064
stunden	-11.0642
▁Messer	-11.0645
▁gezeichnet	-11.0646
kre	-11.0646
▁erfuhr	-11.0647
▁selbständige	-11.0647
▁Streitkräfte	-11.065
▁Kette	-11.0651
▁Technischen	-11.0651
▁Belagerung	-11.0652
▁Schüler	-11.0654
bezirk	-11.0654
▁Gustav	-11.0654
utsch	-11.066
▁tern	-11.066
sü	-11.0663
▁gesetzlich	-11.0665
▁Elevation	-11.0665
rbe	-11.0667
▁gese	-11.0667
▁Schale	-11.0668
▁Verlangen	-11.0668
lav	-11.0672
kri	-11.0672
gesetze	-11.0674
▁tage	-11.0674
▁fehlte	-11.0675
grenzen	-11.0679
gio	-11.068
▁Betriebe	-11.0682
▁Majesta	-11.0683
tige	-11.0684
atus	-11.0687
schuldig	-11.0688
ktor	-11.0689
leuten	-11.069
▁unmittelbare	-11.0691
▁Verfassers	-11.0692
▁Tank	-11.0693
▁Leich	-11.0694
▁Türken	-11.0694
sage	-11.0696
▁helle	-11.0697
▁Gewichte	-11.0698
stat	-11.0698
vv	-11.07
▁zweifellos	-11.07
entia	-11.0701
▁Behelf	-11.0701
chsen	-11.0701
änderung	-11.0703
uber	-11.0706
irenden	-11.0707
▁entfallen	-11.0707
▁1906.	-11.0707
anti	-11.0708
▁Verse	-11.0709
freiheit	-11.071
stritten	-11.0711
ebene	-11.0711
▁kannte	-11.0713
▁Frankreichs	-11.0713
▁gangen	-11.0715
will	-11.0716
▁drängt	-11.0716
▁152	-11.0717
▁Kno	-11.0718
▁350	-11.0719
▁sy	-11.072
dampf	-11.0722
▁heiß	-11.0724
▁Wurf	-11.0725
▁XVI	-11.0727
▁Blau	-11.0727
▁Propheten	-11.0729
▁nötigen	-11.0733
▁162	-11.0735
▁tod	-11.0737
▁stelle	-11.0738
▁hellen	-11.074
▁erobert	-11.074
oc	-11.074
▁Fehl	-11.074
bot	-11.074
▁128	-11.0741
▁befahl	-11.0742
▁ersichtlich	-11.0743
▁danck	-11.0744
▁Corps	-11.0746
▁bene	-11.0748
▁Kegel	-11.0748
▁Mauern	-11.0748
▁Buches	-11.0749
▁gegenseitig	-11.0749
▁Przemy	-11.0752
▁Sämtliche	-11.0752
▁gespannt	-11.0753
eifer	-11.0754
▁lungen	-11.0757
▁raschen	-11.076
▁erfunden	-11.0761
▁dichte	-11.0764
haber	-11.0767
▁neuerlich	-11.0769
▁Eifer	-11.077
▁emp	-11.0771
▁Jedoch	-11.0772
▁Doctor	-11.0772
▁Regierungs	-11.0772
▁Griechenland	-11.0775
▁darff	-11.0778
horn	-11.0779
▁gedachte	-11.0779
▁entnehmen	-11.0781
▁fla	-11.0782
600	-11.0782
▁Muß	-11.0787
mission	-11.0789
isirt	-11.079
▁Instruktion	-11.0791
shi	-11.0793
test	-11.0795
gieß	-11.0796
zze	-11.0798
▁Hut	-11.0798
ufft	-11.0801
▁beispielsweise	-11.0801
▁Allerdings	-11.0801
▁Zelt	-11.0803
▁Einem	-11.0803
▁Zucht	-11.0804
äre	-11.0805
▁denke	-11.0806
rgen	-11.0807
▁fall	-11.0808
▁gelegentlich	-11.081
rdige	-11.081
ßigen	-11.081
▁174	-11.081
▁Fri	-11.0812
▁Müller	-11.0812
lligen	-11.0813
▁natürliche	-11.0814
hte	-11.0814
partei	-11.0815
▁Brot	-11.0815
▁ändert	-11.0817
▁Ball	-11.0819
▁Dru	-11.0821
wunden	-11.0822
▁HErꝛ	-11.0825
▁Ausnützung	-11.0826
▁begangen	-11.0826
▁bli	-11.0828
▁Armierung	-11.083
▁Jungfrau	-11.0831
▁maßgebend	-11.0836
cier	-11.0837
berger	-11.0837
▁gewiesen	-11.084
▁Absichten	-11.0842
richtig	-11.0842
▁Cam	-11.0843
wel	-11.0846
mina	-11.085
wieder	-11.085
▁unglu	-11.0851
Mo	-11.0854
▁spi	-11.0855
▁falschen	-11.0856
glied	-11.0861
act	-11.0861
▁schied	-11.0864
och	-11.0865
gramm	-11.0865
▁gelangte	-11.0866
▁Bezirk	-11.0867
▁folge	-11.0871
▁hohl	-11.0873
▁mechanische	-11.0874
▁Meldung	-11.0874
jährige	-11.0876
▁bedacht	-11.0876
▁Lan	-11.0877
LE	-11.0877
▁met	-11.088
▁hohem	-11.088
gehet	-11.0882
▁spo	-11.0882
▁Prinzen	-11.0883
▁lege	-11.0883
▁kürzer	-11.0885
▁Innen	-11.0886
ville	-11.0888
wissen	-11.0889
▁beherrscht	-11.0891
▁schein	-11.0892
▁Ed	-11.0894
ulation	-11.0897
▁breiter	-11.0898
dul	-11.0902
produkt	-11.0903
dienste	-11.0904
▁erstreckt	-11.0905
▁werck	-11.0906
▁lebens	-11.0907
lik	-11.0907
▁Anschluß	-11.0908
▁Feldhaubitz	-11.0908
▁123	-11.0909
gon	-11.091
▁Gd	-11.091
erie	-11.091
sung	-11.0913
ader	-11.0915
scheidung	-11.0917
▁Lippen	-11.0919
▁Werden	-11.092
gesehen	-11.0921
wässer	-11.0922
▁kühn	-11.0923
▁tätig	-11.0923
▁Technische	-11.0924
▁walt	-11.0924
tun	-11.0925
▁(§	-11.0926
▁cur	-11.0927
▁Brennstoff	-11.0928
▁Gall	-11.0928
▁Betrag	-11.0929
▁rings	-11.0932
zustand	-11.0932
chner	-11.0933
4)	-11.0934
▁schwerlich	-11.0934
▁allenthalben	-11.094
▁beendet	-11.094
zusehen	-11.094
▁durchzuführen	-11.0941
▁Gleichgewicht	-11.0942
▁mehrfach	-11.0943
reihen	-11.0944
gewinn	-11.0945
verein	-11.0945
hau	-11.0945
▁bisweilen	-11.0947
▁165	-11.0947
▁Weich	-11.0948
▁Zinn	-11.0948
zieren	-11.0948
▁fü	-11.095
▁Schra	-11.0952
▁umfassen	-11.0954
theit	-11.0954
spiele	-11.0955
▁ausdrücklich	-11.0955
▁Projekt	-11.0955
▁freund	-11.0956
gethan	-11.0956
eigne	-11.0957
▁befunden	-11.0962
▁Reim	-11.0963
▁Tab	-11.0963
▁Vereine	-11.0964
▁Kühl	-11.0964
▁Reis	-11.0965
äu	-11.0967
▁Neues	-11.0968
IR	-11.0971
▁Jung	-11.0973
nigreich	-11.0974
▁Patri	-11.0979
▁Bestand	-11.0979
▁43.	-11.098
▁ähnlichen	-11.0981
Schw	-11.0982
▁Fassung	-11.099
▁Provinz	-11.099
hebung	-11.0992
▁strenge	-11.0996
▁Stell	-11.0997
▁Feldbahn	-11.0998
kommission	-11.0998
olo	-11.0998
▁schneller	-11.0999
▁bedeuten	-11.1001
EI	-11.1002
▁messen	-11.1002
HR	-11.1004
▁erfordern	-11.1004
▁mehrerer	-11.1004
malige	-11.1006
▁Arzt	-11.1008
hnet	-11.1011
tigt	-11.1013
▁Drey	-11.1016
▁Bil	-11.1016
▁griechischen	-11.1017
gern	-11.1018
▁lebendigen	-11.1019
▁Erweiterung	-11.1021
▁1889	-11.1021
▁Wirksamkeit	-11.1021
▁erhältlich	-11.1021
▁Tanks	-11.1021
▁Præ	-11.1023
fter	-11.1024
▁Auflösung	-11.1027
▁Instrumente	-11.1028
▁el	-11.1032
▁zufällig	-11.1033
▁Einzelne	-11.1035
▁Kin	-11.1035
▁Orient	-11.1037
rod	-11.1038
Na	-11.1039
zünder	-11.1039
▁Weltkriege	-11.1039
▁Maler	-11.104
▁erkennt	-11.104
▁Holland	-11.1043
Te	-11.1044
winde	-11.1046
▁satz	-11.1046
à	-11.1046
▁vel	-11.1047
▁124	-11.1048
▁Deckel	-11.1049
▁1907.	-11.105
▁fielen	-11.105
▁Dichtung	-11.1053
▁geplant	-11.1053
▁1.5	-11.1053
▁heiter	-11.1055
▁Moltke	-11.1056
warten	-11.1058
▁Uebergang	-11.1058
▁bewiesen	-11.106
▁Tapferkeit	-11.1061
▁Stille	-11.1061
▁Ursach	-11.1065
▁1902	-11.1066
spann	-11.1066
▁Jsrael	-11.1066
▁wand	-11.1068
▁Zeugen	-11.1069
▁entschlossen	-11.1069
▁hieraus	-11.107
deutschen	-11.1071
▁Hoheit	-11.1073
▁Schaffung	-11.1074
▁Antrag	-11.1075
quellen	-11.1076
▁Blume	-11.1077
gefa	-11.1078
scheiben	-11.1081
▁schlechten	-11.1083
▁hörte	-11.1084
hängen	-11.1087
▁Bände	-11.1088
▁hal	-11.1088
▁Heim	-11.1088
▁Mut	-11.1091
▁Sterne	-11.1095
▁interessante	-11.1095
verband	-11.1096
▁Wunden	-11.1096
▁gesteigert	-11.1096
age	-11.1098
▁Sterb	-11.1101
▁verändert	-11.1102
▁Julius	-11.1102
zte	-11.1103
▁Rei	-11.1108
▁Kenntnisse	-11.1108
▁lehn	-11.1111
▁nah	-11.1111
▁ziel	-11.1112
staffel	-11.1113
▁grössere	-11.1114
▁Fast	-11.1114
▁soviel	-11.1115
hut	-11.1122
▁russisch	-11.1122
▁Belgien	-11.1123
▁Schicht	-11.1123
▁Anna	-11.1125
tausend	-11.1127
▁absolute	-11.1129
▁Unrecht	-11.1132
▁tigen	-11.1133
▁ausgenommen	-11.1134
▁GbBrig	-11.1135
▁Härte	-11.1136
▁Franc	-11.1137
geschäft	-11.1139
▁finster	-11.1139
▁Keil	-11.1141
mauer	-11.1142
hänge	-11.1144
▁135	-11.1146
zehnte	-11.1146
▁geh	-11.1147
▁Schrapnell	-11.1147
hy	-11.1148
▁verfügt	-11.115
▁kehrte	-11.1151
▁drehbar	-11.1153
▁Seidel	-11.1161
▁Januar	-11.1163
sack	-11.1163
▁Berufs	-11.1164
▁Bataillonen	-11.1165
▁letzterer	-11.1168
▁gedruckt	-11.1169
ausbildung	-11.1171
thätig	-11.1174
▁Operation	-11.1174
bä	-11.1176
hü	-11.1179
▁Inf	-11.1179
▁Mat	-11.118
▁verfu	-11.1184
▁leichtlich	-11.1184
archi	-11.1186
motor	-11.1189
▁Schußweite	-11.119
▁rückte	-11.1192
▁erblickt	-11.1192
▁Anschauungen	-11.1195
▁Darm	-11.1196
▁Ange	-11.1198
▁grausam	-11.1198
▁Anerkennung	-11.12
press	-11.1201
▁Stre	-11.1202
▁betont	-11.1203
▁vorn	-11.1204
▁nehmlich	-11.1205
▁Lä	-11.1209
▁41.	-11.1215
gestanden	-11.1216
figur	-11.1217
▁hierzu	-11.1217
▁weissen	-11.122
▁173	-11.1221
IE	-11.1224
uv	-11.1225
achten	-11.1226
poli	-11.1226
▁Spar	-11.1227
sio	-11.1228
sieg	-11.1229
▁Schmiede	-11.1234
▁Verband	-11.1235
▁Original	-11.124
▁Abbildungen	-11.1242
rock	-11.1242
BER	-11.1243
▁XV	-11.1245
bahr	-11.1245
ndliche	-11.1246
▁Vorbereitungen	-11.1247
▁günstiger	-11.1249
▁Drittel	-11.125
▁Fremden	-11.125
▁Colo	-11.1255
▁meister	-11.1255
▁Begierde	-11.1256
▁wendig	-11.1257
lement	-11.1257
▁Eure	-11.1259
▁zurückzu	-11.1261
formation	-11.1261
▁Eh	-11.1262
litz	-11.1263
▁Metalle	-11.1266
▁Niederlage	-11.1269
▁Wände	-11.1272
blu	-11.1273
▁Fran	-11.1274
▁allge	-11.1274
thige	-11.1276
▁Rock	-11.1279
▁126	-11.128
fleck	-11.128
▁ir	-11.1288
▁Helm	-11.1291
▁sachen	-11.1293
standen	-11.1295
▁mis	-11.1296
▁flie	-11.1296
assa	-11.1298
▁nim	-11.1299
Mu	-11.13
▁vorstellen	-11.1302
▁spu	-11.1303
▁Maske	-11.1303
Mar	-11.1304
blasen	-11.1305
bestimmung	-11.1308
ndischen	-11.1309
vin	-11.1309
cl	-11.1315
zeichnung	-11.1316
kern	-11.1316
übung	-11.1317
▁gewaltsam	-11.1317
▁Grundlagen	-11.1317
▁Heran	-11.1318
▁Inseln	-11.1319
wis	-11.1319
▁aussen	-11.1319
geho	-11.132
▁mach	-11.1322
▁geliefert	-11.1322
▁Wissenschaften	-11.1325
▁kostet	-11.1325
▁schwächer	-11.1325
▁fleisch	-11.1327
▁Deß	-11.133
schar	-11.1331
rund	-11.1332
temperatur	-11.1333
▁fra	-11.1334
▁Strahl	-11.1336
▁fä	-11.1336
▁Mis	-11.1339
zweck	-11.1341
▁Nordamerika	-11.1343
▁erlitten	-11.1343
▁nimm	-11.1344
▁Grau	-11.1346
▁wirtschaftliche	-11.1346
▁Tim	-11.1348
▁herrscht	-11.1349
▁Back	-11.1349
▁Flach	-11.135
▁Aufschlag	-11.1351
▁Stangen	-11.1352
urs	-11.1352
▁Krankheiten	-11.1355
▁anfänglich	-11.1356
▁bricht	-11.1356
▁Granate	-11.1358
▁Körpers	-11.1358
▁seq	-11.1359
▁seltsam	-11.1359
▁nannte	-11.1359
sort	-11.1363
wendung	-11.1364
tafel	-11.1364
anus	-11.1365
greifen	-11.1367
▁Tirol	-11.1367
▁Griff	-11.1375
tafeln	-11.1377
eile	-11.1378
▁Male	-11.1379
▁ap	-11.138
▁Frauenzimmer	-11.1381
▁empfinden	-11.1382
▁fang	-11.1383
gebrochen	-11.1386
▁Tä	-11.1386
▁wertvolle	-11.1389
▁Gesetzen	-11.1389
▁jahr	-11.1391
flü	-11.1391
▁bewußt	-11.1392
▁brauch	-11.1393
▁gl	-11.1393
▁theilt	-11.1395
▁geändert	-11.1396
▁kleinsten	-11.1397
säule	-11.1398
▁feinen	-11.14
mischung	-11.14
▁Scheide	-11.14
▁jedesmal	-11.1402
▁Lands	-11.1404
schet	-11.1404
dum	-11.1404
bie	-11.1405
fahrzeuge	-11.141
▁Ringen	-11.1411
▁Petersburg	-11.1412
▁trag	-11.1413
▁Schließ	-11.1414
▁erkannte	-11.1417
schmi	-11.142
▁Tom	-11.1421
gestell	-11.1421
▁Red	-11.1422
▁gend	-11.1423
▁wär	-11.1424
daß	-11.1424
Mit	-11.1427
lius	-11.1427
welle	-11.1427
▁Reuter	-11.1428
▁7,	-11.143
▁App	-11.143
▁blosse	-11.1431
▁Parlament	-11.1432
kö	-11.1433
halter	-11.1434
pflege	-11.1435
ngel	-11.1437
▁eigenes	-11.1437
Ungarns	-11.1442
herrschaft	-11.1442
▁absolut	-11.1443
▁nis	-11.1444
befehl	-11.1445
▁angegebenen	-11.1445
▁Schulter	-11.1446
▁geschiehet	-11.1448
ssern	-11.145
▁mächtig	-11.1451
▁Syn	-11.1452
christ	-11.1453
▁unterstützen	-11.1453
▁Guten	-11.1454
▁900	-11.1454
▁hertzlich	-11.146
diger	-11.146
flieger	-11.1461
▁Unver	-11.1462
ova	-11.1462
schwin	-11.1462
▁Bischoff	-11.1462
▁Fol	-11.1463
▁Benützung	-11.1464
▁komm	-11.1464
▁punkt	-11.1465
▁Abschluß	-11.1467
▁Gegensta	-11.147
▁keiten	-11.147
▁tg	-11.1471
▁fragt	-11.1473
schränk	-11.1475
▁Nationen	-11.1476
▁Glo	-11.148
▁1848	-11.1481
▁Hingegen	-11.1481
schwä	-11.1482
wet	-11.1482
▁Wiege	-11.1483
schlage	-11.1485
zünd	-11.1487
red	-11.1487
▁Riesen	-11.1488
glas	-11.1489
▁sofern	-11.1489
▁Vgl	-11.149
▁Admiral	-11.1491
▁Churfu	-11.1492
▁Ac	-11.1492
▁Standpunkte	-11.1495
sfähig	-11.1496
ären	-11.1498
▁(6	-11.15
▁beson	-11.1502
freund	-11.1503
▁Cre	-11.1504
tracht	-11.1504
▁kurzem	-11.1505
▁Produktion	-11.1505
▁Russisch	-11.1506
springen	-11.1506
▁gemeldet	-11.1506
▁zusam	-11.1506
swinkel	-11.1507
▁Psalm	-11.1507
▁gemeinsame	-11.1507
▁wählen	-11.1508
sammlung	-11.1508
hey	-11.1509
▁merkwürdig	-11.1512
▁Warschau	-11.1513
manns	-11.1515
▁zeigten	-11.1516
▁haus	-11.1525
▁210	-11.1525
▁Marc	-11.1525
▁sprechend	-11.1526
schuh	-11.1526
▁Streuung	-11.1527
▁Landsturm	-11.1527
sec	-11.1528
▁cu	-11.1529
▁Sollte	-11.153
ante	-11.1531
▁Götter	-11.1531
▁eyn	-11.1532
▁zarte	-11.1532
▁Gliederung	-11.1534
zeichnet	-11.1535
▁Bie	-11.1542
▁Sappeur	-11.1543
lcker	-11.1545
▁werdet	-11.1547
rium	-11.1547
▁Vernichtung	-11.1549
tierung	-11.1549
cin	-11.155
▁42.	-11.1551
▁leg	-11.1551
illi	-11.1553
▁irre	-11.1554
▁Institut	-11.1554
slos	-11.1555
setzte	-11.1556
schrauben	-11.1556
kugel	-11.1557
▁Regul	-11.1561
▁vordere	-11.1562
gö	-11.1564
▁Parallel	-11.1565
▁historischen	-11.1565
▁Einteilung	-11.1568
▁Leid	-11.157
▁Fortschritt	-11.1571
▁gewann	-11.1571
▁grö	-11.1575
▁Cylinder	-11.1575
▁Vermögen	-11.1575
▁149	-11.1575
lekt	-11.1578
▁Bock	-11.1579
▁Stuhl	-11.1581
▁billich	-11.1585
▁Tür	-11.1585
sco	-11.1587
▁Dra	-11.1588
urteil	-11.1591
▁gleichem	-11.1591
▁freier	-11.1592
▁7)	-11.1592
arum	-11.1594
▁jr	-11.1594
▁Chri	-11.1596
▁vorüber	-11.1596
▁Hundert	-11.1597
▁setzten	-11.1597
ndete	-11.1598
▁ohnehin	-11.1601
▁Por	-11.1602
tagen	-11.1605
▁Subject	-11.1607
▁Kann	-11.1608
▁gesa	-11.1608
▁Gräben	-11.1609
▁fri	-11.1609
▁ph	-11.1611
ograph	-11.1613
▁Hör	-11.1613
wärme	-11.1618
▁Benzin	-11.1618
▁wohnt	-11.1619
▁Klagen	-11.1621
▁quod	-11.1624
▁denkt	-11.1625
tigung	-11.1629
▁fett	-11.1632
sil	-11.1632
▁Donner	-11.1633
▁sicht	-11.1636
rken	-11.1636
mahlen	-11.1636
▁spiel	-11.1637
▁kräftig	-11.1638
▁militär	-11.1639
▁169	-11.1639
enti	-11.1641
▁Schweizer	-11.1642
▁Ul	-11.1644
▁Leutnant	-11.1645
▁helffen	-11.1647
reihe	-11.1648
▁Ländern	-11.1648
▁verließ	-11.165
Mitteilungen	-11.165
▁Gewebe	-11.1651
wachs	-11.1653
▁Eduard	-11.1655
▁allgemeiner	-11.1659
▁anfa	-11.1659
▁Rande	-11.1659
▁schaden	-11.1659
mini	-11.166
▁gegenwärtigen	-11.166
▁auftreten	-11.166
Stu	-11.1661
▁theilen	-11.1662
leutnant	-11.1663
▁hört	-11.1665
▁heisset	-11.1665
▁bedeutenden	-11.1666
▁Annäherung	-11.1666
▁Veranlassung	-11.1666
▁Scheinwerfer	-11.1666
reissen	-11.1668
arbeiter	-11.1669
▁darvon	-11.1669
▁jhrem	-11.167
▁mittelst	-11.167
▁gewöhnliche	-11.167
▁diesbezüglich	-11.1671
▁chemischen	-11.1673
▁chem	-11.1676
▁Albert	-11.1676
IN	-11.1677
dau	-11.1677
sicherheit	-11.1677
▁145	-11.1678
braun	-11.1679
▁Fülle	-11.1683
0.0	-11.1684
▁Einstellung	-11.1685
ruh	-11.1685
▁eifrig	-11.1688
▁ev	-11.1689
▁Gattungen	-11.1689
▁freudig	-11.1689
▁stund	-11.1689
▁kaiserlichen	-11.169
▁Früh	-11.1692
▁verlangte	-11.1696
▁Eid	-11.1699
▁Schichten	-11.1699
▁æ	-11.17
▁fühlte	-11.17
▁Hauptstadt	-11.1703
Zu	-11.1703
zz	-11.1707
▁Lü	-11.1707
flamm	-11.1708
▁indeß	-11.1708
bal	-11.1708
▁stillen	-11.1709
▁vorteilhaft	-11.1709
erscheinung	-11.1711
▁indes	-11.1712
▁dz	-11.1712
graf	-11.1714
▁Funken	-11.1714
▁Mengen	-11.1716
wol	-11.1717
sendung	-11.1718
▁fähig	-11.1719
▁Schweiß	-11.1722
▁versa	-11.1723
▁vermittelst	-11.1723
fro	-11.1724
▁Leber	-11.1725
▁derjenige	-11.1726
arzt	-11.1727
rak	-11.1727
ander	-11.1728
nissen	-11.1728
▁Preise	-11.1729
▁weitem	-11.1729
treff	-11.1731
▁Deck	-11.1732
▁sonach	-11.1732
▁andrer	-11.1734
▁erweh	-11.1736
▁Trommel	-11.1737
▁Haubitzen	-11.1737
dienstes	-11.1739
▁Journal	-11.1744
▁Cro	-11.1744
kauff	-11.1745
▁164	-11.1746
▁Bande	-11.1749
▁gearbeitet	-11.1749
▁1904.	-11.175
▁Trauer	-11.1752
▁Atmosphäre	-11.1753
▁220	-11.1753
▁ven	-11.1753
aire	-11.1755
schü	-11.1755
▁Frisch	-11.1755
▁letzter	-11.1755
▁unterbrochen	-11.1758
ereien	-11.1758
▁Hirn	-11.1759
stri	-11.176
▁Anstalt	-11.1761
▁171	-11.1761
▁Erze	-11.1764
▁Colle	-11.1764
quen	-11.1765
▁unterschiedlich	-11.1766
▁grösser	-11.1767
▁Zapfen	-11.1771
▁weilen	-11.1774
▁Versorgung	-11.1774
▁Reinigung	-11.1775
alter	-11.1776
mine	-11.1776
▁(10	-11.1777
mangel	-11.1781
▁entscheidenden	-11.1783
No	-11.1786
bb	-11.1787
ora	-11.1789
▁Abt	-11.179
▁abwärts	-11.179
▁Bearbeitung	-11.1791
▁166	-11.1791
▁Witz	-11.1792
▁Mitwirkung	-11.1794
▁rauh	-11.1794
▁Ferne	-11.1795
▁Pflege	-11.1798
ußern	-11.1798
▁Ph	-11.1799
dige	-11.1801
▁gelernt	-11.1802
▁verdienen	-11.1802
▁Vergleichung	-11.1803
dol	-11.1803
▁wich	-11.1803
▁Kriegsmarine	-11.1807
▁bestätigt	-11.1807
▁schildert	-11.1807
stlichen	-11.1808
▁stärkere	-11.181
▁Schwimm	-11.1812
▁Quecksilber	-11.1812
▁Witt	-11.1812
▁Dro	-11.1813
▁147	-11.1813
▁umfassende	-11.1816
anstalt	-11.1816
▁ost	-11.1818
hall	-11.1819
ero	-11.182
▁untersuchen	-11.1821
▁Ban	-11.1821
▁Teutschland	-11.1825
hoff	-11.1826
▁Braun	-11.1827
▁hung	-11.1827
▁bestimmter	-11.183
▁verbleiben	-11.1831
schuss	-11.1831
▁Vollkommenheit	-11.1834
klang	-11.1835
sul	-11.1836
▁fran	-11.1837
▁Hell	-11.1837
gni	-11.1838
organisation	-11.1839
▁interessant	-11.184
▁zahlen	-11.184
▁äussere	-11.184
rcken	-11.1841
train	-11.1843
nchen	-11.1844
▁AOK	-11.1845
▁Bewußtsein	-11.1845
▁Bergen	-11.1846
technische	-11.1851
▁grosses	-11.1851
setzet	-11.1851
▁Schloss	-11.1853
▁nam	-11.1854
▁obersten	-11.1855
▁gericht	-11.1857
▁sang	-11.1857
▁cha	-11.1858
▁trachten	-11.1858
▁Kron	-11.1858
▁Streifen	-11.1859
▁167	-11.186
▁leer	-11.1863
▁verschaffen	-11.1863
▁schrecklich	-11.1863
rker	-11.1864
▁furchtbar	-11.1864
▁Schaf	-11.1865
tzliche	-11.1866
quartier	-11.1866
▁Sonntag	-11.1866
▁historische	-11.1867
▁vormittags	-11.1867
pos	-11.1868
▁Mode	-11.1869
▁Pru	-11.187
▁vermögen	-11.1873
▁Kleid	-11.1874
granate	-11.1875
bürger	-11.1876
▁Verbreitung	-11.1878
▁é	-11.1878
zukommen	-11.1878
▁Monte	-11.1878
▁strategische	-11.1879
▁Wandel	-11.1881
▁lauffen	-11.1883
▁gefe	-11.1884
▁Mess	-11.1884
Tr	-11.1885
▁Kindes	-11.1888
▁unzu	-11.1888
▁normale	-11.1889
strecken	-11.1892
cre	-11.1893
▁müsste	-11.1896
▁unterhalb	-11.1898
▁Binde	-11.19
▁Verhandlungen	-11.1902
▁bewirken	-11.1902
▁rath	-11.1904
▁Errichtung	-11.1905
▁mancherley	-11.1907
▁127	-11.1908
▁verboten	-11.1908
gress	-11.1909
afrika	-11.1911
▁Altar	-11.1911
▁Bereiche	-11.1914
▁erha	-11.1915
bereich	-11.1915
▁Wirtschafts	-11.1915
▁Pie	-11.1916
▁Emil	-11.1916
▁172	-11.1917
▁scharfe	-11.1917
▁Generals	-11.1918
▁graphi	-11.1918
▁bearbeitet	-11.1919
▁Absatz	-11.192
▁angreifen	-11.192
▁Thaler	-11.1921
▁Weltkrieges	-11.1923
▁anzuwenden	-11.1929
▁behandeln	-11.1929
▁Wel	-11.1933
▁Antheil	-11.1933
▁verlor	-11.1934
▁kenne	-11.1935
ndigt	-11.1935
cipi	-11.1936
▁Wey	-11.1939
▁Flecken	-11.1941
fassung	-11.1942
▁wirkte	-11.1942
▁treibt	-11.1944
▁Lib	-11.1944
▁Steigerung	-11.1944
sern	-11.1945
seil	-11.1947
▁Lagen	-11.1948
▁weiterer	-11.1948
trop	-11.1949
▁schienen	-11.1951
▁Bemerkungen	-11.1953
▁Nest	-11.1955
able	-11.1956
▁4000	-11.1956
▁redlich	-11.1959
lungen	-11.1959
▁beabsichtigt	-11.1961
".	-11.1962
▁Oberleutnant	-11.1962
▁Vorstoß	-11.1963
▁hold	-11.1963
ár	-11.1964
▁Abgang	-11.1964
▁Wander	-11.1967
▁neueren	-11.1967
loser	-11.1968
gekehrt	-11.197
▁Schlosse	-11.197
kleidet	-11.197
▁Filter	-11.197
▁spec	-11.1971
▁Cra	-11.1972
com	-11.1974
Ku	-11.1975
▁rungen	-11.1975
fällt	-11.1976
▁moralische	-11.1977
erfolg	-11.1977
lohn	-11.1977
▁Nachtheil	-11.1978
OL	-11.1979
▁gele	-11.1981
führ	-11.1982
liess	-11.1983
▁136	-11.1984
spect	-11.1986
▁Caliber	-11.1989
treib	-11.1989
▁WIEN	-11.199
▁Graz	-11.1991
zweig	-11.1991
Stra	-11.1992
Bu	-11.1992
ning	-11.1994
▁dahero	-11.1994
800	-11.1995
▁Grün	-11.1997
▁Erkla	-11.1997
rückt	-11.1998
▁fahr	-11.1998
▁Bestreben	-11.1999
▁Bewohner	-11.2
▁Ringe	-11.2001
anischen	-11.2003
▁Schrapnells	-11.2005
pfa	-11.2006
▁Serie	-11.2006
▁ernst	-11.201
▁Einzelheiten	-11.2012
▁Säure	-11.2013
ath	-11.2013
mern	-11.2014
Und	-11.2015
ländische	-11.2015
▁DE	-11.2016
▁geschlossenen	-11.2016
▁angesetzt	-11.2016
▁Hü	-11.2017
schirm	-11.2018
▁Mehl	-11.2024
rmer	-11.2024
blieb	-11.2026
schätzen	-11.2026
▁Gaben	-11.2027
swerte	-11.2032
▁Gerät	-11.2033
▁Theodor	-11.2034
▁44.	-11.2036
▁SOHN	-11.2039
▁163	-11.2043
▁Hal	-11.2046
▁schuld	-11.2048
▁Provinzen	-11.205
▁wechsel	-11.2051
paß	-11.2052
▁Fuhrwerke	-11.2053
▁versto	-11.2054
▁gela	-11.2054
blichen	-11.2055
lichste	-11.2055
▁Scher	-11.2056
gelenk	-11.2058
▁Dorn	-11.2062
▁erprobt	-11.2062
pli	-11.2063
▁gestalten	-11.2064
▁west	-11.2065
▁heiten	-11.2065
▁Function	-11.2067
▁ändern	-11.2068
▁Baumwoll	-11.2068
▁privat	-11.2069
hꝛ	-11.207
▁entstand	-11.2071
▁Generalstab	-11.2072
dorff	-11.2074
hard	-11.2076
klage	-11.2077
pfel	-11.2078
▁gemachet	-11.2079
nieder	-11.2079
▁stalt	-11.2081
▁Lieferung	-11.2084
▁Adler	-11.2085
▁überein	-11.2089
regel	-11.209
▁Steig	-11.2092
▁1909.	-11.2094
dio	-11.2095
▁edlen	-11.2098
pflanzen	-11.2098
▁List	-11.2099
antwort	-11.21
▁gewinnt	-11.2101
▁Geschick	-11.2101
5)	-11.2103
path	-11.2105
▁ligen	-11.2105
▁ero	-11.2106
ausrüstung	-11.2108
▁luft	-11.2108
fund	-11.211
▁entzogen	-11.2113
▁Vertheidigung	-11.2113
izi	-11.2117
kriegs	-11.2117
▁nutz	-11.2117
▁bestehende	-11.212
RI	-11.2122
▁kunst	-11.2122
▁Rache	-11.2122
▁Bewaffnung	-11.2123
▁feiner	-11.2125
▁Tit	-11.2125
▁Englands	-11.2127
▁Patrouillen	-11.2129
▁Pflichten	-11.2133
ito	-11.2135
haftigkeit	-11.2135
▁Sprengladung	-11.2136
▁Morgens	-11.2137
▁Reu	-11.2137
gy	-11.2139
▁energisch	-11.214
▁Wendung	-11.2141
stig	-11.2142
▁mechanischen	-11.2143
▁Joch	-11.2144
▁Civil	-11.2146
▁kalte	-11.2146
▁ihme	-11.2148
▁Gottheit	-11.2155
▁Bildern	-11.2157
app	-11.2157
▁Wesens	-11.216
▁Rie	-11.216
▁Bedenken	-11.2162
▁Oeffnung	-11.2162
fre	-11.2162
▁Hauptsache	-11.2163
▁Printz	-11.2164
▁Kleine	-11.2166
▁Schlangen	-11.2167
ths	-11.2168
raht	-11.2169
rohre	-11.2169
▁Kol	-11.217
▁gemachten	-11.217
cca	-11.217
▁Lit	-11.2171
▁Untergang	-11.2173
▁eingeschlossen	-11.2173
▁Trau	-11.2174
▁setzung	-11.2174
glüh	-11.2176
▁Haare	-11.2176
▁Schließlich	-11.2179
▁Italiens	-11.2179
irende	-11.2182
té	-11.2182
Lo	-11.2182
chlein	-11.2183
spunkt	-11.2184
▁SEIDEL	-11.2185
▁vernichtet	-11.2185
schaf	-11.2188
▁frischen	-11.219
▁Voraus	-11.2191
lebt	-11.2193
glu	-11.2194
▁Gleit	-11.2194
▁Feststellung	-11.2196
▁(17	-11.2198
rot	-11.2199
▁Rast	-11.22
▁Fraw	-11.2202
▁gewaltige	-11.2202
▁Gesichte	-11.2203
▁Lehn	-11.2203
▁1.2	-11.2206
▁richtete	-11.2211
▁Scene	-11.2211
mol	-11.2214
rffen	-11.2219
▁Il	-11.222
rech	-11.2223
▁niedrig	-11.2224
vit	-11.2224
▁geöffnet	-11.2225
stimmung	-11.2225
▁scharfen	-11.2225
▁beliebt	-11.2226
cit	-11.2226
LA	-11.2227
schei	-11.2227
schweif	-11.2227
▁weiss	-11.2227
▁vorbei	-11.2228
ks	-11.2229
▁gehorsam	-11.2229
▁Motoren	-11.223
▁Unteroffizier	-11.2233
▁obigen	-11.2233
▁bezahlen	-11.2236
▁untereinander	-11.2237
▁zierlich	-11.2238
▁seelig	-11.224
lieferung	-11.2243
▁Mittelmächte	-11.2244
▁wichtigste	-11.225
▁kämpfen	-11.2251
▁ker	-11.2251
▁Entdeckung	-11.2252
▁entziehen	-11.2252
▁Stolz	-11.2254
▁Tan	-11.2256
seligkeit	-11.2257
▁450	-11.2258
manöver	-11.2259
▁Formeln	-11.2259
▁Fünf	-11.226
▁Eugen	-11.2261
▁gewi	-11.2261
▁fehl	-11.2262
gebirge	-11.2263
▁versammelt	-11.2265
▁sur	-11.2266
▁Gange	-11.2268
▁5000	-11.2268
▁Nar	-11.2269
giebt	-11.2269
stätten	-11.227
▁Mord	-11.2271
▁maß	-11.2271
▁kehr	-11.2271
▁Kraut	-11.2275
▁Emanuel	-11.2276
▁161	-11.2276
▁Einnahme	-11.2276
▁schrift	-11.2277
▁mittelbar	-11.2277
▁wirkung	-11.2277
▁kostbar	-11.2279
▁bü	-11.228
▁HERR	-11.2281
▁Unternehmungen	-11.2281
lösen	-11.2283
ition	-11.2285
▁herauf	-11.2285
▁erfüllen	-11.2287
▁ordnet	-11.2287
▁Spanier	-11.2289
▁deines	-11.2289
▁blau	-11.2289
▁gemeinsam	-11.229
▁Schei	-11.2292
LI	-11.2293
▁geschossen	-11.2293
▁Jtalien	-11.2293
blei	-11.2294
▁Eli	-11.2295
▁nahme	-11.2298
behelf	-11.2299
▁Verteilung	-11.2299
▁Seligkeit	-11.2299
namen	-11.2299
▁Qualität	-11.23
▁retten	-11.2302
▁1888	-11.2304
▁Gelehrten	-11.2304
▁132	-11.231
▁Zylinder	-11.231
▁empfiehlt	-11.231
▁Hochofen	-11.2311
▁1910.	-11.2313
▁sichere	-11.2316
▁133	-11.2318
▁nimmer	-11.2318
▁Stufen	-11.232
▁Zeitpunkt	-11.232
ky	-11.2321
▁frucht	-11.2321
▁schrifft	-11.2323
▁Harn	-11.2325
thums	-11.2326
▁Gesinnung	-11.2328
▁führenden	-11.2329
llte	-11.2329
▁verscho	-11.2329
▁Muskeln	-11.2329
mass	-11.233
▁hy	-11.2331
▁Schüssen	-11.2332
folg	-11.2332
▁138	-11.2334
diren	-11.2334
ios	-11.2337
yth	-11.2338
ada	-11.234
▁bezahlt	-11.234
rcke	-11.2341
bre	-11.2342
wr	-11.2342
▁Parteien	-11.2342
▁bestehend	-11.2343
▁Stufe	-11.2343
",	-11.2346
▁geheim	-11.2347
Hu	-11.2347
▁selbständig	-11.2348
▁überaus	-11.2348
▁Sim	-11.2349
lé	-11.235
stunde	-11.2351
▁Spalt	-11.2351
▁ergaben	-11.2352
rkung	-11.2352
▁vermieden	-11.2356
wür	-11.2358
zutreten	-11.2358
bestand	-11.2359
▁Mannschaften	-11.236
▁Nummer	-11.236
trifft	-11.236
brauch	-11.2362
▁Reichstag	-11.2362
▁erwähnte	-11.2363
▁quer	-11.2364
▁trans	-11.2365
cto	-11.2367
archiv	-11.2368
▁Fähigkeit	-11.2368
herzig	-11.2369
worffen	-11.2369
▁blauen	-11.237
▁holen	-11.237
▁Derselbe	-11.237
▁nige	-11.2371
▁148	-11.2374
▁301	-11.2376
TI	-11.2376
hlig	-11.2376
▁Venus	-11.2376
leid	-11.2377
wein	-11.238
▁Latein	-11.2384
▁Etappen	-11.2385
▁Wirbel	-11.2387
▁verfa	-11.239
▁Axe	-11.2391
▁Gran	-11.2393
▁Flamme	-11.2399
▁oper	-11.2399
▁Christlichen	-11.24
▁139	-11.2401
cirt	-11.2404
▁Gesell	-11.2405
▁kirchen	-11.2406
▁klare	-11.2408
▁Systeme	-11.2408
▁Gemeinden	-11.241
zei	-11.2411
▁Ari	-11.2411
ngling	-11.2416
▁erschwert	-11.2416
▁Große	-11.2422
▁Syr	-11.2423
▁erlo	-11.2425
▁Achtung	-11.2425
auch	-11.2427
ckliche	-11.2427
▁Kund	-11.2428
einheit	-11.2429
▁logisch	-11.243
▁namen	-11.243
▁trennen	-11.2431
nftig	-11.2431
hling	-11.2431
▁Indien	-11.2432
▁nördlichen	-11.2434
hten	-11.2435
▁Anderungen	-11.2437
▁Kerl	-11.2438
balken	-11.2438
▁45.	-11.2439
berein	-11.2441
Boot	-11.2442
gau	-11.2443
▁Gemeinschaft	-11.2443
▁versuchte	-11.2443
▁129	-11.2448
▁oberhalb	-11.245
schnur	-11.2451
äh	-11.2451
cze	-11.2451
▁achtet	-11.2452
Wer	-11.2453
▁junger	-11.2453
▁Tour	-11.2453
▁1913.	-11.2454
▁Theils	-11.2454
cklichen	-11.2454
kor	-11.2455
▁Brustwehr	-11.2456
wärtige	-11.2456
▁Ausgestaltung	-11.2457
▁fac	-11.2457
▁Strecken	-11.2459
▁rem	-11.246
▁erwachsen	-11.246
▁empfunden	-11.246
▁Venedig	-11.2462
▁damaligen	-11.2463
ham	-11.2465
▁Herkules	-11.2466
▁Aufl	-11.2467
▁geo	-11.2468
rchten	-11.2471
▁wen	-11.2472
▁Got	-11.2477
▁Erben	-11.2479
verlust	-11.248
drückt	-11.2481
Sp	-11.2483
farben	-11.2486
gestellet	-11.2486
uen	-11.2487
selbst	-11.2489
▁Anregung	-11.249
▁Thaten	-11.249
jeni	-11.2492
▁Tiefen	-11.2494
▁ur	-11.2494
▁vorige	-11.2495
▁jetzo	-11.2496
mpff	-11.2499
▁fromme	-11.2499
▁schreiten	-11.2499
▁Harmonie	-11.2501
genden	-11.2502
thigen	-11.2505
▁spitz	-11.2506
▁XXX	-11.2506
komme	-11.2511
gestreckt	-11.2513
▁Officier	-11.2513
▁Wollen	-11.2514
▁erneuert	-11.2519
▁werk	-11.2521
rstl	-11.2522
▁wiewohl	-11.2522
▁146	-11.2525
▁Besitzer	-11.2526
▁beschwer	-11.2527
wall	-11.2532
▁Talent	-11.2533
▁Werthe	-11.2533
▁156	-11.2536
▁Aufsätze	-11.2536
▁Hülfe	-11.2537
▁Handbuch	-11.2538
weh	-11.254
▁Verlaufe	-11.254
dringen	-11.254
schliessen	-11.2541
kru	-11.2542
▁Montenegro	-11.2542
sonnen	-11.2543
verfassung	-11.2544
legte	-11.2544
▁Leichen	-11.2545
▁britischen	-11.2552
tale	-11.2553
▁Zweite	-11.2553
lebens	-11.2554
▁Tabellen	-11.2554
▁künftig	-11.2555
gh	-11.2555
nstlich	-11.2555
▁quæ	-11.2556
eux	-11.2557
Un	-11.2558
gedacht	-11.2558
▁Guss	-11.2558
Zeit	-11.2559
gesell	-11.2559
bremse	-11.256
▁Sau	-11.2564
▁Vorposten	-11.2565
organe	-11.2565
tei	-11.2569
▁Gemüth	-11.2569
artikel	-11.257
▁Stationen	-11.2571
gebäude	-11.2572
▁gere	-11.2572
▁cre	-11.2573
▁Zins	-11.2575
▁Unglück	-11.2575
pet	-11.2576
▁Dame	-11.2577
▁faul	-11.2577
▁verkehrt	-11.2579
▁goth	-11.2579
▁stattfinden	-11.2581
boote	-11.2582
pl	-11.2583
star	-11.2584
▁ganzes	-11.2588
▁gewaltig	-11.2588
▁Hügel	-11.2591
▁geladen	-11.2592
▁Diß	-11.2593
▁verlo	-11.2593
▁Erzählung	-11.2594
▁glei	-11.2597
beln	-11.2597
▁theure	-11.2601
▁erteilt	-11.2602
▁parti	-11.2603
ndiger	-11.2604
inischen	-11.2605
▁südlichen	-11.2605
ois	-11.2607
▁Piave	-11.2607
posten	-11.2607
▁Eskadronen	-11.2607
▁verschwinden	-11.2607
▁Gift	-11.261
elemente	-11.2611
zehn	-11.2611
▁elastisch	-11.2613
▁Gipfel	-11.2613
tischer	-11.2617
AT	-11.2618
▁Preß	-11.262
▁verteilt	-11.2621
▁ähnlicher	-11.2621
felder	-11.2622
▁Kabel	-11.2624
▁Verletzung	-11.2625
charakter	-11.2629
rates	-11.2629
▁naturgemäß	-11.2631
preis	-11.2632
▁Geistlichen	-11.2633
▁Eck	-11.2635
▁hindert	-11.2636
▁Erkenntniß	-11.2636
▁erhebt	-11.2636
▁Christenthum	-11.2636
bol	-11.2637
stabes	-11.2637
▁Hrn	-11.2637
▁Mars	-11.2637
spä	-11.2639
rik	-11.2641
deck	-11.2641
ologischen	-11.2641
stimmt	-11.2642
▁geübt	-11.2642
▁Aufbau	-11.2642
grau	-11.2643
▁Anleitung	-11.2643
mpfe	-11.2646
▁verb	-11.2647
▁Cultur	-11.2649
▁pas	-11.2653
▁Pal	-11.2654
▁Sorgfalt	-11.2655
▁Bein	-11.2656
uli	-11.2658
atoren	-11.2659
▁Verbrennungs	-11.266
6)	-11.2661
▁lob	-11.2662
▁Thatsache	-11.2662
▁Lord	-11.2666
▁Klapp	-11.2666
iff	-11.2668
▁143	-11.267
▁iede	-11.2671
▁Gefäß	-11.2672
▁Schlachten	-11.2673
▁Dunkelheit	-11.2675
küste	-11.2676
▁Zustände	-11.2677
▁bessern	-11.2678
▁DIE	-11.2679
Geschütz	-11.2679
sicher	-11.268
▁Bekleidung	-11.268
▁Heeresgruppe	-11.268
▁part	-11.268
▁geba	-11.2683
▁Treff	-11.2684
▁Bekämpfung	-11.2684
▁brennen	-11.2685
▁Beiträge	-11.2689
müthig	-11.2689
▁Nachfolger	-11.269
▁Schie	-11.269
▁Sattel	-11.269
▁Ple	-11.269
schauen	-11.2692
▁gestellten	-11.2694
zuziehen	-11.2695
▁greift	-11.2697
digst	-11.2697
gebrauch	-11.2699
▁Win	-11.27
▁türkischen	-11.2701
▁Führungs	-11.2703
▁XVII	-11.2705
▁Akademie	-11.2706
▁Thurm	-11.2709
▁wächst	-11.2709
▁Eig	-11.2709
brü	-11.2712
uel	-11.2712
▁Unschuld	-11.2713
▁besorgen	-11.2715
bon	-11.2716
rdigen	-11.2716
stossen	-11.2718
▁Koks	-11.2718
polizei	-11.2719
tretung	-11.2719
▁Bereit	-11.272
▁zählen	-11.272
▁esse	-11.2723
▁vieles	-11.2727
▁wollt	-11.2732
▁erhöhte	-11.2734
▁matt	-11.2734
▁Sammel	-11.2735
▁van	-11.2739
▁Sar	-11.274
▁Vorrede	-11.2742
▁Beförderung	-11.2743
▁freyen	-11.2743
▁bemerkenswert	-11.2743
▁annähernd	-11.2744
▁Mittelmeer	-11.2744
▁liessen	-11.2745
▁Ander	-11.2745
▁trachtet	-11.2745
▁betreffend	-11.2745
▁Haufen	-11.2746
▁Keller	-11.2746
▁Waare	-11.2747
▁fremder	-11.2748
▁ergänzt	-11.275
▁ununterbrochen	-11.275
kirche	-11.275
▁Thomas	-11.275
▁vollends	-11.2751
▁herangezogen	-11.2752
schwo	-11.2753
▁154	-11.2756
▁Architekt	-11.2756
▁vorübergehend	-11.2756
▁Fieber	-11.2757
rtlich	-11.2757
▁befanden	-11.2757
blau	-11.276
▁Sem	-11.2762
▁Type	-11.2763
Batterie	-11.2763
▁Haß	-11.2764
▁berücksichtigt	-11.2768
ngsten	-11.277
streng	-11.277
gler	-11.277
▁zweifelhaft	-11.277
hrliche	-11.2771
▁festgehalten	-11.2771
▁151	-11.2774
▁stoff	-11.2774
▁Euer	-11.2774
▁nochmals	-11.2775
zwei	-11.2776
patronen	-11.2776
col	-11.2777
stigen	-11.2778
lob	-11.2778
▁Real	-11.278
strafe	-11.278
▁Englische	-11.278
wies	-11.2781
▁Serben	-11.2781
▁Veränderungen	-11.2783
▁Indem	-11.2786
rmeeschießschule	-11.2786
leicht	-11.279
för	-11.2792
▁fecht	-11.2794
▁erforderliche	-11.2795
▁Namens	-11.2796
Kra	-11.2796
▁Gutes	-11.2796
rier	-11.2797
▁Cron	-11.2798
▁vollständige	-11.2799
▁bekant	-11.2802
mpe	-11.2805
▁Bä	-11.2805
olog	-11.2806
▁klei	-11.2808
▁Unruhe	-11.2809
▁Jerusalem	-11.281
▁Lemberg	-11.281
▁Zügen	-11.2812
▁Schwei	-11.2813
▁Spei	-11.2813
▁Stau	-11.2816
▁persönliche	-11.2816
▁vorgehen	-11.2817
haltige	-11.2817
▁Villa	-11.2818
stätte	-11.2819
▁Umfassung	-11.2819
geschützen	-11.282
▁Erhebung	-11.2821
▁stellet	-11.2822
▁sed	-11.2826
schalt	-11.2828
▁sauber	-11.2828
▁anstatt	-11.2828
fisch	-11.2829
▁Gleichzeitig	-11.2829
thür	-11.2829
▁weißen	-11.2829
mey	-11.283
▁Jedes	-11.283
▁herrliche	-11.2833
rchen	-11.2835
Du	-11.2835
▁Messung	-11.2835
Bei	-11.2836
▁unmittelbaren	-11.2838
▁Trocken	-11.2838
lot	-11.2838
▁zukommen	-11.2839
VI	-11.2839
▁rend	-11.284
▁Liebhaber	-11.2841
mitte	-11.2845
▁Bretter	-11.2845
▁persönlich	-11.2846
furt	-11.2849
▁Bemerkung	-11.2854
▁Trichter	-11.2854
▁Hauptquartier	-11.2855
▁“	-11.2856
▁German	-11.2856
▁wiewol	-11.2858
▁gehandelt	-11.2859
▁kung	-11.2859
▁Veränderung	-11.286
▁zweiffel	-11.2861
▁lehr	-11.2862
▁Beute	-11.2863
▁1901	-11.2865
▁Siemens	-11.2865
▁erlassen	-11.2866
▁1800	-11.2866
pper	-11.2868
Th	-11.2868
sky	-11.2868
fung	-11.2868
▁stimmen	-11.2869
▁Festungskrieg	-11.2869
fertigen	-11.287
▁Schwäche	-11.2872
▁aufwärts	-11.2873
▁neutral	-11.2877
mpel	-11.2877
▁enthielt	-11.2877
▁hingewiesen	-11.2878
fleisch	-11.288
▁Schwarmlinie	-11.2882
▁prob	-11.2882
hinder	-11.2883
▁Forschung	-11.2883
▁Horizontal	-11.2883
▁Senat	-11.2884
wicklung	-11.2885
▁Chr	-11.2888
▁schier	-11.2888
RA	-11.2893
llo	-11.2895
▁gelehrt	-11.2897
▁Ministerium	-11.2898
▁Gummi	-11.2899
fri	-11.29
▁Feldgeschütz	-11.29
▁Keine	-11.2901
▁nahen	-11.2904
—4	-11.2907
schiffen	-11.2907
▁Gesetzgebung	-11.2909
vertrag	-11.2909
▁verschlossen	-11.2909
▁ieder	-11.2912
ification	-11.2916
frisch	-11.2917
▁nehm	-11.292
gerückt	-11.2922
elli	-11.2924
▁Gestalten	-11.2924
▁Werkzeuge	-11.2924
▁geschnitten	-11.2924
▁blaue	-11.2924
▁Cz	-11.2925
▁tige	-11.2925
auto	-11.2925
▁moralischen	-11.2925
▁meint	-11.2926
laufende	-11.2928
Gra	-11.293
▁amerikanische	-11.2931
sorten	-11.2933
▁erleichtern	-11.2937
▁Klarheit	-11.2938
▁190	-11.2938
▁serbischen	-11.2939
▁bestellt	-11.2939
▁Ewig	-11.294
▁kosten	-11.294
▁Schraube	-11.2941
werts	-11.2943
▁abnehmen	-11.2943
▁selbsttätig	-11.2944
▁Aufklärungs	-11.2947
▁Cle	-11.2947
hülse	-11.295
▁unschuldig	-11.295
bereitung	-11.295
▁einig	-11.2952
trauen	-11.2953
▁Wasserstoff	-11.2955
▁Kategorie	-11.2956
tschen	-11.2957
kühl	-11.2958
▁Kugeln	-11.2959
▁Daraus	-11.296
50.000	-11.296
▁beschränken	-11.2962
▁Systems	-11.2962
Di	-11.2962
▁Etwas	-11.2964
▁Anschlag	-11.2965
gattung	-11.2965
▁Pastor	-11.2966
▁conc	-11.2969
▁musten	-11.2969
chtern	-11.297
▁lasset	-11.297
lv	-11.2971
cum	-11.2972
▁vorhergehenden	-11.2973
Jn	-11.2974
▁vergangen	-11.2975
▁Nor	-11.2975
▁dreht	-11.2976
▁Sig	-11.2977
▁Königin	-11.2978
ssung	-11.2979
▁Syl	-11.2979
geschlecht	-11.2979
fici	-11.2979
mensch	-11.298
▁schrieben	-11.298
pflan	-11.298
▁Cho	-11.298
▁zerstreut	-11.298
▁1200	-11.2982
▁Lind	-11.2985
hütte	-11.2985
▁selbsten	-11.2986
▁begrenzt	-11.2987
▁Geliebte	-11.2988
▁Sternen	-11.2988
300	-11.2989
▁dichter	-11.299
tive	-11.2992
▁BUCHHANDLUNG	-11.2993
▁Indessen	-11.2993
SS	-11.2993
▁Creatur	-11.2993
reiz	-11.2993
rufen	-11.2995
▁Entente	-11.2995
▁jemals	-11.3001
▁bisherige	-11.3002
▁meldet	-11.3005
▁Hülse	-11.301
▁Bayern	-11.3013
▁sorg	-11.3013
schreit	-11.3013
▁Bodens	-11.3013
▁Gescho	-11.3016
▁gesche	-11.3016
▁Stuttgart	-11.3017
▁Diesem	-11.3017
▁Metallen	-11.3018
▁Materials	-11.3018
vá	-11.302
rpers	-11.302
zügen	-11.3022
svoll	-11.3024
▁Manier	-11.3024
▁158	-11.3027
▁Mö	-11.303
▁erreichten	-11.303
▁warmen	-11.3031
Unter	-11.3032
▁mild	-11.3032
▁verliert	-11.3033
▁wirtschaftlich	-11.3034
deutsche	-11.3035
zufu	-11.3035
▁Präsident	-11.3036
▁134	-11.3037
▁Schlitten	-11.3037
▁Vorfeld	-11.3039
▁werd	-11.304
▁lebhafte	-11.304
zet	-11.3041
▁Esel	-11.3041
▁Truppenkörper	-11.3042
karte	-11.3042
▁sion	-11.3042
▁ausdru	-11.3043
▁Gy	-11.3044
▁Stiel	-11.3045
▁Physik	-11.3048
▁Var	-11.3049
▁himmlischen	-11.3049
Au	-11.305
▁Gewinnung	-11.3051
▁Stäbe	-11.3051
reisen	-11.3052
gleichung	-11.3053
▁verbindet	-11.3055
▁Lungen	-11.3056
▁Gleichungen	-11.3056
▁Speisen	-11.3058
▁Jungfer	-11.3059
▁Baden	-11.3059
▁hinder	-11.306
▁153	-11.306
▁360	-11.3062
streuung	-11.3063
forderung	-11.3064
▁verda	-11.3064
▁schwimmen	-11.3064
▁Robert	-11.3064
▁mangel	-11.3069
▁kni	-11.3072
▁meyne	-11.3072
akademie	-11.3073
▁Div	-11.3073
▁Weißheit	-11.3073
▁Steinen	-11.3074
▁Laden	-11.3075
Je	-11.3075
achtung	-11.3077
▁angewandt	-11.3077
▁vid	-11.3078
oma	-11.308
imi	-11.308
offensive	-11.3081
▁Pabst	-11.3082
▁Angelegenheiten	-11.3083
▁Kreisen	-11.3084
▁hervorragende	-11.3085
▁Streich	-11.3086
▁geeignete	-11.3086
▁seitdem	-11.3087
▁ausgestattet	-11.3091
▁best	-11.3091
wetter	-11.3093
nschte	-11.3094
phan	-11.3095
▁zweyten	-11.3095
schienen	-11.3095
▁streit	-11.3095
▁Tugenden	-11.3096
▁gross	-11.3096
▁Kleidung	-11.3099
schützen	-11.3102
▁wahrhaft	-11.311
▁Streu	-11.311
▁JEsus	-11.311
ꝛe	-11.3112
iel	-11.3112
▁Treffpunkt	-11.3112
maßen	-11.3113
gefähr	-11.3114
▁Fal	-11.3115
flossen	-11.3115
▁159	-11.3117
▁Schweine	-11.3118
▁Neuer	-11.3118
▁prim	-11.3118
Zusammenstellung	-11.3119
sachen	-11.3124
▁Los	-11.3125
▁einseitig	-11.3125
▁Karpathen	-11.3129
▁ausgedehnt	-11.3129
▁Explosions	-11.313
▁Ker	-11.313
gesetzte	-11.313
▁Beste	-11.3132
▁Geschäfts	-11.3135
▁stadt	-11.3136
▁ausgegeben	-11.3137
▁eignet	-11.3138
mpfen	-11.3139
▁Tische	-11.3139
▁brav	-11.3141
▁verderben	-11.3142
▁liber	-11.3142
schmelzen	-11.3143
▁Miss	-11.3143
+	-11.3144
▁Wurzeln	-11.3145
▁schwierigen	-11.3145
schlossen	-11.3146
zeigt	-11.3146
▁obern	-11.3148
▁Eisenbahnen	-11.3148
▁Dieselbe	-11.3151
Y	-11.3153
▁Bug	-11.3153
▁möglichen	-11.3154
▁schaften	-11.3156
▁Objekt	-11.316
▁230	-11.3164
schrieben	-11.3164
▁besonderes	-11.3164
▁Leut	-11.3165
▁Uberlegenheit	-11.3166
9)	-11.317
▁hängen	-11.317
▁aufzunehmen	-11.317
▁Vr	-11.317
federn	-11.3172
▁Bezüglich	-11.3172
▁unbedeutend	-11.3172
mul	-11.3174
▁Klassen	-11.3175
▁Schli	-11.3176
▁mercken	-11.3176
▁Verstärkungen	-11.3179
ting	-11.3181
▁131	-11.3181
▁Hilfsmittel	-11.3182
schreibung	-11.3183
▁Held	-11.3183
▁Behörden	-11.3183
stich	-11.3184
pit	-11.3184
▁Gebrauche	-11.3185
▁zählt	-11.3185
nzlich	-11.3185
sing	-11.3186
rest	-11.3187
bell	-11.3188
▁Hil	-11.3188
▁wur	-11.3188
▁Verhältniss	-11.319
▁Marck	-11.319
▁Rekruten	-11.3191
▁versprochen	-11.3191
ubi	-11.3191
▁Literaturblatt	-11.3192
▁richtiger	-11.3193
▁Abweichung	-11.3194
▁157	-11.3195
▁verglichen	-11.3196
▁Norm	-11.3196
▁Eingreifen	-11.3199
▁versagt	-11.3199
▁inwendig	-11.32
▁Straffe	-11.32
boten	-11.3201
▁Metz	-11.3202
▁Styl	-11.3203
▁Pet	-11.3204
tium	-11.3204
▁Mjr	-11.3204
▁Bley	-11.3206
▁rede	-11.3206
itate	-11.3207
▁gehörig	-11.3208
▁anfangen	-11.3208
▁0.5	-11.3208
hauen	-11.3211
▁Vorbild	-11.3211
gewo	-11.3212
rtigen	-11.3215
mun	-11.3216
▁leute	-11.3216
schöpf	-11.3218
▁ursach	-11.322
▁Anfange	-11.322
▁Genuß	-11.3221
▁bemerkte	-11.3221
▁vorsichtig	-11.3221
▁Gau	-11.3221
▁wirft	-11.3222
Fortsetzung	-11.3222
▁and	-11.3223
▁begleiten	-11.3224
▁Anordnungen	-11.3224
▁Schießtafel	-11.3225
▁Eph	-11.3225
▁Gewässer	-11.3226
▁ideal	-11.3227
▁Wirtschaft	-11.3228
▁geha	-11.3229
▁Daseyn	-11.3229
▁Gerichte	-11.3232
lim	-11.3233
▁pru	-11.3235
seit	-11.3235
Com	-11.3238
▁herausgegeben	-11.3239
▁selb	-11.3239
▁Sünde	-11.324
▁zufolge	-11.324
wölb	-11.3242
insel	-11.3243
schütz	-11.3245
▁1813	-11.3247
▁Sondern	-11.3251
ltigen	-11.3251
▁nationalen	-11.3252
▁Scheu	-11.3253
▁Versicherung	-11.3255
▁wissenschaft	-11.3255
▁ritt	-11.3258
▁schickte	-11.3258
werte	-11.326
▁Rech	-11.326
▁141	-11.3261
Was	-11.3262
▁Beamte	-11.3262
▁Instru	-11.3263
▁stumpf	-11.3264
▁Gewichts	-11.3265
mannschaft	-11.3266
gehn	-11.3266
▁gesammelt	-11.3267
▁sprang	-11.3267
▁Erlo	-11.3268
▁137	-11.3269
▁unterhalten	-11.3272
▁zehen	-11.3272
▁Athem	-11.3273
▁Num	-11.3274
▁verfahren	-11.3276
▁brauche	-11.3276
▁Gefäss	-11.3278
▁meh	-11.3279
slaw	-11.3279
klo	-11.3282
▁1809	-11.3283
riechen	-11.3283
......	-11.3284
▁Großbritannien	-11.3286
▁Stützpunkte	-11.3287
▁angenehme	-11.3287
▁Marschall	-11.3287
▁fal	-11.3289
ciren	-11.3289
▁grade	-11.329
▁löst	-11.329
niglichen	-11.329
blut	-11.329
▁Armeekmdo	-11.3294
mäh	-11.3294
▁hob	-11.3297
▁klagen	-11.33
frey	-11.33
▁heftige	-11.3301
▁krafft	-11.3301
farbig	-11.3302
llung	-11.3302
gebend	-11.3303
▁Kraftwagen	-11.3303
▁sonders	-11.3306
▁preußische	-11.3315
▁ruhe	-11.3315
▁Reif	-11.3316
▁Pascha	-11.3317
▁Gehäuse	-11.3323
▁pflicht	-11.3324
▁Dasselbe	-11.3324
▁Weite	-11.3325
▁hinunter	-11.3325
▁voneinander	-11.3326
rmig	-11.3326
▁Damm	-11.3326
▁eintritt	-11.3329
spen	-11.3331
▁Nasen	-11.3332
▁ältere	-11.3333
phor	-11.3335
lbe	-11.3336
▁Fel	-11.3337
▁1.1	-11.3341
typ	-11.3341
ID	-11.3342
ello	-11.3344
▁dringen	-11.3344
▁wünschen	-11.3347
▁verkauft	-11.335
▁beherrschen	-11.335
▁wünscht	-11.3351
ußere	-11.3351
▁Offnung	-11.3353
▁public	-11.3355
▁Früchte	-11.3355
▁Pont	-11.3355
▁Objekte	-11.3358
▁treue	-11.3359
▁dicken	-11.336
cksicht	-11.336
▁reiner	-11.3361
▁endgültig	-11.3362
widerstand	-11.3362
▁übernahm	-11.3364
▁Wis	-11.3364
▁vertra	-11.3365
omi	-11.3365
vater	-11.3366
▁Exemplar	-11.3366
▁hör	-11.3367
▁Seiner	-11.3368
▁Tiegel	-11.3368
▁beschreiben	-11.3369
▁tigkeit	-11.337
▁meinte	-11.3372
▁herauß	-11.3372
▁Gelb	-11.3375
posi	-11.3376
▁Sack	-11.3376
▁römische	-11.3377
▁Beitrag	-11.3378
▁Fundament	-11.3381
▁Maxim	-11.3383
▁kalten	-11.3383
▁Eisens	-11.3384
fl	-11.3384
▁mung	-11.3385
Haubitz	-11.3386
▁gewaltigen	-11.3386
▁Eva	-11.3388
zar	-11.3389
▁poetische	-11.339
▁Munitionswagen	-11.3391
▁Spitz	-11.3391
emp	-11.3393
▁vortheilhaft	-11.3394
artiger	-11.3396
▁binnen	-11.3396
kurs	-11.3397
▁forderte	-11.3398
stlich	-11.3398
▁Schlagbolzen	-11.34
▁Vortheile	-11.3404
▁ballistische	-11.3406
dal	-11.3408
▁Wolff	-11.3411
zehen	-11.3413
klein	-11.3414
▁umge	-11.3414
▁Hö	-11.3415
▁Ventil	-11.3419
▁hervorgerufen	-11.342
bolzen	-11.342
kleidung	-11.342
größe	-11.342
▁gewähren	-11.3426
process	-11.3426
▁Schneid	-11.3426
▁funden	-11.3428
▁drehen	-11.3428
▁unangenehm	-11.3432
▁Distanzmesser	-11.3439
▁anwenden	-11.3439
▁Allem	-11.344
▁Flü	-11.3442
▁bereiten	-11.3443
▁Zusammenwirken	-11.3446
▁Söhne	-11.3449
garten	-11.3449
nehme	-11.3451
bauer	-11.3451
▁Sicher	-11.3451
flotte	-11.3452
«.	-11.3452
▁genossen	-11.3452
anische	-11.3453
ür	-11.3455
▁üben	-11.3455
▁let	-11.3456
▁Barbar	-11.3457
▁leb	-11.3457
▁gebrauchet	-11.3457
gedanken	-11.3459
▁Wachsthum	-11.3465
▁pfleget	-11.3465
bank	-11.3467
▁Proben	-11.3467
▁Ochsen	-11.3471
▁Verbrennung	-11.3472
▁Depot	-11.3474
▁rec	-11.3475
neben	-11.3477
stehn	-11.3478
▁Erfüllung	-11.3478
stäbe	-11.3479
cer	-11.3481
gner	-11.3482
▁weiteres	-11.3482
▁Palm	-11.3485
▁Mittelalter	-11.3486
▁Blind	-11.3487
▁nischen	-11.3487
▁Roß	-11.3488
issa	-11.3489
▁loß	-11.3491
▁Berliner	-11.3491
▁Gefangene	-11.3492
▁tho	-11.3493
▁zube	-11.3493
lichem	-11.3495
papier	-11.3497
▁geno	-11.35
bares	-11.3502
hor	-11.3502
▁persönlichen	-11.3503
▁Schwarm	-11.3504
▁ungeheure	-11.3504
tiven	-11.3505
gehoben	-11.3507
zza	-11.3507
▁Far	-11.3508
▁Verwundeten	-11.351
quelle	-11.3514
sburg	-11.3515
▁Kali	-11.3515
thes	-11.3515
▁absonderlich	-11.3516
▁merklich	-11.3516
▁besa	-11.3517
▁auffge	-11.3522
▁unvermeidlich	-11.3522
▁Jupiter	-11.3522
gelöst	-11.3523
▁Rohstoff	-11.3525
general	-11.3527
▁böse	-11.3528
tü	-11.3528
▁ergänzen	-11.3535
▁Mitglied	-11.3535
▁Sätze	-11.3536
▁Bischof	-11.3537
pflanzt	-11.3538
dliche	-11.3541
▁48.	-11.3542
▁Weisungen	-11.3544
▁mund	-11.3545
▁angeblich	-11.3546
▁Wende	-11.3548
dlichen	-11.3551
Bau	-11.3551
auer	-11.3554
▁augenblicklich	-11.3555
lagerung	-11.3555
▁Offen	-11.3555
▁Tier	-11.3558
▁fieng	-11.356
bisch	-11.3561
▁erörtert	-11.3561
enthal	-11.3562
rder	-11.3563
▁red	-11.3566
▁260	-11.3567
▁Spinn	-11.3569
kolonnen	-11.3569
roh	-11.357
zeitig	-11.357
▁Auftreff	-11.3575
▁Auftreten	-11.3576
ziele	-11.3577
▁Blute	-11.3578
▁Camp	-11.3578
ffnen	-11.3581
▁Jahrhunderte	-11.3582
▁westlichen	-11.3582
schwei	-11.3588
spalt	-11.359
▁Gefahren	-11.3592
▁verrichtet	-11.3594
gase	-11.3595
▁zeugen	-11.3601
▁Knoten	-11.3601
nacht	-11.3601
wacht	-11.3602
▁Eil	-11.3604
▁Sieges	-11.3605
brunn	-11.3609
▁Zugs	-11.3609
▁kehrt	-11.3613
zw	-11.3614
▁vater	-11.3614
onien	-11.3616
▁beschränkte	-11.3616
▁Eintheilung	-11.3616
ière	-11.3617
inhalt	-11.3618
▁Schmidt	-11.3619
▁aufnehmen	-11.362
sprach	-11.362
▁schädlich	-11.3621
bart	-11.3621
▁Ausbruch	-11.3622
▁270	-11.3622
▁Methoden	-11.3624
▁leidet	-11.3624
▁fliegen	-11.3627
ola	-11.3629
▁herzlich	-11.363
▁bre	-11.3632
▁Bad	-11.3632
gieng	-11.3633
▁Terrainwinkel	-11.3634
melde	-11.3636
▁gesunden	-11.3637
Nach	-11.3638
▁ibid	-11.364
▁Regelung	-11.3641
▁Verkauf	-11.3641
Herr	-11.3643
▁sinnlichen	-11.3645
nutz	-11.3645
▁beschossen	-11.3646
▁wild	-11.3646
kapital	-11.3647
▁angezeigt	-11.3648
▁ergriffen	-11.3648
liegende	-11.365
▁Danck	-11.3653
▁nachfolgenden	-11.3653
▁46.	-11.3654
▁bildeten	-11.3655
▁geteilt	-11.3655
geteilt	-11.3656
▁wechseln	-11.3657
▁bindung	-11.3657
▁hö	-11.3657
▁Zeiger	-11.3659
▁britische	-11.366
suchung	-11.3661
füllen	-11.3662
▁springen	-11.3663
▁vollkommene	-11.3663
volk	-11.3663
verteidigung	-11.3664
▁versu	-11.3665
▁Aehnlichkeit	-11.3666
▁wunderlich	-11.3668
▁normal	-11.3669
8)	-11.3671
▁zweifel	-11.3672
läßt	-11.3673
▁gebohren	-11.3673
nderungen	-11.3673
▁insgemein	-11.3673
UT	-11.3674
spielen	-11.3677
▁Bou	-11.3677
▁nechst	-11.3678
▁Geschlechter	-11.3679
▁befördert	-11.3679
▁Rollen	-11.3681
▁280	-11.3681
▁Abweichungen	-11.3684
▁Tanz	-11.3689
▁Stange	-11.3689
getheilt	-11.3692
▁Leopold	-11.3692
▁Unterscheid	-11.3692
▁eilte	-11.3694
minen	-11.3696
▁142	-11.3696
▁buch	-11.3697
▁verba	-11.3697
▁Salpeter	-11.3698
▁Product	-11.3699
▁Eich	-11.37
▁zweimal	-11.3703
norm	-11.3705
äum	-11.3705
seel	-11.3705
systems	-11.3706
▁8)	-11.3707
▁Wehrgesetz	-11.371
▁car	-11.371
▁vnge	-11.3711
▁Wink	-11.3712
▁Zar	-11.3712
▁Adolf	-11.3719
▁Gemeine	-11.3719
▁Orth	-11.3719
inspektor	-11.3719
haffte	-11.3722
uit	-11.3722
▁litt	-11.3723
▁Febr	-11.3723
/19	-11.3723
▁verständlich	-11.3724
▁ungeachtet	-11.3727
▁Raumes	-11.3727
▁verschoben	-11.3728
▁Gruben	-11.3729
▁eingehende	-11.3729
▁weiße	-11.373
sraum	-11.3733
▁Dienstzeit	-11.3733
▁Mittags	-11.3735
▁hierüber	-11.3736
▁zunehmen	-11.3736
▁dieweil	-11.3737
Tra	-11.3738
▁Ast	-11.3738
▁Michael	-11.3738
▁konstant	-11.3738
▁übersichtlich	-11.3739
icum	-11.3741
▁Lauff	-11.3742
▁stete	-11.3743
▁Zement	-11.3744
▁Zieh	-11.3745
▁Fremde	-11.3746
▁Damen	-11.3748
zeichnen	-11.3748
ISCHE	-11.375
▁Teich	-11.3751
tieren	-11.3751
▁einschließlich	-11.3751
scen	-11.3753
▁nachzu	-11.3753
itu	-11.3753
▁Wacht	-11.3754
selben	-11.3755
▁weitla	-11.3762
▁Bir	-11.3762
▁schreibet	-11.3763
▁beruhen	-11.3765
▁(12	-11.3765
▁darbey	-11.3767
Lu	-11.3767
verbindung	-11.3767
▁Oper	-11.3767
▁Darumb	-11.3768
helfen	-11.3772
▁horizontale	-11.3772
kämpft	-11.3773
▁verab	-11.3774
▁newe	-11.3777
werden	-11.3777
▁bemüht	-11.3778
▁diesmal	-11.3778
▁Geschenk	-11.3781
▁bekennen	-11.3781
▁baut	-11.3782
▁Spo	-11.3783
▁tit	-11.3784
▁Alfred	-11.3785
isieren	-11.3785
ohne	-11.3788
▁erhob	-11.3791
▁artilleristisch	-11.3791
▁friedlich	-11.3792
tribu	-11.3792
▁Hervor	-11.3793
▁läuft	-11.3795
▁handen	-11.3795
▁anderem	-11.3796
regi	-11.3798
▁neuerdings	-11.3798
▁droht	-11.38
▁Hero	-11.3801
▁stre	-11.3801
striche	-11.3802
▁Galli	-11.3804
▁Galle	-11.3804
geburt	-11.3804
thi	-11.3805
▁Arg	-11.3805
▁Darauf	-11.3806
▁schneiden	-11.3808
grü	-11.3808
▁Moral	-11.3809
▁Dan	-11.3809
▁Rohrrücklauf	-11.3811
▁schweigen	-11.3812
▁gewalt	-11.3813
▁oberste	-11.3813
lege	-11.3813
sohn	-11.3814
hmten	-11.3815
▁Asche	-11.3815
gelb	-11.3816
▁entdecken	-11.3817
▁Könige	-11.3817
▁Produktions	-11.3817
▁Merk	-11.3818
▁beku	-11.3821
▁Andacht	-11.3821
festigkeit	-11.3824
▁Europas	-11.3827
rol	-11.3827
▁Bäume	-11.3829
▁dacht	-11.3829
▁dunkle	-11.383
▁Schmuck	-11.3831
möglichkeit	-11.3834
▁Dä	-11.3835
schön	-11.3835
nftigen	-11.3836
▁gleichwohl	-11.3838
▁6000	-11.3838
▁Handeln	-11.384
▁Befehls	-11.3842
arme	-11.3843
▁1902.	-11.3843
▁verrichten	-11.3847
zeigen	-11.3847
▁straf	-11.3847
▁Jammer	-11.3848
▁dortigen	-11.3849
▁Orientierung	-11.385
ssige	-11.385
▁einfa	-11.3851
▁theilweise	-11.3852
▁Erscheinen	-11.3854
Ober	-11.3854
stellte	-11.3855
zylinder	-11.3858
▁num	-11.3859
▁weiblichen	-11.386
endorf	-11.3861
▁Gesellen	-11.3862
arius	-11.3863
▁vnsere	-11.3865
▁Beleuchtungs	-11.3867
▁Nachteil	-11.3867
▁Schlachtfeld	-11.3868
▁Indi	-11.3868
OS	-11.3869
▁notwendigen	-11.3869
▁Phase	-11.3869
▁Oblt	-11.387
▁Dasein	-11.387
ava	-11.387
▁dero	-11.3871
▁lose	-11.3872
▁dauert	-11.3874
ersdorf	-11.3881
dencken	-11.3882
aner	-11.3883
Ü	-11.3884
▁real	-11.3884
ubigen	-11.3885
▁herfu	-11.3885
▁reisen	-11.3887
▁bringet	-11.3887
▁Besondere	-11.389
keil	-11.389
person	-11.3891
▁unternommen	-11.3892
▁vermehren	-11.3892
▁Kauff	-11.3893
▁verhei	-11.3896
gehe	-11.3899
▁deutlicher	-11.3899
▁Hugo	-11.3899
▁hierdurch	-11.3901
gesendet	-11.3905
▁Cour	-11.3907
tums	-11.3907
▁Bereich	-11.3908
▁zersto	-11.3908
▁Einflüsse	-11.391
▁Sonn	-11.391
▁Güte	-11.391
▁Nachdruck	-11.3911
▁gewünscht	-11.3912
▁voraussichtlich	-11.3912
▁Zähne	-11.3912
seitige	-11.3914
italien	-11.3915
▁Wünsche	-11.3916
▁scharff	-11.3918
▁Richtigkeit	-11.3918
▁Buchdrucker	-11.3924
schied	-11.3924
schmied	-11.3924
▁Vollendung	-11.3925
▁feindlicher	-11.3925
▁Epoche	-11.3925
▁Heraus	-11.3925
▁Holla	-11.3926
▁Hahn	-11.3927
ffin	-11.3929
▁Zeitschriften	-11.393
▁Geistliche	-11.3931
▁Siege	-11.3931
▁umso	-11.3931
▁Verpflichtung	-11.3932
▁folgend	-11.3932
▁flach	-11.3934
▁Senk	-11.3936
▁unrecht	-11.3937
ique	-11.3938
▁elek	-11.3938
▁daneben	-11.3943
▁entfernte	-11.3943
▁vertikal	-11.3946
▁pel	-11.3947
▁vergebens	-11.3948
Wie	-11.395
▁Kost	-11.3951
unterricht	-11.3956
▁mä	-11.3957
▁Gewo	-11.3957
versammlung	-11.3958
▁sammelt	-11.396
▁woher	-11.396
▁klaren	-11.3962
▁dieselbige	-11.3962
disch	-11.3963
schle	-11.3964
▁0.1	-11.3964
▁Experiment	-11.3966
▁Gymnasium	-11.3966
▁184	-11.3968
deckung	-11.3968
▁bezieht	-11.3972
smäßig	-11.3972
stliche	-11.3972
▁last	-11.3972
▁Gefangenen	-11.3974
▁tem	-11.3977
▁verse	-11.3977
▁Rüstung	-11.3977
▁wuste	-11.3978
trum	-11.3978
▁spezifisch	-11.3979
ando	-11.3982
▁(15	-11.3985
haubitze	-11.3985
▁Apollo	-11.3986
▁einheitliche	-11.3986
▁willst	-11.3987
ül	-11.3987
alische	-11.3989
▁Ballons	-11.3991
gerichts	-11.3992
▁Mach	-11.3992
▁unentbehrlich	-11.3993
▁Kenntniß	-11.3993
here	-11.3994
▁Gewölbe	-11.3995
▁antworten	-11.3996
▁ô	-11.3996
quisit	-11.3996
▁Nickel	-11.4003
▁Dennoch	-11.4003
▁deutet	-11.4003
gegriffen	-11.4004
komm	-11.4004
pho	-11.4005
▁Fabel	-11.4007
▁47.	-11.4007
▁bekommt	-11.4007
Division	-11.4008
Neu	-11.4008
Deutsche	-11.4008
geschnitten	-11.4011
▁schickt	-11.4012
▁geschlossene	-11.4013
cel	-11.4014
▁zutreffend	-11.4015
predigt	-11.4015
hner	-11.4015
▁wofern	-11.4019
▁Schalt	-11.4021
▁wartet	-11.4022
drängt	-11.4025
▁angemessen	-11.4027
▁redu	-11.4027
▁Becken	-11.4027
forder	-11.4028
▁feldmäßige	-11.4028
schan	-11.4028
rtner	-11.4028
▁Mast	-11.4029
▁östlichen	-11.4029
diert	-11.4029
▁Verstande	-11.4029
baues	-11.4031
▁bißher	-11.4032
lings	-11.4032
wirkt	-11.4032
▁Thatsachen	-11.4033
▁fühlbar	-11.4035
▁Glaub	-11.4038
▁entwickelte	-11.4039
▁Mobilisierung	-11.4039
▁vermischt	-11.4041
▁dienet	-11.4042
kunfft	-11.4042
lation	-11.4042
bad	-11.4044
king	-11.4048
▁gegründet	-11.4048
▁vernichten	-11.4049
wissenschaft	-11.405
sö	-11.405
▁Köpfe	-11.4053
▁Vergrößerung	-11.4054
▁allda	-11.4055
▁Beine	-11.4055
▁besagt	-11.4056
lp	-11.4057
▁eingenommen	-11.406
▁sach	-11.4061
▁Sorgen	-11.4062
▁Gefallen	-11.4065
▁eigent	-11.4065
▁liess	-11.4065
sek	-11.4066
händler	-11.4066
nkte	-11.4067
▁Sprung	-11.4069
slinie	-11.407
▁Gebieten	-11.4073
▁Spuren	-11.4073
row	-11.4074
▁Redaktion	-11.4075
▁geniessen	-11.4079
▁Geho	-11.408
▁Leidenschaft	-11.4083
▁bedu	-11.4083
tiger	-11.4085
▁Drachen	-11.4086
europa	-11.4087
höhen	-11.4087
▁entfernen	-11.4088
zweifel	-11.4089
▁XVIII	-11.409
▁Ordens	-11.4091
▁Kappe	-11.4093
▁himmlische	-11.4094
bür	-11.4095
▁thierischen	-11.4095
▁Brigaden	-11.4096
▁merkt	-11.4096
▁Schwein	-11.4098
▁Erwartung	-11.4102
Or	-11.4104
▁Meldungen	-11.4104
▁Fuhr	-11.4105
kräftig	-11.4105
▁bekleidet	-11.4106
fehl	-11.4108
jäger	-11.4109
cour	-11.411
▁entlang	-11.411
trie	-11.4112
▁Pulvers	-11.4112
lzt	-11.4113
▁him	-11.4114
▁gefährdet	-11.4116
▁verlängert	-11.4116
▁grossem	-11.4116
▁Beweglichkeit	-11.4117
▁tor	-11.4119
alischen	-11.4121
▁Object	-11.4122
via	-11.4122
▁aufgestellten	-11.4124
tlein	-11.4125
straf	-11.4127
▁darmit	-11.4128
brett	-11.4129
▁Wahrnehmung	-11.413
verbände	-11.4131
▁Mission	-11.4131
▁omni	-11.4131
locken	-11.4133
tzten	-11.4135
tiefe	-11.4137
viso	-11.4138
▁Freilich	-11.4138
▁öffentlich	-11.4139
▁Ausland	-11.4141
ont	-11.4142
beut	-11.4142
▁Fahrzeug	-11.4145
▁giengen	-11.4146
▁1.3	-11.4146
heilig	-11.4149
provi	-11.4149
▁wirksame	-11.415
▁unan	-11.415
▁Schnur	-11.4151
▁wem	-11.4152
gerichte	-11.4152
▁Sieger	-11.4153
▁Säulen	-11.4154
▁nec	-11.4154
stütz	-11.4154
niglich	-11.4154
▁1878	-11.4156
▁befestigte	-11.4158
▁Bettung	-11.4159
▁Marmor	-11.4159
▁merck	-11.4159
ttin	-11.4159
▁Jhn	-11.416
▁gott	-11.4161
thol	-11.4162
▁Details	-11.4164
▁Verwertung	-11.4164
▁Hülsen	-11.4165
▁sonderbare	-11.4165
▁danach	-11.4165
röhren	-11.4169
▁Gestein	-11.4177
▁ital	-11.4177
▁Schauspiel	-11.4177
▁geeigneten	-11.4178
▁Hey	-11.4179
▁Satan	-11.418
▁Künst	-11.4181
weck	-11.4182
▁Heute	-11.4182
▁angezogen	-11.4183
▁bewegliche	-11.4185
▁Stimm	-11.4185
▁üblichen	-11.4186
glo	-11.4188
ncket	-11.4189
Wien	-11.419
Scha	-11.4191
▁tot	-11.4192
ingenieur	-11.4192
▁is	-11.4196
dach	-11.4197
▁positive	-11.4199
▁entzu	-11.4199
▁Treppe	-11.42
▁gebildeten	-11.42
▁prä	-11.4201
korn	-11.4201
▁gültig	-11.4203
▁Junge	-11.4207
kraut	-11.4208
ræ	-11.4208
rathe	-11.421
weich	-11.4211
▁(1.	-11.4211
▁griechische	-11.4211
▁Leu	-11.4212
▁intensiv	-11.4212
▁Schaff	-11.4213
▁Wett	-11.4217
▁Ell	-11.4218
▁lauten	-11.4219
▁Phosphor	-11.4219
▁thum	-11.422
culi	-11.4221
▁stellten	-11.4221
▁wehren	-11.4221
▁Mangan	-11.4224
▁tract	-11.4224
▁Blicke	-11.4225
kommt	-11.4225
▁ausgedehnte	-11.4226
▁Herausgegeben	-11.4227
▁Schwerpunkt	-11.4229
▁kinder	-11.423
kommandos	-11.4233
▁Vetter	-11.4233
▁ursprünglichen	-11.4234
▁schriftlich	-11.4234
grenz	-11.4234
▁Aufsicht	-11.4235
▁organischen	-11.4236
tine	-11.4236
▁geachtet	-11.4237
▁lebenden	-11.4237
▁Sü	-11.4239
▁Aussage	-11.424
▁behufs	-11.424
ltern	-11.4242
▁christlichen	-11.4243
opol	-11.4244
▁doppelten	-11.4245
bedingung	-11.4245
ischem	-11.4246
▁Bestrebungen	-11.4247
▁pol	-11.4247
▁Hein	-11.4248
Her	-11.4249
▁Fahnen	-11.4249
umb	-11.4249
▁Bezirks	-11.425
eurs	-11.4251
▁Fichte	-11.4252
kalk	-11.4253
hrscheinlichkeit	-11.4254
▁Rau	-11.4254
▁indirekt	-11.4254
▁stehend	-11.4255
gelaufen	-11.4255
▁Erka	-11.4257
▁Tragtier	-11.4258
stecken	-11.4259
assi	-11.4262
▁weinen	-11.4263
▁rückwärtigen	-11.4263
▁zier	-11.4264
▁inne	-11.4265
▁aktiven	-11.4266
▁benachbarten	-11.4267
ctus	-11.4267
▁Wiederholung	-11.4268
▁Erwerb	-11.4269
▁Dol	-11.4269
block	-11.4271
▁Farb	-11.4271
Wir	-11.4273
löcher	-11.4275
▁Fasern	-11.4275
▁Tele	-11.4277
ziffer	-11.4281
ngung	-11.4285
▁Anzeige	-11.4285
▁militärisch	-11.4287
▁san	-11.4288
▁Segel	-11.4288
▁poli	-11.4289
▁Schläge	-11.429
▁erhitzt	-11.4291
trug	-11.4293
▁thatsächlich	-11.4296
redet	-11.4298
▁Graff	-11.4298
Bi	-11.4299
▁gelangten	-11.43
▁schichte	-11.43
verbindungen	-11.4301
▁Spr	-11.4303
ßigkeit	-11.4303
▁ertheilt	-11.4303
▁fried	-11.4303
stürzt	-11.4303
nehmung	-11.4304
Co	-11.4305
▁Grabe	-11.4307
bur	-11.4308
▁ungarischen	-11.4309
▁Weiss	-11.431
▁heisst	-11.4311
▁überschreiten	-11.4311
▁1900.	-11.4312
konstruktion	-11.4312
bricht	-11.4315
höhle	-11.4316
▁Richard	-11.4318
▁beschriebenen	-11.4318
udi	-11.4318
gol	-11.4319
▁Mitleid	-11.4321
▁schme	-11.4321
▁Pest	-11.4322
▁Kurbel	-11.4322
▁rech	-11.4322
▁theuer	-11.4325
▁Vergleiche	-11.4325
▁Feldmarschall	-11.433
kämpfen	-11.433
versorgung	-11.4331
befestigung	-11.4332
▁hefftig	-11.4333
▁Vorschläge	-11.4335
einrichtung	-11.4335
Con	-11.4336
▁Sitte	-11.4338
zieher	-11.4338
▁Scheitel	-11.4339
iens	-11.4339
▁wachsende	-11.4343
aj	-11.4343
völker	-11.4344
stoffen	-11.4344
▁Abraham	-11.4345
▁göttliche	-11.4347
▁obige	-11.4347
▁gedencken	-11.4347
▁Infolge	-11.4348
läuft	-11.4348
▁225	-11.4351
▁Elementar	-11.4352
wende	-11.4353
▁geredet	-11.4354
▁Eintreffen	-11.4356
▁9)	-11.4357
▁müßten	-11.4358
▁Schema	-11.4363
▁1880	-11.4364
▁allma	-11.4366
vr	-11.437
▁Ampt	-11.4371
ppi	-11.4373
▁Gewand	-11.4374
▁Jnsel	-11.4374
▁Schaar	-11.4375
rief	-11.4375
publi	-11.4375
▁Fuchs	-11.4375
5%	-11.4375
nick	-11.4376
▁unterrichtet	-11.4377
▁verku	-11.4379
▁Poet	-11.4379
spannen	-11.438
▁sammeln	-11.438
▁11,	-11.4381
▁äußersten	-11.4381
▁Füße	-11.4382
▁erwies	-11.4383
▁Jtem	-11.4384
▁Sage	-11.4384
beruf	-11.4385
▁Brig	-11.4386
▁nationale	-11.4387
▁Bibliothek	-11.4387
▁zeichnen	-11.4388
▁Leo	-11.4389
▁Dunkel	-11.4389
▁Stellungs	-11.4389
▁begreiflich	-11.4391
divi	-11.4393
▁Mühl	-11.4394
▁Zell	-11.4394
▁Gene	-11.4395
sstelle	-11.4395
▁Streffleur	-11.4399
▁Theilung	-11.44
▁bedenklich	-11.4401
▁Gesichtspunkte	-11.4402
▁heftigen	-11.4406
To	-11.441
sarbeiten	-11.4412
▁ziehung	-11.4412
schichten	-11.4416
▁Zeitraum	-11.4416
▁begraben	-11.4417
personal	-11.4418
▁Sk	-11.4421
▁Ertrag	-11.4421
▁folgten	-11.4422
▁punkte	-11.4424
▁Gewiß	-11.4427
▁Garn	-11.443
▁treffend	-11.443
brachte	-11.4431
swerth	-11.4431
▁dichten	-11.4432
▁vereint	-11.4432
▁leget	-11.4435
▁1896	-11.4437
▁Wolle	-11.4437
▁Tyrann	-11.4437
▁Mine	-11.4441
ltige	-11.4442
7)	-11.4442
▁Südwest	-11.4444
ausgabe	-11.4444
▁Erörterung	-11.4444
▁fördern	-11.4444
▁Materialien	-11.4444
▁Dorfe	-11.4445
▁Volt	-11.4445
▁Cent	-11.4445
▁Gespra	-11.4447
▁Empfang	-11.4447
▁Oft	-11.4448
ér	-11.445
▁Quint	-11.445
logen	-11.4453
Verlag	-11.4454
▁eingeleitet	-11.4454
▁verma	-11.4455
kennt	-11.4455
▁nimmermehr	-11.4458
sperren	-11.4461
duction	-11.4462
hüllt	-11.4463
▁Aeste	-11.4463
cro	-11.4464
raumes	-11.4466
▁Bildungs	-11.4472
▁systematisch	-11.4472
magazin	-11.4472
▁Lenk	-11.4473
▁zugeteilt	-11.4474
▁Essig	-11.4475
▁Schnelligkeit	-11.4475
▁hielte	-11.4475
rckung	-11.4476
▁Erstes	-11.4476
▁Platze	-11.4476
stitut	-11.4476
▁Straßburg	-11.4479
▁Griechisch	-11.448
hrende	-11.4481
▁Kurve	-11.4484
▁Pflanze	-11.4486
▁Pho	-11.4487
▁Zunächst	-11.4487
▁vollem	-11.4487
▁verhu	-11.4488
▁Freunden	-11.4489
ndlichen	-11.4491
▁entscheidende	-11.4493
▁Städten	-11.4493
▁Pod	-11.4493
▁weitgehend	-11.4493
ča	-11.4494
vögel	-11.4494
▁eitel	-11.4495
▁himmel	-11.4495
schin	-11.4495
▁Schlacken	-11.4495
schalten	-11.4496
▁berechnen	-11.4496
IL	-11.4498
vid	-11.4498
feuerung	-11.4499
▁1859	-11.45
beamten	-11.45
▁Wurm	-11.4502
▁regieren	-11.4505
▁gewiss	-11.4507
▁kannst	-11.4509
▁süß	-11.4509
▁verwendeten	-11.4509
▁Sterben	-11.4514
ovac	-11.4515
▁Med	-11.4515
▁Erfinder	-11.4515
▁Drum	-11.4516
és	-11.4517
Baon	-11.4517
▁miss	-11.4518
gefunden	-11.4519
▁Stro	-11.4519
▁festzustellen	-11.4519
▁sandte	-11.452
▁Verwirrung	-11.4522
▁fortwährend	-11.4522
▁dise	-11.4523
wirth	-11.4524
▁woll	-11.4524
▁türkische	-11.4524
lehr	-11.4525
▁Jnsul	-11.4526
▁Patentschrift	-11.4529
verhältnissen	-11.453
▁Bolzen	-11.453
▁absoluten	-11.4533
▁genie	-11.4533
geschoß	-11.4534
zutragen	-11.4535
▁Ankunft	-11.4535
▁erhöhen	-11.4536
MA	-11.4539
chin	-11.4541
▁senden	-11.4542
▁kreis	-11.4544
▁ansehnliche	-11.4544
▁öffnet	-11.4544
▁beträchtlich	-11.4544
ssigen	-11.4545
lampen	-11.4546
▁Krebs	-11.4547
▁fung	-11.4547
▁getheilt	-11.4548
▁lauf	-11.4549
▁fügt	-11.455
▁Prim	-11.4552
▁Südost	-11.4552
▁Bienen	-11.4553
hil	-11.4553
▁Stämme	-11.4553
▁Erdboden	-11.4553
▁Rettung	-11.4555
▁Umgang	-11.4556
zon	-11.4557
cula	-11.4557
▁mand	-11.4558
▁Korporal	-11.4558
Revue	-11.4558
script	-11.4559
▁leeren	-11.4562
fische	-11.4564
ragende	-11.4565
abschnitte	-11.4566
czy	-11.457
▁Einfall	-11.4572
▁Vertheidiger	-11.4573
tief	-11.4573
▁Mängel	-11.4573
▁1.4	-11.4573
▁Detachement	-11.4574
▁Häfen	-11.4574
lustig	-11.4574
fah	-11.4575
▁wä	-11.4575
▁vermei	-11.4575
▁Wür	-11.4577
schlepp	-11.4578
▁gelehrte	-11.4582
▁Verschlusses	-11.4582
▁teilung	-11.4584
klingen	-11.4584
▁Eichen	-11.4584
▁ziehet	-11.4587
mond	-11.4588
▁Messen	-11.4589
▁zähe	-11.4589
▁loben	-11.4589
▁Block	-11.4591
▁stoßen	-11.4592
▁tungen	-11.4592
sichere	-11.4593
besser	-11.4593
▁Beschränkung	-11.4594
kessel	-11.4594
▁Büchse	-11.4595
gebot	-11.4596
▁schwierige	-11.4597
▁alß	-11.4598
▁wiederholte	-11.4599
▁Korrektur	-11.4601
▁Verminderung	-11.4601
▁band	-11.4603
▁Gleichheit	-11.4603
▁51.	-11.4605
entwicklung	-11.4605
▁niedriger	-11.4605
▁grad	-11.4606
▁trost	-11.4607
▁Orden	-11.4608
▁Teu	-11.4609
▁Anteil	-11.461
▁begreifen	-11.4611
▁mächtige	-11.4612
▁überzeugen	-11.4613
▁wählt	-11.4614
▁Lampen	-11.4615
▁wahrer	-11.4615
▁verblieben	-11.4616
▁Moskau	-11.4616
Kriegs	-11.4618
▁Freundin	-11.462
▁Ubel	-11.4621
▁trugen	-11.4623
▁Pfeffer	-11.4623
▁kochen	-11.4623
▁para	-11.4626
ckig	-11.4628
▁Geschäft	-11.4629
IV	-11.4629
▁USA	-11.463
österreich	-11.463
▁contra	-11.4631
▁750	-11.4632
▁Pin	-11.4634
kos	-11.4634
▁Herrlichkeit	-11.4635
▁eigenthümliche	-11.4635
▁Erreichung	-11.4638
post	-11.4645
thet	-11.4647
▁kleinste	-11.4647
▁Brauch	-11.4647
alismus	-11.4648
▁Größen	-11.4649
▁Heyden	-11.4649
▁Bestandtheile	-11.465
▁Mitternacht	-11.4652
▁schräg	-11.4652
▁Verzeichnis	-11.4652
▁selbigen	-11.4653
schleu	-11.4654
zwischen	-11.4657
▁kind	-11.4659
▁einigermaßen	-11.466
▁Motiv	-11.466
sorg	-11.4662
▁edler	-11.4663
▁Rho	-11.4664
▁stimmung	-11.4665
wahl	-11.4666
stige	-11.4666
▁aufgelöst	-11.4668
arch	-11.4669
▁umfangreiche	-11.4674
▁Henri	-11.4675
▁steif	-11.4676
▁Steg	-11.4676
ntzlich	-11.4676
flüssig	-11.4679
▁Bohrung	-11.4679
▁gesunde	-11.4679
weih	-11.4679
▁jedermann	-11.468
rigkeit	-11.4681
▁Eskadron	-11.4681
▁marsch	-11.4681
▁Vorlesung	-11.4681
▁Sechs	-11.4683
▁anzugreifen	-11.4683
▁bewa	-11.4683
▁--	-11.4683
▁gelo	-11.4685
▁Kiel	-11.4687
▁hierbei	-11.4689
denz	-11.4693
▁Gri	-11.4693
▁Folgende	-11.4693
▁1⁄2	-11.4693
stimme	-11.4693
schnelligkeit	-11.4694
▁Nachbarn	-11.4694
▁Sowjet	-11.4696
lauffen	-11.4697
▁derzeit	-11.4701
▁Boot	-11.4702
▁grundsätzlich	-11.4703
beginn	-11.4703
▁frommen	-11.4703
▁geregelt	-11.4704
▁Woll	-11.4705
▁landes	-11.4705
rstlichen	-11.4706
▁beigegeben	-11.4707
▁meiste	-11.4707
loß	-11.4707
▁dia	-11.471
▁dre	-11.471
schmei	-11.4716
▁Unterseeboot	-11.4717
▁förmlich	-11.4717
▁Hertzens	-11.4719
▁vernehmen	-11.4719
▁Ak	-11.4722
▁Fabriken	-11.4723
gift	-11.4723
▁Hannover	-11.4725
▁insgesamt	-11.4725
▁AB	-11.4726
krä	-11.4728
▁Cammer	-11.4729
▁jun	-11.473
infanterie	-11.4731
▁besi	-11.4735
▁Blo	-11.4735
▁begehrt	-11.4735
▁Spring	-11.4736
▁niß	-11.4736
▁königlich	-11.4737
▁Bedu	-11.4739
▁Louis	-11.474
▁stri	-11.474
▁beweist	-11.4746
▁verordnet	-11.4747
▁1897	-11.4747
▁Dor	-11.4748
▁überzeugt	-11.4748
straßen	-11.4748
▁lebe	-11.4749
▁militärischer	-11.4751
staub	-11.4751
▁1887	-11.4752
▁Marti	-11.4756
▁Asien	-11.4756
▁jn	-11.4758
▁eingetroffen	-11.4761
▁vorwiegend	-11.4761
▁Granat	-11.4761
findung	-11.4761
mengen	-11.4762
▁unbestimmt	-11.4762
part	-11.4763
auff	-11.4764
▁ausgedrückt	-11.4764
riert	-11.4764
hero	-11.4766
▁endet	-11.4766
mir	-11.4767
▁196	-11.4768
▁Stickstoff	-11.4769
bchen	-11.4771
▁denkbar	-11.4775
▁Exc	-11.4775
▁Central	-11.4776
▁vorstehenden	-11.4776
▁Heyland	-11.4778
ony	-11.478
▁rufen	-11.478
▁Stabs	-11.4781
chtiger	-11.4785
brigaden	-11.4785
AU	-11.4786
mpft	-11.4789
dant	-11.479
strömen	-11.4791
▁Leon	-11.4791
boot	-11.4791
gebrannt	-11.4792
▁Schnabel	-11.4792
▁lachen	-11.4793
▁bezüglichen	-11.4796
▁mangelhaft	-11.4797
imo	-11.4797
sehung	-11.4797
hafen	-11.4797
▁selbständigen	-11.4798
▁jüngere	-11.4798
▁unsichtbar	-11.4798
genom	-11.4798
schloss	-11.4799
▁Lasten	-11.48
▁Bene	-11.4801
▁gleichwie	-11.4802
▁Schwan	-11.4803
kante	-11.4803
▁Hirten	-11.4803
▁on	-11.4804
▁hinge	-11.4805
▁sec	-11.4806
▁Böhmen	-11.4806
▁Stö	-11.4808
▁griffen	-11.4809
füllung	-11.4811
▁Gitter	-11.4812
▁gebra	-11.4812
▁einsam	-11.4814
chan	-11.4814
▁merken	-11.4814
▁nungen	-11.4815
stabe	-11.4819
▁befestigten	-11.4819
▁schick	-11.4819
▁erwähnen	-11.482
▁hof	-11.4823
tic	-11.4823
▁1903.	-11.4824
▁starcke	-11.4824
▁Komman	-11.4827
behörden	-11.4827
▁Bernhard	-11.4829
▁Schlepp	-11.483
▁Deshalb	-11.483
▁verwu	-11.4831
▁Karst	-11.4831
▁195	-11.4832
▁gelingen	-11.4832
Heft	-11.4833
▁Rich	-11.4834
▁mannigfaltig	-11.4835
Gesellschaft	-11.4835
stete	-11.4835
Pla	-11.4837
gelände	-11.4838
falt	-11.4839
▁tugend	-11.4842
▁Individuen	-11.4842
▁unverändert	-11.4842
▁verläßlich	-11.4842
scheide	-11.4842
▁erwecken	-11.4843
▁verlegen	-11.4845
armen	-11.4846
fters	-11.4846
▁platz	-11.4846
▁216	-11.4846
▁verhält	-11.4847
▁zugeben	-11.4848
▁seelen	-11.4848
▁Rundschau	-11.4849
▁verbi	-11.485
triebe	-11.485
▁materiellen	-11.4851
▁schnelle	-11.4853
läu	-11.4853
ilia	-11.4855
▁vorzunehmen	-11.4856
▁Schulung	-11.4856
▁Kriegsschiffe	-11.4857
▁zarten	-11.4857
▁gedachten	-11.4858
giessen	-11.4858
cere	-11.4859
▁Zusammenhange	-11.4859
cla	-11.486
▁Rasen	-11.4861
▁Preuß	-11.4861
▁beladen	-11.4861
▁gelbe	-11.4862
▁beweglich	-11.4862
▁Ueberzeugung	-11.4864
▁Einheits	-11.4868
▁Formationen	-11.4869
▁christliche	-11.487
ric	-11.487
▁Summa	-11.4871
▁faßt	-11.4871
▁Tendenz	-11.4872
▁theoretischen	-11.4875
▁freye	-11.4876
▁wiederholen	-11.4876
▁bewahren	-11.4876
▁59.	-11.4876
▁rohe	-11.4877
ugnet	-11.4884
wolle	-11.4887
▁vorzugsweise	-11.4887
aro	-11.4888
▁Process	-11.4889
▁1886	-11.4891
▁sampt	-11.4891
▁abgeleitet	-11.4892
osa	-11.4892
hülle	-11.4894
▁Project	-11.4895
▁Messing	-11.4896
▁Ortschaften	-11.4896
▁Feldherrn	-11.4897
▁Seitenrichtung	-11.4897
▁Non	-11.4898
▁Chemie	-11.4898
▁Gei	-11.4898
▁vorgeschlagen	-11.4899
wellen	-11.4901
▁Bajonett	-11.4902
▁leuchtet	-11.4902
▁Tauben	-11.4902
nzt	-11.4903
▁versprach	-11.4905
▁Walter	-11.4906
▁Pfarr	-11.4907
▁heller	-11.4907
▁flüssige	-11.4909
▁willkommen	-11.4909
kette	-11.4909
▁Höhle	-11.4909
▁XX	-11.491
hart	-11.491
▁Wangen	-11.491
▁Ausgaben	-11.4911
▁gold	-11.4913
▁zunehmende	-11.4913
▁Generale	-11.4915
haar	-11.4916
gre	-11.4916
▁Tempierung	-11.4917
folgen	-11.4917
liegt	-11.4918
gefüllt	-11.492
▁gegenseitige	-11.4921
▁Handwerk	-11.4921
▁Schluss	-11.4922
▁Disziplin	-11.4924
▁erwerben	-11.4924
▁Häu	-11.4927
ndigung	-11.4927
schrey	-11.4927
könig	-11.4928
Comité	-11.4934
▁spielte	-11.4936
▁gedreht	-11.4937
▁resp	-11.4938
männer	-11.494
▁sicherer	-11.4941
▁Kolo	-11.4942
wal	-11.4943
nscht	-11.4945
legi	-11.4945
▁bedeutender	-11.4945
▁Vorwurf	-11.4948
▁sprachen	-11.4949
ala	-11.4951
▁letzteres	-11.4952
kirchen	-11.4955
▁zweyte	-11.4956
regen	-11.4957
vorschrift	-11.4958
▁frieden	-11.4959
blende	-11.4961
▁just	-11.4962
ungarischen	-11.4962
▁305	-11.4962
▁Lampe	-11.4962
tauglich	-11.4966
▁kle	-11.4966
▁1898.	-11.4967
Bru	-11.4968
hafter	-11.4969
▁Typ	-11.497
▁Linse	-11.497
▁Part	-11.4971
▁port	-11.4973
nfftig	-11.4975
▁Benennung	-11.4976
▁abgesondert	-11.4976
▁Pau	-11.498
▁Ihm	-11.4981
▁trennt	-11.4981
rach	-11.4981
▁besuchen	-11.4981
▁Gedicht	-11.4981
▁Gespräch	-11.4982
▁Erwägungen	-11.4983
▁satt	-11.4984
sius	-11.4984
thüm	-11.4985
▁seid	-11.4987
istisch	-11.4988
mbo	-11.4989
▁Falkenhayn	-11.4991
samt	-11.4992
▁toll	-11.4995
▁besetzen	-11.4995
▁Pfeiler	-11.4996
▁unglücklich	-11.4997
▁stumm	-11.4997
keln	-11.5001
▁Gulden	-11.5002
▁solange	-11.5003
▁vorbey	-11.5003
▁siegreich	-11.5004
lieder	-11.5005
▁keinerlei	-11.5005
waren	-11.5007
▁zerrissen	-11.5007
▁nachfolgende	-11.5008
mobil	-11.5008
sätzen	-11.5009
terie	-11.5009
that	-11.501
▁Schaaf	-11.501
▁wind	-11.5012
▁Studenten	-11.5013
▁Beendigung	-11.5014
prozess	-11.5016
geschlossen	-11.5017
▁Brit	-11.5021
▁künstliche	-11.5022
**)	-11.5025
träg	-11.5025
iker	-11.5026
seitigen	-11.5028
▁Schrei	-11.5028
▁Feldgeschütze	-11.5029
▁11/2	-11.5029
▁Verstandes	-11.503
▁ling	-11.503
pläne	-11.5034
▁Kenn	-11.5034
usern	-11.5034
mündung	-11.5034
mauern	-11.5035
▁Hang	-11.5036
▁October	-11.5036
▁Visierlinie	-11.5038
▁rauch	-11.5039
▁kri	-11.5039
▁Magd	-11.504
Gu	-11.504
▁Sir	-11.504
tausch	-11.5042
▁see	-11.5043
▁besetzten	-11.5044
▁feurig	-11.5044
ndische	-11.5045
materials	-11.5045
gezeichnet	-11.5046
▁chinesischen	-11.5046
▁Treu	-11.5047
▁artillerie	-11.5049
durchschnittlich	-11.5051
▁Richtkreis	-11.5052
▁Pforte	-11.5052
doppel	-11.5055
▁jegliche	-11.5057
hab	-11.5058
rlicher	-11.5058
ative	-11.5063
▁Rhe	-11.5064
▁Plane	-11.5064
▁trew	-11.5064
▁Jena	-11.5065
▁(7	-11.5067
richtet	-11.5069
▁pflegte	-11.5069
▁Geschossen	-11.5069
▁Schießens	-11.507
▁1882	-11.507
▁hervorragend	-11.5071
▁verste	-11.5072
▁leibliche	-11.5076
▁brau	-11.5076
Ar	-11.5076
▁wäh	-11.5076
▁wiesen	-11.5077
stücken	-11.5079
▁Pontons	-11.5079
▁gegossen	-11.5083
trin	-11.5085
uffen	-11.5085
▁rechtschaffen	-11.5085
hardt	-11.5086
gaben	-11.5087
hnten	-11.5087
▁stunden	-11.5088
▁serbische	-11.5088
▁wolt	-11.5088
▁wegung	-11.5089
hende	-11.5089
▁silberne	-11.5089
▁Vereins	-11.509
▁beteiligt	-11.509
▁Angel	-11.5091
▁Lock	-11.5093
Command	-11.5093
▁gewicht	-11.5093
alia	-11.5095
▁Kinde	-11.5096
▁kehren	-11.5097
▁Pension	-11.5097
▁Keyser	-11.5098
rea	-11.5098
▁drin	-11.5099
streichen	-11.5099
▁Schleif	-11.5099
Generalstabschef	-11.51
▁JP	-11.5101
▁entsprach	-11.5104
▁üblich	-11.5104
▁Kontakt	-11.5104
▁studierte	-11.5104
▁herrschen	-11.5105
cio	-11.5105
vgl	-11.5105
WE	-11.5108
UM	-11.5108
▁Beicht	-11.511
▁gefahr	-11.511
wö	-11.511
▁Degen	-11.5111
▁erregen	-11.5113
axe	-11.5114
röhre	-11.5115
nftige	-11.5116
▁Karren	-11.5116
glicher	-11.5117
▁hol	-11.5117
▁Ausfuhr	-11.5118
▁Radetzky	-11.5119
▁Verbot	-11.5122
▁1871	-11.5122
▁hiervon	-11.5123
▁ertragen	-11.5124
Wasser	-11.5124
kenntnis	-11.5126
▁verursachen	-11.5127
▁königl	-11.5128
▁befreit	-11.5128
▁beten	-11.513
spre	-11.5131
hagen	-11.5131
▁Sprengpunkte	-11.5135
▁Mehrzahl	-11.5136
▁annimmt	-11.5136
▁Trotzdem	-11.5137
▁Sehen	-11.5137
▁Taschen	-11.5137
▁schnellen	-11.5138
▁geschehe	-11.514
tätig	-11.5141
▁Grundsätzen	-11.5141
gehend	-11.5142
▁Capitain	-11.5142
▁hydraulische	-11.5142
▁demjenigen	-11.5142
▁schwieriger	-11.5144
▁negativ	-11.5146
gerieben	-11.5149
▁vorbehalten	-11.5149
▁Beweise	-11.5151
▁dünn	-11.5151
▁woran	-11.5151
▁Brü	-11.5151
▁Beachtung	-11.5152
▁Union	-11.5154
▁Lebensmittel	-11.5154
▁Unterhaltung	-11.5157
▁allzeit	-11.5157
▁Sca	-11.5159
▁suchten	-11.516
▁sonderbar	-11.5161
▁jenseits	-11.5162
rost	-11.5162
▁Kapitals	-11.5164
▁brennende	-11.5164
Tafel	-11.5165
zell	-11.5166
thaten	-11.5166
▁qv	-11.5167
▁Sekunden	-11.5168
geschmack	-11.517
▁gewest	-11.517
▁gedenken	-11.5171
leistungen	-11.5172
forschung	-11.5172
▁reichte	-11.5173
ndte	-11.5176
▁Einklang	-11.5176
nigl	-11.5181
▁stetig	-11.5183
ugnen	-11.5183
▁direkte	-11.5183
▁Lehm	-11.5186
▁Erkundung	-11.5188
▁Schiedsrichter	-11.5188
▁Schlesien	-11.5188
▁Militärkomitee	-11.5189
EF	-11.519
landes	-11.5192
▁organische	-11.5194
▁ermitteln	-11.5195
▁aufrichtig	-11.5195
▁zerstören	-11.5196
aktion	-11.5197
▁gelehrten	-11.5198
sanlagen	-11.52
▁Raht	-11.5201
▁Vic	-11.5202
“)	-11.5203
▁Braunschweig	-11.5203
▁Honig	-11.5203
▁bal	-11.5203
▁Hessen	-11.5204
▁Durchschlag	-11.5204
leuchten	-11.5205
rein	-11.5206
▁Gemahlin	-11.5206
▁vordersten	-11.5206
▁rücken	-11.5207
▁herrlichen	-11.5208
▁ständige	-11.5209
motoren	-11.5211
▁Stachel	-11.5212
▁Schmerzen	-11.5213
thy	-11.5213
ruhe	-11.5215
tterung	-11.5217
▁verschwunden	-11.5219
▁Span	-11.5224
gesagt	-11.5225
▁konstruiert	-11.5226
▁Ströme	-11.5226
▁frembde	-11.5226
▁kräftige	-11.5227
rippe	-11.5227
mbt	-11.5228
▁1.6	-11.5231
........	-11.5233
▁1850	-11.5233
▁Horizont	-11.5233
▁mächtigen	-11.5233
stückes	-11.5235
▁Elektrische	-11.5237
groß	-11.5237
▁Pack	-11.524
fäl	-11.5242
Si	-11.5243
schloß	-11.5244
▁zusehen	-11.5244
See	-11.5246
▁achtung	-11.5246
fältig	-11.5247
▁seligen	-11.5248
▁mals	-11.5248
▁Chem	-11.5249
yo	-11.5251
▁passend	-11.5253
tina	-11.5255
ales	-11.5256
▁zulassen	-11.5259
▁juristische	-11.5259
sprüche	-11.526
▁Vorrath	-11.5265
▁teilt	-11.5267
klasse	-11.5268
tori	-11.5268
▁materielle	-11.5268
▁Flüsse	-11.5269
geschrieben	-11.5269
gingen	-11.527
▁gedrückt	-11.5271
bliche	-11.5272
▁Alterthum	-11.5274
rffte	-11.5274
▁Papp	-11.5275
▁find	-11.5276
schleif	-11.5276
▁hochge	-11.5276
▁Schlachtschiffe	-11.5278
▁Vergangenheit	-11.528
▁aufzustellen	-11.5281
▁heisse	-11.5284
▁österr	-11.5284
schlug	-11.5284
▁Röhre	-11.5286
▁Standort	-11.5286
▁Ew	-11.5286
▁schiedenen	-11.5287
leget	-11.5288
▁tat	-11.529
▁darauß	-11.529
nadel	-11.5291
bia	-11.5293
▁abwechselnd	-11.5296
fallenden	-11.5297
▁Wart	-11.5297
▁mancherlei	-11.5298
Tag	-11.53
▁sank	-11.5303
▁Hieraus	-11.5303
▁Krakau	-11.5305
▁Brückenkopf	-11.5305
▁Nordost	-11.5305
▁Mur	-11.5306
▁Gestaltung	-11.5312
▁abgeschnitten	-11.5312
cial	-11.5312
▁Verderben	-11.5314
▁gegru	-11.5314
plex	-11.5315
▁Neid	-11.5315
▁unent	-11.5318
ministeriums	-11.5318
▁hältnisse	-11.5319
▁Kaum	-11.5319
▁kunte	-11.532
▁weibliche	-11.5321
sicherung	-11.5323
▁verfallen	-11.5324
nah	-11.5324
zzo	-11.5325
▁Individuum	-11.5327
gattungen	-11.5328
▁Schutzschild	-11.5328
▁Reflexion	-11.5328
▁genügende	-11.5329
▁Prophet	-11.5329
kular	-11.533
▁Jedenfalls	-11.5334
▁Luftwaffe	-11.5335
▁urtheilen	-11.5335
chtigkeit	-11.5336
▁sinnliche	-11.5338
▁49.	-11.5338
▁brauchte	-11.5338
zier	-11.5339
ball	-11.5339
politische	-11.534
▁verstärkte	-11.5341
ßere	-11.5341
▁Jüngling	-11.5342
▁Mechanik	-11.5342
▁Huf	-11.5343
▁bri	-11.5347
gesprengt	-11.5348
▁(8	-11.5348
▁Lange	-11.5349
▁such	-11.5352
ciert	-11.5352
▁Elementen	-11.5352
▁Biß	-11.5353
▁Seiden	-11.5355
▁Frost	-11.5356
▁Haubitze	-11.5356
▁dünne	-11.5356
▁Stru	-11.5356
▁angriff	-11.5357
▁lateinisch	-11.5358
▁Reglement	-11.5359
lberg	-11.536
▁sowol	-11.5363
▁gelingt	-11.5366
rius	-11.5367
▁Kupffer	-11.5368
ngig	-11.5369
▁vorgelegt	-11.5369
würfe	-11.5369
rica	-11.5371
▁Sing	-11.5371
chelt	-11.5371
▁verliebt	-11.5371
hoch	-11.5373
▁beseitigt	-11.5373
poniert	-11.5375
Flu	-11.5377
▁Acc	-11.5377
▁gelegene	-11.5378
zierung	-11.5379
gard	-11.5379
ney	-11.538
▁unum	-11.538
▁Vernunfft	-11.5381
Eisen	-11.5385
▁Mini	-11.5386
▁Landungs	-11.539
ndigkeit	-11.5391
▁Schacht	-11.5391
▁Schleim	-11.5392
▁untere	-11.5392
▁herrschenden	-11.5393
▁Auswahl	-11.5394
▁Stollen	-11.5395
▁Weges	-11.5395
▁kreuz	-11.5395
▁genugsam	-11.5397
▁liesse	-11.5399
▁bewahrt	-11.54
▁Hänge	-11.5401
▁militaire	-11.5404
▁Cardinal	-11.5405
▁Hiedurch	-11.5405
▁Fein	-11.5405
▁Auslande	-11.5405
▁Ortes	-11.5406
EIN	-11.5407
satzes	-11.5409
vorrichtungen	-11.5411
▁Schiffes	-11.5411
cular	-11.5413
schwellen	-11.5413
▁Unterbrechung	-11.5414
▁körper	-11.5415
gedeckt	-11.5416
▁Sporn	-11.5416
ventil	-11.5417
▁Anders	-11.5418
hold	-11.5418
▁1.)	-11.5419
chow	-11.5419
gesessen	-11.5419
▁Klima	-11.5421
▁Evangelium	-11.5422
▁GE	-11.5422
kol	-11.5422
▁drücken	-11.5425
bitte	-11.5426
regeln	-11.5427
▁Dieb	-11.5429
gängig	-11.543
gefahr	-11.5432
asia	-11.5433
▁Stel	-11.5436
▁Drähte	-11.5436
leitet	-11.5437
schaff	-11.5438
ité	-11.5439
▁0,2	-11.5439
ographisch	-11.544
▁todten	-11.544
▁rich	-11.5441
▁Objecte	-11.5441
▁gründet	-11.5441
▁2.)	-11.5442
vec	-11.5442
denken	-11.5444
▁Klu	-11.5445
▁mehrern	-11.5447
▁ernste	-11.5448
▁gesammten	-11.5449
▁Jakob	-11.5452
probe	-11.5453
spring	-11.5453
zellen	-11.5454
blen	-11.5455
▁mitunter	-11.5456
▁befehl	-11.5457
bald	-11.5457
decker	-11.5457
▁Feldherr	-11.5458
▁schlägt	-11.5461
▁Bauart	-11.5461
▁russ	-11.5462
▁gesta	-11.5463
▁Religions	-11.5464
▁Jnhalt	-11.5466
rant	-11.5466
▁Albanien	-11.5467
▁Liv	-11.5468
▁Bremse	-11.5468
▁regen	-11.5469
▁Organismus	-11.5469
!)	-11.5469
▁negative	-11.5471
wache	-11.5473
▁Wehrpflicht	-11.5473
▁Gela	-11.5473
▁bedürfen	-11.5475
▁Bestimmtheit	-11.5475
▁kürzeste	-11.5475
▁Uniform	-11.5475
reicher	-11.5476
behalten	-11.5476
stöße	-11.5477
▁Zielen	-11.5477
▁Dimensionen	-11.548
▁giebet	-11.548
wiegen	-11.5481
axi	-11.5481
▁Wichtig	-11.5482
▁Afrika	-11.5483
▁Wag	-11.5484
▁1849	-11.5485
▁Carol	-11.5485
lauff	-11.5486
▁Bronze	-11.5486
ër	-11.5487
▁ruft	-11.5488
▁horizontal	-11.549
▁beabsichtigte	-11.549
walde	-11.5492
iment	-11.5492
▁heb	-11.5492
▁genden	-11.5492
▁Feuerleitung	-11.5493
ford	-11.5493
▁zuwider	-11.5495
werkes	-11.5495
▁Lein	-11.5496
uffer	-11.5498
▁erwünscht	-11.5499
brecher	-11.55
▁laufenden	-11.5501
ielle	-11.5501
▁gebogen	-11.5501
tür	-11.5501
plätzen	-11.5502
▁entsprechender	-11.5502
▁bayr	-11.5503
ario	-11.5504
▁eingebaut	-11.5511
▁Feldzuges	-11.5513
▁gabe	-11.5513
Militär	-11.5514
▁schauen	-11.5514
▁Symbol	-11.5515
▁Tö	-11.5515
▁Weber	-11.5515
ET	-11.5515
▁Ausgleich	-11.5515
▁Direktor	-11.5515
▁Beschwerde	-11.5516
▁Heerwesen	-11.5517
▁Gebilde	-11.5518
▁ausfu	-11.5518
▁Kummer	-11.5518
▁Nan	-11.5519
▁abgeben	-11.5519
▁Heimath	-11.5523
▁Zeilen	-11.5524
▁1898	-11.5524
▁Baone	-11.5524
▁Frie	-11.5525
▁Bestandteil	-11.5527
farbe	-11.5528
▁überflüssig	-11.5528
theorie	-11.553
▁1901.	-11.553
▁Tiroler	-11.5534
zuges	-11.5535
stal	-11.5536
▁einziges	-11.5537
wichtig	-11.5538
▁vergrößert	-11.5538
schmerz	-11.5539
▁GdK	-11.5541
▁Mahl	-11.5543
tanz	-11.5545
▁Demnach	-11.5545
▁Beschädigung	-11.5546
1/4	-11.5548
▁Pein	-11.5548
guß	-11.555
▁Simon	-11.5552
▁Kir	-11.5553
vieh	-11.5553
▁vergeben	-11.5555
▁Pioniere	-11.5557
▁übernehmen	-11.5558
▁schlafen	-11.556
mantel	-11.556
▁Heilige	-11.5562
rchtet	-11.5563
aufnahme	-11.5564
▁Schafe	-11.5565
zahlen	-11.5565
▁Dreieck	-11.5566
▁Bibel	-11.5567
▁nachts	-11.5568
regierung	-11.5569
▁1897.	-11.5569
▁lage	-11.5572
gossen	-11.5573
▁jetzige	-11.5574
mittlung	-11.5577
onia	-11.5577
▁behielt	-11.5581
▁Sektion	-11.5582
▁Petrus	-11.5582
▁Zungen	-11.5582
laufenden	-11.5582
tiget	-11.5583
rät	-11.5583
▁Russ	-11.5584
▁Arz	-11.5585
▁Mac	-11.5586
▁manch	-11.5587
▁0.3	-11.5588
▁schie	-11.559
owitz	-11.5591
▁Torpedoboot	-11.5592
▁geschoben	-11.5593
▁Homer	-11.5594
▁Einbildung	-11.5594
▁Beweg	-11.5594
▁Gestell	-11.5594
▁erweckt	-11.5596
▁Salve	-11.5596
▁grössten	-11.5596
▁haft	-11.5596
gesprochen	-11.5597
gott	-11.5598
▁ende	-11.5599
lass	-11.56
▁anscheinend	-11.5602
▁Kör	-11.5602
pffel	-11.5603
▁genannte	-11.5604
▁Termin	-11.5604
▁Mündungs	-11.5605
▁203	-11.5605
▁eilen	-11.5606
▁Maximum	-11.5607
▁bunden	-11.5607
či	-11.5607
▁Schnecken	-11.5607
rnen	-11.5608
isiren	-11.5611
▁erschöpft	-11.5611
▁kranck	-11.5612
chy	-11.5612
▁Genu	-11.5613
▁Wahn	-11.5614
thümer	-11.5614
▁formiert	-11.5614
▁nackt	-11.5617
▁Oerter	-11.5618
▁Analyse	-11.5618
dank	-11.5621
án	-11.5621
ußerst	-11.5622
▁Programm	-11.5625
schneide	-11.5628
▁1877	-11.563
▁Schenkel	-11.5631
▁sämmtliche	-11.5631
▁hervorgebracht	-11.5633
▁Rußlands	-11.5633
▁wechselnde	-11.5633
▁unrichtig	-11.5634
▁schöner	-11.5635
rahmen	-11.5638
▁vermöge	-11.564
lösch	-11.5641
gänglich	-11.5641
werfung	-11.5642
▁entbehren	-11.5642
▁1885	-11.5642
uti	-11.5642
▁chi	-11.5643
▁reizend	-11.5643
drang	-11.5643
▁320	-11.5644
ndiget	-11.5645
▁betr	-11.5647
trägt	-11.5647
rfte	-11.5648
nun	-11.5649
Vi	-11.565
▁lehret	-11.5651
▁Feldbefestigung	-11.5651
▁starcken	-11.5651
schließung	-11.5651
Feuer	-11.5655
gräben	-11.566
▁205	-11.5661
▁feierlich	-11.5663
verschiebung	-11.5663
fabriken	-11.5664
▁übergehen	-11.5664
▁verschiedensten	-11.5666
▁schma	-11.5666
▁Ruder	-11.5667
rkt	-11.567
▁dran	-11.567
▁stimmte	-11.5671
▁locker	-11.5674
▁Direktion	-11.5674
rdert	-11.5674
▁192	-11.5676
lfte	-11.5678
▁bezeichneten	-11.5678
▁Vir	-11.5678
▁Heyl	-11.5679
uz	-11.568
mäsig	-11.5682
▁Verlängerung	-11.5682
▁sicherlich	-11.5682
▁gegliedert	-11.5683
▁angestrebt	-11.5683
▁Feldkanonen	-11.5686
▁Riegel	-11.5687
▁Thorheit	-11.5687
igni	-11.5688
▁Napoleons	-11.5691
▁Herrscher	-11.5691
hir	-11.5692
▁speciell	-11.5693
▁gesammte	-11.5693
tiker	-11.5693
▁erzogen	-11.5694
▁acc	-11.5698
▁Gouverneur	-11.5698
▁ökonomisch	-11.5698
feind	-11.5701
▁zugehörigen	-11.5701
isti	-11.5702
▁Pflug	-11.5706
▁1875	-11.5708
▁Seyn	-11.5708
▁irdische	-11.5711
▁rumänischen	-11.5711
▁worinnen	-11.5715
▁Spiele	-11.5715
stündige	-11.5716
Ent	-11.5717
▁Mittheilung	-11.5718
▁Gottesdienst	-11.5718
▁Brech	-11.5719
▁klagt	-11.5721
▁geringeren	-11.5721
▁Färbung	-11.5722
▁Königreich	-11.5726
nzel	-11.5726
▁verletzt	-11.5726
▁Jahrzehnt	-11.5727
▁Weile	-11.5727
▁fig	-11.5727
▁gib	-11.5728
▁Quartier	-11.5729
sphäre	-11.573
▁Lokomotiv	-11.573
▁Frühling	-11.573
▁1'	-11.5732
plici	-11.5733
▁Bade	-11.5734
zung	-11.5735
▁Divi	-11.5736
schaltung	-11.5739
treffer	-11.5739
▁nom	-11.5739
▁Viktor	-11.5739
▁erlauben	-11.574
zia	-11.574
▁1896.	-11.574
▁Rose	-11.5742
▁Che	-11.5744
▁wonach	-11.5745
▁Clau	-11.5746
▁Trains	-11.5747
higkeit	-11.5747
ganges	-11.5748
▁(16	-11.5751
▁Schmertzen	-11.5752
▁verfügbar	-11.5753
▁Qual	-11.5753
▁weitaus	-11.5754
▁gebräuchlich	-11.5754
▁Bosnien	-11.5754
▁Strick	-11.5755
▁abgenommen	-11.5756
▁Abnahme	-11.5759
darm	-11.5762
Ju	-11.5764
alle	-11.5768
▁Wesentliche	-11.5769
▁Belgrad	-11.5771
▁202	-11.5772
▁Erinnerungen	-11.5772
▁Mineral	-11.5774
▁vollzogen	-11.5775
▁dauerte	-11.5775
▁Schwung	-11.5776
▁330	-11.5776
ication	-11.5777
▁Rent	-11.5777
▁Scharf	-11.5778
Krä	-11.5779
stangen	-11.5782
▁gungen	-11.5782
methode	-11.5782
siedel	-11.5783
—5	-11.5784
vir	-11.5791
▁sichert	-11.5792
▁versteckt	-11.5792
▁medi	-11.5793
▁tal	-11.5793
räum	-11.5795
▁offiziell	-11.5795
▁lehrreich	-11.5795
▁197	-11.5796
▁Schlüssel	-11.5796
▁vertheilt	-11.5797
▁Feuerstellung	-11.5798
▁wünschenswert	-11.5798
▁Spiral	-11.5803
▁Qv	-11.5804
▁körperliche	-11.5806
gerüst	-11.5807
schal	-11.5809
▁Textfiguren	-11.5809
Seite	-11.5813
▁überwinden	-11.5813
▁Öl	-11.5814
kranz	-11.5814
pressen	-11.5815
▁Blg	-11.5815
▁Breiten	-11.5816
▁unterlassen	-11.5817
▁beweglichen	-11.5817
▁geraden	-11.5817
▁alsobald	-11.5818
▁Ham	-11.5818
▁Handhabung	-11.5819
stem	-11.5823
▁holt	-11.5825
▁empfing	-11.5828
ektor	-11.5829
▁Verbrauch	-11.5832
▁1.50	-11.5833
▁Kolonial	-11.5836
schätzung	-11.5836
▁Protze	-11.5836
▁235	-11.5837
▁dans	-11.5837
▁Pyr	-11.5837
wurzel	-11.5837
nebel	-11.5838
tauchen	-11.5838
[...]
